#include "magic_wand_model_data.h"

// We need to keep the data array aligned on some architectures.
#ifdef __has_attribute
#define HAVE_ATTRIBUTE(x) __has_attribute(x)
#else
#define HAVE_ATTRIBUTE(x) 0
#endif
#if HAVE_ATTRIBUTE(aligned) || (defined(__GNUC__) && !defined(__clang__))
#define DATA_ALIGN_ATTRIBUTE __attribute__((aligned(4)))
#else
#define DATA_ALIGN_ATTRIBUTE
#endif

const unsigned char g_magic_wand_model_data[] DATA_ALIGN_ATTRIBUTE = {
  0x08, 0x00, 0x00, 0x00, 0x54, 0x46, 0x4c, 0x33, 0x62, 0xff, 0xff, 0xff,
  0x03, 0x00, 0x00, 0x00, 0x10, 0x00, 0x00, 0x00, 0x24, 0x00, 0x00, 0x00,
  0x78, 0x00, 0x00, 0x00, 0x24, 0x00, 0x00, 0x00, 0x05, 0x00, 0x00, 0x00,
  0x78, 0x05, 0x00, 0x00, 0xb0, 0x04, 0x00, 0x00, 0xe0, 0x02, 0x00, 0x00,
  0x60, 0x02, 0x00, 0x00, 0x54, 0x01, 0x00, 0x00, 0x01, 0x00, 0x00, 0x00,
  0x78, 0x00, 0x00, 0x00, 0x13, 0x00, 0x00, 0x00, 0x90, 0x2f, 0x00, 0x00,
  0x8c, 0x2f, 0x00, 0x00, 0x98, 0x2e, 0x00, 0x00, 0x28, 0x2e, 0x00, 0x00,
  0xbc, 0x2d, 0x00, 0x00, 0x6c, 0x11, 0x00, 0x00, 0x98, 0x10, 0x00, 0x00,
  0xbc, 0x0e, 0x00, 0x00, 0x60, 0x06, 0x00, 0x00, 0xfc, 0x05, 0x00, 0x00,
  0x78, 0x05, 0x00, 0x00, 0x64, 0x2f, 0x00, 0x00, 0x60, 0x2f, 0x00, 0x00,
  0x5c, 0x2f, 0x00, 0x00, 0x58, 0x2f, 0x00, 0x00, 0x54, 0x2f, 0x00, 0x00,
  0x50, 0x2f, 0x00, 0x00, 0x4c, 0x2f, 0x00, 0x00, 0x48, 0x2f, 0x00, 0x00,
  0x0f, 0x00, 0x00, 0x00, 0x4d, 0x4c, 0x49, 0x52, 0x20, 0x43, 0x6f, 0x6e,
  0x76, 0x65, 0x72, 0x74, 0x65, 0x64, 0x2e, 0x00, 0x00, 0x00, 0x0e, 0x00,
  0x18, 0x00, 0x04, 0x00, 0x08, 0x00, 0x0c, 0x00, 0x10, 0x00, 0x14, 0x00,
  0x0e, 0x00, 0x00, 0x00, 0x14, 0x00, 0x00, 0x00, 0x5c, 0x00, 0x00, 0x00,
  0x60, 0x00, 0x00, 0x00, 0x64, 0x00, 0x00, 0x00, 0x84, 0x00, 0x00, 0x00,
  0x12, 0x00, 0x00, 0x00, 0xc0, 0x2e, 0x00, 0x00, 0x5c, 0x2e, 0x00, 0x00,
  0xb4, 0x2d, 0x00, 0x00, 0x58, 0x2d, 0x00, 0x00, 0xf0, 0x2c, 0x00, 0x00,
  0x9c, 0x10, 0x00, 0x00, 0xc0, 0x0f, 0x00, 0x00, 0xe4, 0x0d, 0x00, 0x00,
  0xa0, 0x05, 0x00, 0x00, 0x3c, 0x05, 0x00, 0x00, 0xb0, 0x04, 0x00, 0x00,
  0xe8, 0x03, 0x00, 0x00, 0x38, 0x03, 0x00, 0x00, 0xa4, 0x02, 0x00, 0x00,
  0x10, 0x02, 0x00, 0x00, 0x90, 0x01, 0x00, 0x00, 0xfc, 0x00, 0x00, 0x00,
  0x80, 0x00, 0x00, 0x00, 0x01, 0x00, 0x00, 0x00, 0x00, 0x00, 0x00, 0x00,
  0x01, 0x00, 0x00, 0x00, 0x11, 0x00, 0x00, 0x00, 0x08, 0x00, 0x00, 0x00,
  0x1c, 0x04, 0x00, 0x00, 0x58, 0x03, 0x00, 0x00, 0xc8, 0x02, 0x00, 0x00,
  0x24, 0x02, 0x00, 0x00, 0xac, 0x01, 0x00, 0x00, 0x10, 0x01, 0x00, 0x00,
  0x94, 0x00, 0x00, 0x00, 0x10, 0x00, 0x00, 0x00, 0x04, 0x00, 0x00, 0x00,
  0x6d, 0x61, 0x69, 0x6e, 0x00, 0x00, 0x00, 0x00, 0x8e, 0xff, 0xff, 0xff,
  0x00, 0x00, 0x00, 0x09, 0x04, 0x00, 0x00, 0x00, 0x1c, 0x00, 0x00, 0x00,
  0x10, 0x00, 0x00, 0x00, 0x04, 0x00, 0x00, 0x00, 0x92, 0xd2, 0xff, 0xff,
  0x00, 0x00, 0x80, 0x3f, 0x01, 0x00, 0x00, 0x00, 0x11, 0x00, 0x00, 0x00,
  0x01, 0x00, 0x00, 0x00, 0x10, 0x00, 0x00, 0x00, 0xf6, 0xfb, 0xff, 0xff,
  0x00, 0x00, 0x00, 0x19, 0x01, 0x00, 0x00, 0x00, 0x12, 0xd2, 0xff, 0xff,
  0x10, 0x00, 0x00, 0x00, 0x12, 0x00, 0x00, 0x00, 0x14, 0x00, 0x00, 0x00,
  0x20, 0x00, 0x00, 0x00, 0x02, 0x00, 0x00, 0x00, 0x01, 0x00, 0x00, 0x00,
  0x02, 0x00, 0x00, 0x00, 0x08, 0x00, 0x00, 0x00, 0x49, 0x64, 0x65, 0x6e,
  0x74, 0x69, 0x74, 0x79, 0x00, 0x00, 0x00, 0x00, 0x4c, 0xd2, 0xff, 0xff,
  0x00, 0x00, 0x0e, 0x00, 0x18, 0x00, 0x08, 0x00, 0x0c, 0x00, 0x10, 0x00,
  0x07, 0x00, 0x14, 0x00, 0x0e, 0x00, 0x00, 0x00, 0x00, 0x00, 0x00, 0x08,
  0x03, 0x00, 0x00, 0x00, 0x18, 0x00, 0x00, 0x00, 0x0c, 0x00, 0x00, 0x00,
  0x04, 0x00, 0x00, 0x00, 0x20, 0xd2, 0xff, 0xff, 0x01, 0x00, 0x00, 0x00,
  0x10, 0x00, 0x00, 0x00, 0x03, 0x00, 0x00, 0x00, 0x0f, 0x00, 0x00, 0x00,
  0x05, 0x00, 0x00, 0x00, 0x02, 0x00, 0x00, 0x00, 0x8a, 0xd2, 0xff, 0xff,
  0x10, 0x00, 0x00, 0x00, 0x11, 0x00, 0x00, 0x00, 0x14, 0x00, 0x00, 0x00,
  0x30, 0x00, 0x00, 0x00, 0x02, 0x00, 0x00, 0x00, 0x01, 0x00, 0x00, 0x00,
  0x02, 0x00, 0x00, 0x00, 0x1a, 0x00, 0x00, 0x00, 0x73, 0x65, 0x71, 0x75,
  0x65, 0x6e, 0x74, 0x69, 0x61, 0x6c, 0x2f, 0x64, 0x65, 0x6e, 0x73, 0x65,
  0x5f, 0x31, 0x2f, 0x42, 0x69, 0x61, 0x73, 0x41, 0x64, 0x64, 0x00, 0x00,
  0x7c, 0xd2, 0xff, 0xff, 0xd6, 0xfd, 0xff, 0xff, 0x00, 0x00, 0x00, 0x08,
  0x03, 0x00, 0x00, 0x00, 0x24, 0x00, 0x00, 0x00, 0x18, 0x00, 0x00, 0x00,
  0x0c, 0x00, 0x00, 0x00, 0x00, 0x00, 0x06, 0x00, 0x08, 0x00, 0x07, 0x00,
  0x06, 0x00, 0x00, 0x00, 0x00, 0x00, 0x00, 0x01, 0x01, 0x00, 0x00, 0x00,
  0x0f, 0x00, 0x00, 0x00, 0x03, 0x00, 0x00, 0x00, 0x0e, 0x00, 0x00, 0x00,
  0x04, 0x00, 0x00, 0x00, 0x01, 0x00, 0x00, 0x00, 0xfe, 0xfc, 0xff, 0xff,
  0x00, 0x00, 0x00, 0x09, 0x01, 0x00, 0x00, 0x00, 0x1a, 0xd3, 0xff, 0xff,
  0x10, 0x00, 0x00, 0x00, 0x10, 0x00, 0x00, 0x00, 0x14, 0x00, 0x00, 0x00,
  0x2c, 0x00, 0x00, 0x00, 0x02, 0x00, 0x00, 0x00, 0x01, 0x00, 0x00, 0x00,
  0x10, 0x00, 0x00, 0x00, 0x15, 0x00, 0x00, 0x00, 0x73, 0x65, 0x71, 0x75,
  0x65, 0x6e, 0x74, 0x69, 0x61, 0x6c, 0x2f, 0x64, 0x65, 0x6e, 0x73, 0x65,
  0x2f, 0x52, 0x65, 0x6c, 0x75, 0x00, 0x00, 0x00, 0x60, 0xd3, 0xff, 0xff,
  0x00, 0x00, 0x0a, 0x00, 0x10, 0x00, 0x04, 0x00, 0x08, 0x00, 0x0c, 0x00,
  0x0a, 0x00, 0x00, 0x00, 0x02, 0x00, 0x00, 0x00, 0x10, 0x00, 0x00, 0x00,
  0x04, 0x00, 0x00, 0x00, 0x01, 0x00, 0x00, 0x00, 0x0e, 0x00, 0x00, 0x00,
  0x02, 0x00, 0x00, 0x00, 0x0d, 0x00, 0x00, 0x00, 0x03, 0x00, 0x00, 0x00,
  0x7a, 0xfd, 0xff, 0xff, 0x00, 0x00, 0x00, 0x16, 0x01, 0x00, 0x00, 0x00,
  0x96, 0xd3, 0xff, 0xff, 0x10, 0x00, 0x00, 0x00, 0x0f, 0x00, 0x00, 0x00,
  0x14, 0x00, 0x00, 0x00, 0x30, 0x00, 0x00, 0x00, 0x02, 0x00, 0x00, 0x00,
  0x01, 0x00, 0x00, 0x00, 0x70, 0x00, 0x00, 0x00, 0x1a, 0x00, 0x00, 0x00,
  0x73, 0x65, 0x71, 0x75, 0x65, 0x6e, 0x74, 0x69, 0x61, 0x6c, 0x2f, 0x66,
  0x6c, 0x61, 0x74, 0x74, 0x65, 0x6e, 0x2f, 0x52, 0x65, 0x73, 0x68, 0x61,
  0x70, 0x65, 0x00, 0x00, 0x88, 0xd3, 0xff, 0xff, 0xe2, 0xfe, 0xff, 0xff,
  0x00, 0x00, 0x00, 0x05, 0x01, 0x00, 0x00, 0x00, 0x38, 0x00, 0x00, 0x00,
  0x2c, 0x00, 0x00, 0x00, 0x14, 0x00, 0x00, 0x00, 0x00, 0x00, 0x0e, 0x00,
  0x14, 0x00, 0x00, 0x00, 0x10, 0x00, 0x0c, 0x00, 0x08, 0x00, 0x04, 0x00,
  0x0e, 0x00, 0x00, 0x00, 0x03, 0x00, 0x00, 0x00, 0x01, 0x00, 0x00, 0x00,
  0x03, 0x00, 0x00, 0x00, 0x01, 0x00, 0x00, 0x00, 0x01, 0x00, 0x00, 0x00,
  0x0d, 0x00, 0x00, 0x00, 0x01, 0x00, 0x00, 0x00, 0x0c, 0x00, 0x00, 0x00,
  0x26, 0xd4, 0xff, 0xff, 0x10, 0x00, 0x00, 0x00, 0x0e, 0x00, 0x00, 0x00,
  0x1c, 0x00, 0x00, 0x00, 0x40, 0x00, 0x00, 0x00, 0x04, 0x00, 0x00, 0x00,
  0x01, 0x00, 0x00, 0x00, 0x07, 0x00, 0x00, 0x00, 0x01, 0x00, 0x00, 0x00,
  0x10, 0x00, 0x00, 0x00, 0x22, 0x00, 0x00, 0x00, 0x73, 0x65, 0x71, 0x75,
  0x65, 0x6e, 0x74, 0x69, 0x61, 0x6c, 0x2f, 0x6d, 0x61, 0x78, 0x5f, 0x70,
  0x6f, 0x6f, 0x6c, 0x69, 0x6e, 0x67, 0x32, 0x64, 0x5f, 0x31, 0x2f, 0x4d,
  0x61, 0x78, 0x50, 0x6f, 0x6f, 0x6c, 0x00, 0x00, 0x28, 0xd4, 0xff, 0xff,
  0xc2, 0xfe, 0xff, 0xff, 0x00, 0x00, 0x00, 0x01, 0x24, 0x00, 0x00, 0x00,
  0x18, 0x00, 0x00, 0x00, 0x04, 0x00, 0x00, 0x00, 0xb4, 0xfe, 0xff, 0xff,
  0x01, 0x00, 0x00, 0x00, 0x01, 0x00, 0x00, 0x00, 0x00, 0x00, 0x00, 0x01,
  0x01, 0x00, 0x00, 0x00, 0x0c, 0x00, 0x00, 0x00, 0x03, 0x00, 0x00, 0x00,
  0x0b, 0x00, 0x00, 0x00, 0x07, 0x00, 0x00, 0x00, 0x09, 0x00, 0x00, 0x00,
  0xb6, 0xd4, 0xff, 0xff, 0x10, 0x00, 0x00, 0x00, 0x0d, 0x00, 0x00, 0x00,
  0x1c, 0x00, 0x00, 0x00, 0x2c, 0x00, 0x00, 0x00, 0x04, 0x00, 0x00, 0x00,
  0x01, 0x00, 0x00, 0x00, 0x15, 0x00, 0x00, 0x00, 0x01, 0x00, 0x00, 0x00,
  0x10, 0x00, 0x00, 0x00, 0x0c, 0x00, 0x00, 0x00, 0x74, 0x66, 0x6c, 0x2e,
  0x63, 0x6f, 0x6e, 0x76, 0x5f, 0x32, 0x64, 0x31, 0x00, 0x00, 0x00, 0x00,
  0xfc, 0xd4, 0xff, 0xff, 0x00, 0x00, 0x0e, 0x00, 0x1a, 0x00, 0x08, 0x00,
  0x0c, 0x00, 0x10, 0x00, 0x07, 0x00, 0x14, 0x00, 0x0e, 0x00, 0x00, 0x00,
  0x00, 0x00, 0x00, 0x05, 0x01, 0x00, 0x00, 0x00, 0x3c, 0x00, 0x00, 0x00,
  0x30, 0x00, 0x00, 0x00, 0x14, 0x00, 0x00, 0x00, 0x00, 0x00, 0x0e, 0x00,
  0x18, 0x00, 0x17, 0x00, 0x10, 0x00, 0x0c, 0x00, 0x08, 0x00, 0x04, 0x00,
  0x0e, 0x00, 0x00, 0x00, 0x03, 0x00, 0x00, 0x00, 0x03, 0x00, 0x00, 0x00,
  0x03, 0x00, 0x00, 0x00, 0x03, 0x00, 0x00, 0x00, 0x00, 0x00, 0x00, 0x01,
  0x01, 0x00, 0x00, 0x00, 0x0b, 0x00, 0x00, 0x00, 0x01, 0x00, 0x00, 0x00,
  0x0a, 0x00, 0x00, 0x00, 0x46, 0xff, 0xff, 0xff, 0x00, 0x00, 0x00, 0x11,
  0x01, 0x00, 0x00, 0x00, 0x62, 0xd5, 0xff, 0xff, 0x10, 0x00, 0x00, 0x00,
  0x0c, 0x00, 0x00, 0x00, 0x1c, 0x00, 0x00, 0x00, 0x40, 0x00, 0x00, 0x00,
  0x04, 0x00, 0x00, 0x00, 0x01, 0x00, 0x00, 0x00, 0x15, 0x00, 0x00, 0x00,
  0x01, 0x00, 0x00, 0x00, 0x08, 0x00, 0x00, 0x00, 0x20, 0x00, 0x00, 0x00,
  0x73, 0x65, 0x71, 0x75, 0x65, 0x6e, 0x74, 0x69, 0x61, 0x6c, 0x2f, 0x6d,
  0x61, 0x78, 0x5f, 0x70, 0x6f, 0x6f, 0x6c, 0x69, 0x6e, 0x67, 0x32, 0x64,
  0x2f, 0x4d, 0x61, 0x78, 0x50, 0x6f, 0x6f, 0x6c, 0x00, 0x00, 0x00, 0x00,
  0xbc, 0xd5, 0xff, 0xff, 0x00, 0x00, 0x0e, 0x00, 0x14, 0x00, 0x00, 0x00,
  0x08, 0x00, 0x0c, 0x00, 0x07, 0x00, 0x10, 0x00, 0x0e, 0x00, 0x00, 0x00,
  0x00, 0x00, 0x00, 0x01, 0x30, 0x00, 0x00, 0x00, 0x24, 0x00, 0x00, 0x00,
  0x10, 0x00, 0x00, 0x00, 0x0c, 0x00, 0x10, 0x00, 0x00, 0x00, 0x04, 0x00,
  0x08, 0x00, 0x0f, 0x00, 0x0c, 0x00, 0x00, 0x00, 0x01, 0x00, 0x00, 0x00,
  0x01, 0x00, 0x00, 0x00, 0x00, 0x00, 0x00, 0x01, 0x01, 0x00, 0x00, 0x00,
  0x0a, 0x00, 0x00, 0x00, 0x03, 0x00, 0x00, 0x00, 0x00, 0x00, 0x00, 0x00,
  0x06, 0x00, 0x00, 0x00, 0x08, 0x00, 0x00, 0x00, 0x00, 0x00, 0x0a, 0x00,
  0x0c, 0x00, 0x07, 0x00, 0x00, 0x00, 0x08, 0x00, 0x0a, 0x00, 0x00, 0x00,
  0x00, 0x00, 0x00, 0x03, 0x01, 0x00, 0x00, 0x00, 0x26, 0xd6, 0xff, 0xff,
  0x10, 0x00, 0x00, 0x00, 0x0b, 0x00, 0x00, 0x00, 0x1c, 0x00, 0x00, 0x00,
  0x28, 0x00, 0x00, 0x00, 0x04, 0x00, 0x00, 0x00, 0x01, 0x00, 0x00, 0x00,
  0x40, 0x00, 0x00, 0x00, 0x03, 0x00, 0x00, 0x00, 0x08, 0x00, 0x00, 0x00,
  0x0b, 0x00, 0x00, 0x00, 0x74, 0x66, 0x6c, 0x2e, 0x63, 0x6f, 0x6e, 0x76,
  0x5f, 0x32, 0x64, 0x00, 0x10, 0xd6, 0xff, 0xff, 0x06, 0xd7, 0xff, 0xff,
  0x04, 0x00, 0x00, 0x00, 0x40, 0x00, 0x00, 0x00, 0x0b, 0x96, 0x8c, 0xbd,
  0x15, 0xaf, 0x06, 0xc0, 0x5f, 0x21, 0x25, 0xc0, 0x5e, 0x35, 0xd0, 0x3b,
  0x09, 0x36, 0xe9, 0xbf, 0x98, 0x67, 0xfc, 0x3d, 0xd2, 0xde, 0xed, 0xbf,
  0xd4, 0x60, 0x24, 0xc0, 0xa8, 0x7a, 0xd9, 0xbf, 0x6d, 0xe5, 0x1a, 0xc0,
  0xc4, 0x20, 0x2d, 0xbd, 0x5c, 0x9b, 0x88, 0x3e, 0xf5, 0xbf, 0x20, 0xbe,
  0x2e, 0xcf, 0xbd, 0xbe, 0xfe, 0x81, 0xd2, 0xbf, 0xa1, 0x5c, 0x62, 0xbd,
  0xae, 0xd6, 0xff, 0xff, 0x10, 0x00, 0x00, 0x00, 0x0a, 0x00, 0x00, 0x00,
  0x10, 0x00, 0x00, 0x00, 0x20, 0x00, 0x00, 0x00, 0x01, 0x00, 0x00, 0x00,
  0x10, 0x00, 0x00, 0x00, 0x0d, 0x00, 0x00, 0x00, 0x73, 0x74, 0x64, 0x2e,
  0x63, 0x6f, 0x6e, 0x73, 0x74, 0x61, 0x6e, 0x74, 0x31, 0x00, 0x00, 0x00,
  0x90, 0xd6, 0xff, 0xff, 0x86, 0xd7, 0xff, 0xff, 0x04, 0x00, 0x00, 0x00,
  0x20, 0x00, 0x00, 0x00, 0xa1, 0x6d, 0x42, 0xc0, 0x20, 0x72, 0x5d, 0x3c,
  0x64, 0xc4, 0xcb, 0x3d, 0xdf, 0x23, 0x08, 0xc0, 0xd2, 0x4a, 0x78, 0x3d,
  0xd2, 0x5f, 0x4b, 0xc0, 0x82, 0x6c, 0x6c, 0x3c, 0x4d, 0x59, 0x0c, 0xc0,
  0x0e, 0xd7, 0xff, 0xff, 0x10, 0x00, 0x00, 0x00, 0x09, 0x00, 0x00, 0x00,
  0x10, 0x00, 0x00, 0x00, 0x20, 0x00, 0x00, 0x00, 0x01, 0x00, 0x00, 0x00,
  0x08, 0x00, 0x00, 0x00, 0x0c, 0x00, 0x00, 0x00, 0x73, 0x74, 0x64, 0x2e,
  0x63, 0x6f, 0x6e, 0x73, 0x74, 0x61, 0x6e, 0x74, 0x00, 0x00, 0x00, 0x00,
  0xf0, 0xd6, 0xff, 0xff, 0xe6, 0xd7, 0xff, 0xff, 0x04, 0x00, 0x00, 0x00,
  0x00, 0x08, 0x00, 0x00, 0x92, 0x6a, 0xc8, 0x3e, 0x53, 0xed, 0x96, 0x3e,
  0x21, 0xba, 0x69, 0xbd, 0xc2, 0x07, 0xe4, 0x3d, 0x37, 0x42, 0xe7, 0xbd,
  0x0f, 0xb6, 0x1f, 0x3e, 0x3a, 0xd0, 0xe7, 0xbe, 0x82, 0x44, 0x1a, 0xbd,
  0xc7, 0x08, 0x35, 0x3e, 0xf7, 0x17, 0xc9, 0x3d, 0x4d, 0x8c, 0xaa, 0x3e,
  0x89, 0xf8, 0x16, 0x3d, 0x7a, 0xbc, 0x05, 0xbe, 0x1b, 0x31, 0x65, 0x3c,
  0x62, 0xa1, 0xd2, 0xbe, 0x74, 0x36, 0x9a, 0x3d, 0xda, 0xc6, 0xb5, 0x3d,
  0xdf, 0x18, 0x0a, 0xbe, 0x13, 0x94, 0x21, 0x3c, 0xfc, 0x1e, 0xbb, 0x3d,
  0x7c, 0x1a, 0x0c, 0xbe, 0x4a, 0x51, 0x54, 0x3e, 0x48, 0xa2, 0xf5, 0xbe,
  0x7f, 0x06, 0x87, 0xbd, 0xe7, 0x57, 0xe1, 0x3e, 0x9d, 0xce, 0xcc, 0x3d,
  0x68, 0x01, 0x1f, 0xbd, 0x94, 0x3c, 0x98, 0x3e, 0x90, 0x5f, 0x2e, 0xbe,
  0xfe, 0xb4, 0x58, 0x3e, 0xc9, 0xe8, 0xc2, 0xbe, 0xe3, 0xda, 0xc1, 0xbb,
  0xc2, 0x48, 0x40, 0x3e, 0x64, 0x2b, 0xac, 0xbe, 0x1e, 0x04, 0xa4, 0xbe,
  0x59, 0x9c, 0xb5, 0x3e, 0x97, 0xfe, 0x0f, 0xbf, 0x78, 0x09, 0x2a, 0x3e,
  0xea, 0xae, 0x31, 0x3c, 0xaf, 0x79, 0x89, 0x3e, 0x1b, 0xff, 0xec, 0x3e,
  0x05, 0x5b, 0x22, 0xbf, 0x98, 0xca, 0xe3, 0xbe, 0x42, 0x11, 0xeb, 0x3c,
  0xd4, 0xaf, 0xb2, 0xbe, 0x16, 0x6a, 0x82, 0xbe, 0x47, 0x33, 0x0e, 0xbe,
  0x6b, 0x88, 0xee, 0x3e, 0x4a, 0x06, 0xa7, 0x3e, 0xa7, 0xb8, 0x8a, 0xbe,
  0x73, 0x3d, 0x51, 0xbd, 0x87, 0xb6, 0xe7, 0xbe, 0x0f, 0x3a, 0x2c, 0xbe,
  0x68, 0x56, 0x99, 0x3c, 0x62, 0xf8, 0x22, 0xbe, 0x14, 0x16, 0x89, 0x3e,
  0x9d, 0x31, 0x0a, 0x3f, 0x23, 0x5e, 0x6b, 0xbe, 0x2f, 0xb1, 0x20, 0x3e,
  0xcd, 0x32, 0xe4, 0xbe, 0x2b, 0xd9, 0x2b, 0x3f, 0x64, 0xad, 0x5a, 0x3e,
  0x12, 0x4d, 0x11, 0xbe, 0x95, 0x65, 0x06, 0xbe, 0x1a, 0x40, 0x54, 0x3e,
  0x65, 0xdc, 0x21, 0x3e, 0xd5, 0x4f, 0xe3, 0xbd, 0x2f, 0x8f, 0x7a, 0x3a,
  0x20, 0x9c, 0x0d, 0xbe, 0x74, 0x60, 0xf3, 0x3d, 0xdd, 0x5f, 0x3e, 0xbd,
  0x13, 0xdd, 0x95, 0xbe, 0x11, 0xfa, 0xdb, 0x3d, 0x4b, 0xbd, 0x4c, 0xbe,
  0x38, 0xdf, 0x41, 0xbd, 0x5d, 0xf2, 0x36, 0xbd, 0x10, 0x28, 0x56, 0xbe,
  0xa4, 0x88, 0x5c, 0x3e, 0xc6, 0xdb, 0xcb, 0xbd, 0xf1, 0x52, 0x9d, 0xbe,
  0xb3, 0x47, 0x27, 0x3e, 0x5f, 0x2e, 0x99, 0xbe, 0xaf, 0xbb, 0x89, 0xbe,
  0x50, 0x00, 0x90, 0x3e, 0x57, 0xc5, 0xef, 0xbe, 0x5d, 0xe8, 0x6a, 0x3e,
  0xfa, 0x4f, 0x48, 0xbd, 0x98, 0xf8, 0xeb, 0x3e, 0x5a, 0x82, 0x95, 0x3c,
  0x63, 0x73, 0x88, 0xbd, 0xc5, 0xbc, 0x69, 0xbe, 0xa3, 0x56, 0x11, 0xbe,
  0x70, 0xae, 0x74, 0xbe, 0xb8, 0xfa, 0x73, 0xbe, 0xef, 0xe7, 0x13, 0xbe,
  0x96, 0xa4, 0xd8, 0x3e, 0xc2, 0xcf, 0xce, 0xbe, 0x78, 0x8f, 0x08, 0x3e,
  0xcc, 0x62, 0xf2, 0xbd, 0xaa, 0x32, 0x46, 0xbe, 0x48, 0xea, 0x49, 0x3d,
  0xe8, 0x56, 0x2a, 0xbe, 0xcf, 0x38, 0xe3, 0x3b, 0x2f, 0xb1, 0xf4, 0x3d,
  0xa7, 0xf4, 0x20, 0xbc, 0x23, 0xca, 0xb6, 0x3d, 0x16, 0x7e, 0xe1, 0xbe,
  0xe8, 0xb4, 0x61, 0xbe, 0x36, 0xc7, 0x00, 0x3c, 0x8e, 0x10, 0x23, 0x3e,
  0xad, 0x63, 0x85, 0xbd, 0x49, 0xb4, 0x3d, 0x3e, 0x53, 0xdb, 0x5b, 0xbe,
  0xb0, 0xfd, 0x48, 0xbe, 0x2c, 0x48, 0xd3, 0xbe, 0x05, 0x54, 0xdd, 0x3d,
  0x65, 0xe4, 0x21, 0x3e, 0x2a, 0x8e, 0x1c, 0xbd, 0xb2, 0x88, 0xf8, 0xbe,
  0x8d, 0x70, 0x4e, 0x3d, 0x76, 0x2e, 0x58, 0xbe, 0xe9, 0x4b, 0xa6, 0x3c,
  0x15, 0x50, 0x80, 0xbe, 0x8f, 0xfc, 0x20, 0x3e, 0x46, 0x1b, 0xef, 0xbc,
  0x36, 0x99, 0xf0, 0x3d, 0xb1, 0xd1, 0xe2, 0xbd, 0x1e, 0x7a, 0x7d, 0xbd,
  0x48, 0xed, 0xb2, 0x3e, 0xe0, 0x6e, 0x90, 0xbe, 0xc2, 0x62, 0xe5, 0xbd,
  0x4c, 0x04, 0x96, 0x3e, 0xae, 0x54, 0xb8, 0xbe, 0x9f, 0x2f, 0x9e, 0x3d,
  0xcc, 0xba, 0x8e, 0xbd, 0x2d, 0xb7, 0xd1, 0x3e, 0x52, 0x84, 0xef, 0x3c,
  0xb9, 0x7e, 0x85, 0xbe, 0xcb, 0x94, 0x0d, 0xbf, 0xbf, 0x2e, 0x46, 0x3e,
  0x12, 0xee, 0x54, 0xbf, 0x40, 0x9e, 0xb5, 0x3d, 0xc6, 0x41, 0xb2, 0xbd,
  0xd9, 0x15, 0x4a, 0x3e, 0x65, 0x60, 0xcd, 0x3e, 0x25, 0xc7, 0xf2, 0xbd,
  0xe0, 0x8f, 0x7e, 0xbe, 0x23, 0xb7, 0xa1, 0xbe, 0x08, 0xff, 0x0d, 0xbf,
  0x3b, 0x5a, 0xd2, 0xbe, 0xf2, 0x48, 0xce, 0xbd, 0xed, 0xd5, 0x90, 0xbe,
  0xdc, 0xd0, 0x84, 0x3e, 0x0d, 0x9b, 0xb4, 0xbd, 0xd0, 0x38, 0x73, 0x3e,
  0x1e, 0xeb, 0x15, 0xbf, 0xe8, 0xc5, 0x8a, 0xbd, 0xdc, 0x14, 0xbe, 0xbd,
  0xd2, 0x5a, 0xb6, 0xbd, 0x14, 0x02, 0xbf, 0x3e, 0x4d, 0x3d, 0x9d, 0x3e,
  0xed, 0xa1, 0xa1, 0xbe, 0xd9, 0x14, 0x70, 0xbe, 0xce, 0xc3, 0x09, 0x3e,
  0x8b, 0x76, 0x30, 0xbf, 0xfb, 0xe4, 0xb3, 0xbd, 0xb3, 0x40, 0xa0, 0x3c,
  0x0b, 0x8c, 0x35, 0x3f, 0x0d, 0xc8, 0x3b, 0x3e, 0x91, 0xc8, 0x04, 0xbf,
  0xa1, 0x00, 0x04, 0xbf, 0xd3, 0x4b, 0xa8, 0x3e, 0x6d, 0xad, 0x30, 0xbf,
  0x2c, 0x26, 0x0e, 0xbe, 0x03, 0x02, 0xb3, 0xbc, 0x94, 0x35, 0xed, 0xbd,
  0xb8, 0x31, 0x12, 0xbe, 0x1c, 0x8c, 0xce, 0xbd, 0xa1, 0x73, 0x27, 0xbe,
  0x82, 0x6e, 0x9a, 0xbd, 0x41, 0x2d, 0x43, 0xbe, 0xd8, 0x16, 0x52, 0x3d,
  0x51, 0xc3, 0xde, 0xbb, 0x6e, 0x18, 0x59, 0x3e, 0xc0, 0x53, 0x95, 0xbd,
  0xc8, 0x66, 0x46, 0x3c, 0xb5, 0x88, 0x6d, 0xbe, 0xef, 0x3b, 0x16, 0xbe,
  0x3e, 0x5d, 0x19, 0xbe, 0xdb, 0xbc, 0xfc, 0x3b, 0x8c, 0xc9, 0x07, 0xbd,
  0xca, 0x1b, 0xf3, 0xbc, 0x59, 0x94, 0xa2, 0x3e, 0xdc, 0x9c, 0xe5, 0x3d,
  0x73, 0x5d, 0x14, 0xbe, 0x8e, 0xc4, 0xb0, 0x3e, 0xd3, 0x74, 0x68, 0xbe,
  0x55, 0xc7, 0x11, 0x3e, 0xad, 0xdd, 0x99, 0xbd, 0xcf, 0xe5, 0xcc, 0x3d,
  0x96, 0x30, 0x9d, 0x3e, 0x8a, 0xe6, 0xff, 0xbd, 0x8f, 0x7d, 0x1a, 0xbe,
  0x14, 0xe4, 0x87, 0x3c, 0x20, 0xf9, 0xcf, 0xbe, 0xe8, 0x8d, 0x6d, 0x3e,
  0x8c, 0x15, 0xf6, 0xbd, 0x29, 0xee, 0xe2, 0x3d, 0x54, 0x67, 0x05, 0x3d,
  0xf3, 0x54, 0xb5, 0x3e, 0xf0, 0xe9, 0xd0, 0x3b, 0x0a, 0xe4, 0xb8, 0xbe,
  0x04, 0xab, 0x8e, 0x3d, 0x12, 0x52, 0x56, 0xbd, 0xa8, 0x39, 0x1a, 0xbe,
  0xec, 0x0c, 0xbd, 0x3c, 0x90, 0x12, 0x13, 0xbf, 0x6c, 0x1d, 0x30, 0x3e,
  0x35, 0xd6, 0x1f, 0x3d, 0x73, 0x05, 0x53, 0xbf, 0xc1, 0x9d, 0x4f, 0xbe,
  0x69, 0x74, 0xef, 0xbe, 0xb1, 0xa1, 0xd5, 0xbe, 0x8e, 0x2d, 0xf7, 0xbe,
  0xcb, 0x2a, 0x7e, 0xbf, 0x41, 0x5e, 0x1c, 0xbe, 0x2e, 0xad, 0xb9, 0xbd,
  0x83, 0x7a, 0x17, 0xbf, 0x20, 0xd8, 0x8b, 0x3b, 0xc8, 0x7f, 0x4e, 0xbf,
  0xcb, 0xf1, 0x87, 0xbd, 0x8e, 0x36, 0xf7, 0xbe, 0xd2, 0x1e, 0x82, 0x3e,
  0x05, 0x35, 0x4d, 0xbe, 0xc2, 0x5a, 0xde, 0xbd, 0xcb, 0xb4, 0x72, 0xbe,
  0x0f, 0x8a, 0x08, 0x3c, 0x1b, 0x42, 0x80, 0xbd, 0xf7, 0xf1, 0x7c, 0xbc,
  0xf5, 0x3b, 0x64, 0xbe, 0xe5, 0xf1, 0x01, 0x3f, 0x03, 0xec, 0x9e, 0xbd,
  0xac, 0x4b, 0xe6, 0xbb, 0xce, 0x38, 0x38, 0x3f, 0xc9, 0x58, 0x15, 0xbe,
  0x65, 0x1f, 0x38, 0x3f, 0x2f, 0x42, 0x5e, 0xbd, 0xef, 0x0d, 0x28, 0x3e,
  0x02, 0x69, 0x69, 0x3e, 0xcd, 0x32, 0xde, 0xbd, 0x95, 0xee, 0x6c, 0xbe,
  0xbd, 0xef, 0x4d, 0x3d, 0xe1, 0x91, 0x8f, 0xbe, 0xfa, 0x86, 0xbe, 0x3c,
  0xfd, 0x3e, 0x94, 0xbd, 0x8d, 0x19, 0xa1, 0x3e, 0xd3, 0xb5, 0x03, 0xbe,
  0x19, 0xa0, 0xdf, 0xbc, 0x1a, 0xc5, 0xa4, 0xbd, 0x96, 0x5a, 0xc9, 0xbc,
  0x9c, 0x97, 0x81, 0xbc, 0x29, 0x1d, 0xe9, 0x3e, 0x29, 0xf3, 0x82, 0xbd,
  0x08, 0xeb, 0xd1, 0xbe, 0xe7, 0xe2, 0x07, 0x3f, 0x7c, 0xda, 0x05, 0xbf,
  0xa5, 0x4c, 0x2e, 0xbd, 0xdf, 0x48, 0x4f, 0x3d, 0x06, 0x60, 0x5b, 0xbe,
  0x66, 0x99, 0xb0, 0x3e, 0x56, 0xea, 0xb9, 0xba, 0x8c, 0x14, 0xb0, 0xbd,
  0xae, 0x69, 0x85, 0x3e, 0x6a, 0x47, 0x00, 0xbf, 0x2f, 0x04, 0xe2, 0xbe,
  0x1a, 0x51, 0xcf, 0x3e, 0x33, 0x2f, 0xc0, 0xbe, 0xaf, 0x0c, 0x08, 0xbe,
  0x9d, 0xae, 0x8e, 0xbd, 0xf0, 0x7d, 0x12, 0x3f, 0x3a, 0xc7, 0x83, 0x3e,
  0x94, 0x07, 0xc8, 0xbe, 0x89, 0x31, 0x9d, 0xbe, 0x75, 0xd2, 0x71, 0xbe,
  0xe2, 0x4f, 0xef, 0xbd, 0x10, 0xd4, 0x40, 0x3d, 0x75, 0xea, 0x2d, 0xbb,
  0x2a, 0x98, 0xed, 0x3e, 0x9a, 0x95, 0xb6, 0xbd, 0x83, 0x51, 0x8c, 0x3d,
  0x28, 0x88, 0xe5, 0x3c, 0x1a, 0xda, 0xe0, 0xbe, 0x11, 0xe9, 0xee, 0x3e,
  0x5e, 0x50, 0xe5, 0xbd, 0xd3, 0xad, 0xf4, 0xbd, 0xc7, 0xc1, 0x06, 0xbf,
  0x8e, 0xb9, 0xc7, 0x3e, 0xab, 0xe0, 0x84, 0xbe, 0x1a, 0x08, 0xae, 0xbc,
  0x39, 0x74, 0xdd, 0xbd, 0xa7, 0xf3, 0x8c, 0xbd, 0x3f, 0xb3, 0x29, 0xbd,
  0x67, 0x34, 0x00, 0xbe, 0xc1, 0x1a, 0x80, 0xbe, 0x58, 0x46, 0x11, 0x3f,
  0xa8, 0xb3, 0x04, 0xbf, 0xf5, 0x2f, 0x83, 0xbe, 0xe6, 0xab, 0xd3, 0x3e,
  0xf7, 0xd8, 0x6a, 0xbe, 0x7b, 0xdc, 0x41, 0x3f, 0xb0, 0x0c, 0xb6, 0xbd,
  0xfb, 0x47, 0xa2, 0x3e, 0x27, 0xf3, 0x52, 0x3d, 0x89, 0xcf, 0x50, 0xbe,
  0xe5, 0x96, 0xd4, 0xbe, 0x8a, 0x49, 0x2a, 0xbd, 0x35, 0xd5, 0x9a, 0xbe,
  0x33, 0xc1, 0x65, 0xbe, 0x01, 0x5f, 0x71, 0xbd, 0xcd, 0x91, 0xbe, 0x3e,
  0x50, 0x74, 0xb9, 0x3d, 0x74, 0x96, 0x81, 0xbe, 0x03, 0x75, 0xaf, 0xbe,
  0xc2, 0xe1, 0x2d, 0xbd, 0xee, 0x46, 0x57, 0x3e, 0x20, 0x93, 0xd9, 0x3e,
  0xe6, 0x6e, 0x07, 0xbe, 0x05, 0xac, 0x06, 0xbf, 0xe5, 0x4d, 0xb9, 0xbe,
  0x57, 0x6d, 0x74, 0xbd, 0x11, 0x34, 0x88, 0xbe, 0xf3, 0x13, 0xc9, 0xbe,
  0xe7, 0x5d, 0xf8, 0x3d, 0xc2, 0xcf, 0x54, 0xbe, 0xfc, 0xb8, 0x84, 0xbd,
  0x85, 0xf3, 0x01, 0xbf, 0x0c, 0x98, 0x5a, 0x3e, 0xa4, 0x57, 0xde, 0xbe,
  0x46, 0x8e, 0xa4, 0x3d, 0x60, 0xb0, 0x1d, 0xbe, 0xe3, 0x2d, 0x37, 0x3e,
  0x7f, 0x46, 0x63, 0xbd, 0x89, 0xda, 0xa7, 0xbd, 0x3e, 0xe2, 0xf5, 0xbd,
  0x15, 0x0e, 0x61, 0x3e, 0x77, 0x1c, 0x83, 0xbd, 0xda, 0x8f, 0x08, 0xbe,
  0x83, 0xdd, 0x84, 0x3c, 0x53, 0xda, 0x26, 0x3d, 0x39, 0xaf, 0x46, 0xbd,
  0x81, 0x50, 0x21, 0xbd, 0xf7, 0xa9, 0x44, 0xbe, 0x22, 0x04, 0x50, 0xbe,
  0x0e, 0x3b, 0x0b, 0x3e, 0xeb, 0x94, 0x48, 0x3e, 0x7d, 0x8c, 0x99, 0x3c,
  0x36, 0x78, 0xb8, 0x3d, 0x31, 0x20, 0x30, 0xbe, 0xd2, 0xc7, 0xe9, 0xbd,
  0xfd, 0x89, 0x4b, 0x3e, 0xad, 0xd9, 0xbf, 0xbd, 0x9f, 0x77, 0x5f, 0xbe,
  0x70, 0xbb, 0x6f, 0x3c, 0x49, 0xf4, 0xa6, 0x3d, 0x80, 0xc6, 0x4a, 0xb9,
  0x59, 0x49, 0x99, 0x3d, 0xee, 0x14, 0xaa, 0x3e, 0xad, 0xa0, 0xcc, 0x3d,
  0x11, 0x96, 0xc1, 0xbe, 0x21, 0x07, 0xab, 0x3e, 0xa2, 0x69, 0xd0, 0x3a,
  0x93, 0x43, 0x3a, 0xbe, 0x04, 0x41, 0xb2, 0xbd, 0xce, 0x4b, 0x85, 0xbe,
  0x46, 0x23, 0x6a, 0x3d, 0x92, 0x35, 0x01, 0x3d, 0x70, 0xcc, 0xb5, 0xbe,
  0x51, 0x10, 0xdd, 0x3d, 0x3b, 0x1f, 0xb8, 0xbd, 0xb6, 0xba, 0xfb, 0x3d,
  0x42, 0xd2, 0xf8, 0x3b, 0x1b, 0x79, 0xa5, 0x3d, 0xfc, 0x6a, 0x5c, 0x3b,
  0x0c, 0xd1, 0xcc, 0x3c, 0x42, 0x60, 0xd5, 0xbd, 0x3a, 0x8e, 0xd3, 0x3e,
  0x63, 0xb5, 0xa6, 0x3e, 0xa6, 0x57, 0x84, 0x3d, 0xea, 0x40, 0x9a, 0x3a,
  0x36, 0x3a, 0xbf, 0xbd, 0x14, 0x28, 0x06, 0xbe, 0x55, 0x86, 0x5f, 0xbd,
  0x33, 0xc1, 0xca, 0xbd, 0xa3, 0x0f, 0xe8, 0xbc, 0xb1, 0xcc, 0xb5, 0x3e,
  0x00, 0x06, 0xb3, 0x3a, 0x64, 0xab, 0xe9, 0xbd, 0x12, 0x02, 0xd5, 0xbd,
  0xd3, 0x9b, 0x6b, 0xbe, 0x43, 0xd0, 0x37, 0x3c, 0x85, 0x95, 0x5a, 0xbe,
  0x65, 0xb4, 0x23, 0xbe, 0xec, 0xe4, 0xc1, 0x3e, 0x66, 0xcd, 0x8e, 0x3d,
  0x46, 0x4e, 0xe9, 0xbd, 0xd8, 0x2d, 0x55, 0xbe, 0x0e, 0x97, 0x8b, 0xbe,
  0xd4, 0x1c, 0x09, 0x3b, 0x6c, 0x29, 0x51, 0xbd, 0x56, 0xad, 0xa5, 0x3e,
  0x6b, 0x26, 0x0e, 0xbe, 0x41, 0x97, 0x41, 0xbc, 0xd5, 0x2c, 0x1a, 0xbc,
  0xff, 0x70, 0xba, 0x3a, 0x2a, 0xda, 0xb1, 0xbe, 0x36, 0x94, 0x1b, 0x3d,
  0x94, 0xa6, 0x80, 0x3e, 0x09, 0x1c, 0x19, 0x3e, 0x08, 0x8b, 0x5c, 0xbe,
  0x47, 0x7e, 0x94, 0x3c, 0x56, 0xaa, 0x42, 0x3e, 0x74, 0xa3, 0x85, 0x3e,
  0x71, 0xde, 0x2c, 0xbd, 0x79, 0x75, 0x9e, 0xbe, 0x7b, 0x72, 0x6a, 0x3c,
  0xfd, 0x31, 0x29, 0x3d, 0x76, 0x70, 0xe0, 0xbd, 0x03, 0x25, 0xbb, 0xbd,
  0xe6, 0x16, 0xc0, 0xbe, 0x72, 0x4b, 0x9c, 0xbe, 0x65, 0x8f, 0xe9, 0xbc,
  0x16, 0x80, 0x62, 0x3c, 0xfe, 0x1c, 0xfd, 0x3c, 0x8e, 0x57, 0xd7, 0x3d,
  0xf2, 0x5e, 0x79, 0xbe, 0xd3, 0x51, 0x16, 0x3d, 0xa2, 0x9f, 0x48, 0xbd,
  0x87, 0xaf, 0xb8, 0xbd, 0x07, 0x15, 0x96, 0xbd, 0x47, 0x20, 0x80, 0x3e,
  0x40, 0x61, 0x75, 0x3d, 0x63, 0x11, 0x40, 0xbe, 0x3c, 0xdf, 0x86, 0xbe,
  0xe7, 0xb2, 0x47, 0xbe, 0xaf, 0x3b, 0x13, 0xbe, 0xf1, 0xfe, 0x80, 0xbc,
  0x30, 0xfa, 0x79, 0xbd, 0x6b, 0x8d, 0xa3, 0x3e, 0xa0, 0x9d, 0x35, 0x3e,
  0x23, 0xb9, 0xe5, 0xbe, 0xc3, 0x42, 0x7d, 0xbe, 0x9f, 0x8a, 0x98, 0x3e,
  0x26, 0xe7, 0x37, 0xbe, 0x5b, 0x25, 0xcb, 0xbe, 0xe9, 0xaf, 0xe6, 0xbd,
  0x6a, 0xf2, 0x0a, 0x3f, 0xd3, 0x30, 0x0c, 0x3e, 0x5d, 0xaa, 0x10, 0xbe,
  0x97, 0x97, 0x3e, 0xbd, 0xea, 0xae, 0x64, 0xbe, 0x4c, 0x6f, 0x20, 0xbe,
  0xc0, 0x2e, 0x37, 0xbe, 0x1e, 0xe5, 0xb2, 0xbc, 0x20, 0x22, 0x92, 0xbd,
  0xad, 0xed, 0x7e, 0x3f, 0x83, 0x72, 0x6e, 0xbe, 0xb3, 0xfe, 0xe6, 0xbc,
  0x90, 0x1d, 0x2d, 0xbe, 0x15, 0x6e, 0x0b, 0xbe, 0x82, 0x29, 0x8b, 0x3e,
  0xac, 0xe9, 0xcf, 0xbd, 0x14, 0x39, 0x7e, 0xbe, 0xd6, 0x93, 0x69, 0x3e,
  0xe5, 0xea, 0x22, 0xbe, 0x99, 0x23, 0x14, 0x3e, 0xb4, 0x2f, 0x67, 0x3e,
  0xeb, 0x04, 0x82, 0x3e, 0x29, 0x4a, 0x7a, 0x3e, 0x80, 0x42, 0x4b, 0xbc,
  0xe8, 0xc4, 0xee, 0x3d, 0x71, 0x1e, 0xbc, 0xbd, 0x7c, 0xbf, 0x8d, 0x3e,
  0x92, 0x79, 0x55, 0xbe, 0x98, 0x52, 0x07, 0x3e, 0x5a, 0xf7, 0x15, 0xbe,
  0xa4, 0x7f, 0x6a, 0x3e, 0x64, 0xbf, 0x9d, 0xbe, 0x2f, 0x29, 0x80, 0x3d,
  0x51, 0xdd, 0xa2, 0x3d, 0x73, 0x04, 0x2b, 0x3e, 0x9d, 0x2f, 0xde, 0xbd,
  0xe2, 0xab, 0x81, 0xbe, 0xcb, 0x1a, 0xce, 0xbd, 0x85, 0x37, 0x48, 0x3e,
  0xbc, 0xaa, 0xc5, 0xbe, 0xcd, 0xa7, 0xa2, 0x3b, 0x18, 0x56, 0x8c, 0x3b,
  0x26, 0xa2, 0x99, 0x3d, 0x66, 0xaf, 0x65, 0x3d, 0x0b, 0xb2, 0x08, 0xbc,
  0x03, 0x76, 0x55, 0xbd, 0x97, 0xb4, 0x1f, 0x3e, 0x2d, 0xa6, 0x8a, 0xbe,
  0x96, 0xb9, 0x9d, 0x3c, 0x66, 0x86, 0x83, 0x3e, 0x8c, 0xec, 0xf2, 0x3d,
  0x33, 0x27, 0x98, 0x3e, 0x3d, 0xcc, 0xed, 0x3e, 0x71, 0xb7, 0x66, 0xbe,
  0x89, 0xca, 0x0f, 0xbd, 0xe7, 0x9e, 0xba, 0xbe, 0x0f, 0xe1, 0xe2, 0xbd,
  0x4e, 0xdf, 0xff, 0xff, 0x10, 0x00, 0x00, 0x00, 0x08, 0x00, 0x00, 0x00,
  0x1c, 0x00, 0x00, 0x00, 0x38, 0x00, 0x00, 0x00, 0x04, 0x00, 0x00, 0x00,
  0x10, 0x00, 0x00, 0x00, 0x04, 0x00, 0x00, 0x00, 0x01, 0x00, 0x00, 0x00,
  0x08, 0x00, 0x00, 0x00, 0x1a, 0x00, 0x00, 0x00, 0x73, 0x65, 0x71, 0x75,
  0x65, 0x6e, 0x74, 0x69, 0x61, 0x6c, 0x2f, 0x63, 0x6f, 0x6e, 0x76, 0x32,
  0x64, 0x5f, 0x31, 0x2f, 0x43, 0x6f, 0x6e, 0x76, 0x32, 0x44, 0x00, 0x00,
  0x48, 0xdf, 0xff, 0xff, 0x3e, 0xe0, 0xff, 0xff, 0x04, 0x00, 0x00, 0x00,
  0x80, 0x01, 0x00, 0x00, 0x87, 0x2e, 0x1f, 0xbf, 0x49, 0xdd, 0x4c, 0x3e,
  0x10, 0x4f, 0x0c, 0xbd, 0x41, 0xf3, 0x32, 0x3c, 0x37, 0x22, 0xea, 0x3e,
  0x9d, 0x5f, 0x3c, 0x3e, 0x83, 0x4c, 0x04, 0x3f, 0x1a, 0x2c, 0x92, 0xbe,
  0xc6, 0x5a, 0x88, 0xbd, 0xce, 0x26, 0x1a, 0x3e, 0x3c, 0x65, 0x90, 0xbe,
  0x1d, 0x3a, 0x03, 0xbe, 0x6e, 0x33, 0xb0, 0x3e, 0xa2, 0x23, 0x8f, 0x3e,
  0x87, 0x59, 0xba, 0xbe, 0x37, 0x60, 0x76, 0xbe, 0x8c, 0x96, 0xb7, 0xbe,
  0x5e, 0x5d, 0xc9, 0x3e, 0x5f, 0x86, 0x9c, 0x3e, 0xf3, 0xb9, 0x15, 0x3e,
  0x09, 0xf0, 0x76, 0x3e, 0xf8, 0x81, 0x09, 0x3e, 0x7b, 0x6a, 0x8f, 0x3e,
  0x1d, 0x29, 0x8b, 0xbe, 0x38, 0x4b, 0x08, 0x3f, 0x2f, 0x28, 0x57, 0xbe,
  0xd2, 0x63, 0x97, 0x3e, 0x21, 0x86, 0x42, 0x3f, 0x66, 0xef, 0x69, 0x3e,
  0x28, 0xb9, 0x70, 0xbe, 0xd5, 0xcd, 0x12, 0xbf, 0x15, 0x57, 0xb2, 0xbd,
  0xe8, 0x49, 0xa4, 0xbe, 0x87, 0x21, 0x09, 0x3e, 0x85, 0x34, 0x7b, 0x3e,
  0xa6, 0x95, 0x89, 0x3d, 0xb9, 0x5d, 0x32, 0x3e, 0x8b, 0x01, 0x9a, 0x3d,
  0x7b, 0xba, 0xf2, 0xbe, 0xb4, 0x89, 0x95, 0x3d, 0xc9, 0xf1, 0x30, 0x3d,
  0xd2, 0xd7, 0x95, 0xbe, 0xb4, 0x93, 0x21, 0xbe, 0x9e, 0x54, 0xfb, 0xbd,
  0xff, 0xc7, 0x22, 0x3f, 0x38, 0xc7, 0xdb, 0xbd, 0x83, 0x1e, 0x95, 0x3c,
  0x88, 0x2a, 0xfe, 0xbb, 0x58, 0xb4, 0x80, 0x3d, 0x2d, 0xe0, 0xe9, 0x3d,
  0x69, 0xca, 0x1e, 0x3e, 0x90, 0x95, 0x11, 0x3e, 0xc3, 0x84, 0xd5, 0xbd,
  0xaf, 0xfb, 0x0f, 0x3e, 0x2b, 0x33, 0x43, 0x3e, 0x7b, 0x6f, 0x09, 0xbe,
  0x05, 0x3b, 0x28, 0x3c, 0x0c, 0xed, 0x0b, 0x3f, 0x7a, 0x5f, 0x15, 0x3d,
  0x64, 0x36, 0x4e, 0xbd, 0x3f, 0x07, 0x18, 0x3f, 0x1f, 0x44, 0x70, 0x3d,
  0x93, 0x0f, 0x24, 0xbd, 0xe2, 0x29, 0xf3, 0x3d, 0x39, 0xcd, 0x35, 0xbe,
  0xf6, 0x1c, 0x79, 0x3e, 0x40, 0x43, 0xda, 0xbe, 0x1d, 0xdd, 0xde, 0x3c,
  0x4f, 0x29, 0xc1, 0xbd, 0xe6, 0xd0, 0x93, 0xbe, 0x36, 0xe1, 0xca, 0x3d,
  0x07, 0x62, 0x49, 0xbd, 0x2e, 0x88, 0xbb, 0x3c, 0xfb, 0x33, 0x14, 0xbe,
  0x40, 0x91, 0xdf, 0x3d, 0x72, 0xd7, 0x32, 0x3d, 0x88, 0x44, 0x11, 0xbe,
  0x20, 0x6d, 0xc4, 0x3d, 0x94, 0xde, 0x5b, 0x3d, 0x0f, 0xcf, 0x0e, 0xbe,
  0xa4, 0x5f, 0xb4, 0x3d, 0xad, 0xdf, 0xc2, 0x3d, 0x30, 0x9a, 0x04, 0xbe,
  0x01, 0x73, 0xb1, 0x3d, 0xc3, 0x4d, 0xdd, 0xbe, 0xc5, 0xb9, 0x4b, 0xbd,
  0x65, 0x76, 0xcf, 0x3d, 0x1e, 0x9a, 0x56, 0xbe, 0xe5, 0xdd, 0x04, 0x3e,
  0x4e, 0x04, 0x86, 0x3d, 0x41, 0x85, 0xef, 0x3e, 0xb8, 0x98, 0xdd, 0x3d,
  0x04, 0x1b, 0x84, 0x3d, 0x0b, 0xea, 0x6b, 0x3e, 0x80, 0xeb, 0x8b, 0x3d,
  0x76, 0x97, 0xe0, 0xbb, 0x26, 0xe1, 0xff, 0xff, 0x10, 0x00, 0x00, 0x00,
  0x07, 0x00, 0x00, 0x00, 0x1c, 0x00, 0x00, 0x00, 0x38, 0x00, 0x00, 0x00,
  0x04, 0x00, 0x00, 0x00, 0x08, 0x00, 0x00, 0x00, 0x04, 0x00, 0x00, 0x00,
  0x03, 0x00, 0x00, 0x00, 0x01, 0x00, 0x00, 0x00, 0x18, 0x00, 0x00, 0x00,
  0x73, 0x65, 0x71, 0x75, 0x65, 0x6e, 0x74, 0x69, 0x61, 0x6c, 0x2f, 0x63,
  0x6f, 0x6e, 0x76, 0x32, 0x64, 0x2f, 0x43, 0x6f, 0x6e, 0x76, 0x32, 0x44,
  0x00, 0x00, 0x00, 0x00, 0x20, 0xe1, 0xff, 0xff, 0x16, 0xe2, 0xff, 0xff,
  0x04, 0x00, 0x00, 0x00, 0x80, 0x00, 0x00, 0x00, 0xa4, 0x7d, 0xea, 0xbe,
  0xd3, 0x92, 0xa8, 0x3e, 0x27, 0x54, 0xe5, 0xbe, 0x20, 0xe6, 0xa4, 0x3e,
  0x48, 0x86, 0xb9, 0x3d, 0xe0, 0x8d, 0x73, 0xbc, 0x02, 0xdf, 0x63, 0xbd,
  0x88, 0x75, 0x68, 0xbe, 0xac, 0x0a, 0x9c, 0xbe, 0x59, 0x74, 0x9b, 0x3e,
  0x50, 0xac, 0x7a, 0x3e, 0x8f, 0xe0, 0xbc, 0xbe, 0xc0, 0xdd, 0x08, 0xbd,
  0xde, 0x85, 0x64, 0xbe, 0x86, 0x13, 0xa7, 0xbe, 0xdc, 0x82, 0xa9, 0x3c,
  0xa5, 0x9f, 0xe4, 0xbe, 0x3f, 0x52, 0x1b, 0x3e, 0xb5, 0x9e, 0xb9, 0xbe,
  0x6d, 0xdb, 0xd1, 0x3e, 0xeb, 0xd5, 0x06, 0x3e, 0x63, 0x07, 0xca, 0xbd,
  0xf2, 0xa2, 0xf0, 0xbd, 0x74, 0x20, 0x9d, 0xbe, 0x03, 0xce, 0xe4, 0xbe,
  0x9a, 0x16, 0x84, 0x3e, 0x92, 0xf7, 0x90, 0x3e, 0xd4, 0x88, 0xf0, 0xbe,
  0xd9, 0x46, 0x85, 0x3c, 0x5b, 0x74, 0x32, 0xbe, 0xa2, 0x29, 0x9d, 0x3e,
  0x63, 0x3e, 0x18, 0xbe, 0xfe, 0xe1, 0xff, 0xff, 0x10, 0x00, 0x00, 0x00,
  0x06, 0x00, 0x00, 0x00, 0x14, 0x00, 0x00, 0x00, 0x30, 0x00, 0x00, 0x00,
  0x02, 0x00, 0x00, 0x00, 0x02, 0x00, 0x00, 0x00, 0x10, 0x00, 0x00, 0x00,
  0x19, 0x00, 0x00, 0x00, 0x73, 0x65, 0x71, 0x75, 0x65, 0x6e, 0x74, 0x69,
  0x61, 0x6c, 0x2f, 0x64, 0x65, 0x6e, 0x73, 0x65, 0x5f, 0x31, 0x2f, 0x4d,
  0x61, 0x74, 0x4d, 0x75, 0x6c, 0x00, 0x00, 0x00, 0xf0, 0xe1, 0xff, 0xff,
  0xe6, 0xe2, 0xff, 0xff, 0x04, 0x00, 0x00, 0x00, 0x00, 0x1c, 0x00, 0x00,
  0xb5, 0x62, 0xe0, 0x3e, 0xde, 0x66, 0x47, 0xbe, 0x1b, 0xaa, 0xdf, 0xbd,
  0x63, 0x39, 0x42, 0x3f, 0x8a, 0x47, 0x91, 0xbe, 0x44, 0x7a, 0x79, 0xbe,
  0xac, 0x66, 0x37, 0x3e, 0x53, 0xff, 0x23, 0xbf, 0x52, 0x30, 0xc9, 0xbd,
  0x68, 0x8f, 0x13, 0xbf, 0xe1, 0x97, 0x0e, 0x3f, 0xf2, 0x2d, 0xb3, 0x3c,
  0x5e, 0xd5, 0xb4, 0x3e, 0xf7, 0x1d, 0x94, 0x3e, 0x42, 0xd5, 0xc7, 0xbe,
  0x5d, 0x95, 0xd5, 0x3e, 0xcb, 0x75, 0xad, 0xbb, 0xda, 0xca, 0x94, 0xbd,
  0x27, 0x51, 0x0b, 0xbe, 0x9b, 0x6e, 0x90, 0x3e, 0x81, 0x04, 0x5f, 0x3d,
  0xf2, 0xc6, 0x92, 0x3c, 0x23, 0x12, 0xe0, 0xbd, 0x44, 0xc7, 0x7d, 0xbd,
  0x61, 0x1b, 0x59, 0x3e, 0x2b, 0x91, 0x67, 0xbe, 0xf2, 0x35, 0x44, 0x3f,
  0xf4, 0x4a, 0x29, 0x3d, 0xa4, 0xec, 0x52, 0x3e, 0xba, 0x81, 0x01, 0x3d,
  0x93, 0x44, 0xe9, 0xbe, 0x71, 0x88, 0x94, 0x3e, 0x86, 0x96, 0xbb, 0x3c,
  0x9c, 0x69, 0xaf, 0xbe, 0x03, 0x3f, 0x42, 0xbe, 0xb2, 0xee, 0xae, 0x3e,
  0xc6, 0x33, 0xd2, 0x3d, 0x99, 0xbe, 0x22, 0x3e, 0x0c, 0x9f, 0x85, 0x3e,
  0xf1, 0x1b, 0x44, 0xbe, 0x83, 0x31, 0x0a, 0x3e, 0xa7, 0x3d, 0x2a, 0xbe,
  0xee, 0x8c, 0x16, 0x3f, 0x85, 0x25, 0xd9, 0x3d, 0x47, 0xb8, 0x45, 0x3e,
  0xe4, 0x01, 0x13, 0x3d, 0xa5, 0xf4, 0xb1, 0xbe, 0xc9, 0x43, 0x68, 0x3e,
  0xd4, 0x1f, 0x10, 0x3f, 0xf1, 0x2c, 0x0d, 0xbe, 0x72, 0xa2, 0x93, 0xbc,
  0x14, 0x0f, 0x65, 0x3e, 0x1d, 0x00, 0xf9, 0xbd, 0xab, 0x92, 0xc5, 0x3d,
  0x85, 0x2e, 0xab, 0x3d, 0x10, 0x44, 0x30, 0xbe, 0x2d, 0x71, 0xa1, 0x3c,
  0x61, 0x12, 0x7c, 0x3d, 0x6f, 0x74, 0x7e, 0x3e, 0x97, 0x20, 0xba, 0x3c,
  0xc2, 0x4a, 0x4c, 0x3d, 0xbb, 0xe8, 0xcb, 0xbd, 0x78, 0x01, 0xa5, 0xbe,
  0x13, 0x67, 0xcd, 0x3e, 0x28, 0xb5, 0xbc, 0x3e, 0x03, 0xf6, 0x81, 0xbe,
  0xbe, 0x73, 0x0e, 0x3c, 0x30, 0x76, 0xe4, 0x3e, 0xb2, 0x7c, 0x19, 0x3e,
  0x01, 0x29, 0xb8, 0x3d, 0x16, 0xb5, 0x82, 0x3e, 0xae, 0x27, 0x22, 0xbe,
  0x4c, 0x9e, 0x5a, 0x3e, 0xc3, 0x4e, 0x15, 0xbe, 0x8e, 0xa9, 0x7f, 0x3f,
  0x4c, 0xc5, 0x18, 0x3e, 0x66, 0x3a, 0xaa, 0x3d, 0x24, 0xc4, 0xc1, 0x3e,
  0x42, 0x2e, 0x1e, 0xbf, 0x27, 0x61, 0xf8, 0x3e, 0x33, 0xdc, 0xad, 0x3e,
  0x3d, 0x3c, 0xb8, 0xbe, 0xe0, 0x82, 0x39, 0x3e, 0x81, 0x84, 0xac, 0x3e,
  0x0c, 0x71, 0x07, 0x3e, 0x17, 0x90, 0x4f, 0x3e, 0xb7, 0x7e, 0xe1, 0x3e,
  0x6e, 0xe1, 0x73, 0xbe, 0x30, 0x2c, 0x1a, 0xbd, 0x76, 0xe8, 0xfc, 0x3d,
  0x1c, 0x5e, 0x65, 0x3e, 0x58, 0x2b, 0xb1, 0x3d, 0x71, 0xb1, 0x9e, 0x3d,
  0x9c, 0xe1, 0x10, 0x3e, 0xb4, 0x68, 0xaa, 0xbe, 0xb6, 0xec, 0xe6, 0x3e,
  0x64, 0xdc, 0x13, 0x3e, 0x18, 0x06, 0x27, 0xbd, 0x62, 0x35, 0x93, 0xbe,
  0x02, 0x79, 0xb4, 0x3e, 0x70, 0x01, 0x4c, 0x3e, 0x29, 0x63, 0x4a, 0x3e,
  0x2d, 0x25, 0xbd, 0xbe, 0xd5, 0xc8, 0x88, 0xbe, 0x43, 0x9c, 0xab, 0xbe,
  0xef, 0x7e, 0xed, 0xbd, 0x21, 0x1a, 0x54, 0x3e, 0x91, 0x09, 0x9c, 0x3d,
  0x7d, 0x52, 0x17, 0x3e, 0x18, 0xf7, 0x45, 0x3c, 0xf5, 0x49, 0xab, 0xbe,
  0xf0, 0x20, 0x22, 0x3f, 0xf2, 0x45, 0xf5, 0x3d, 0xaa, 0x7c, 0xa7, 0xbd,
  0x51, 0xf5, 0x55, 0xbe, 0x16, 0xc7, 0xf9, 0x3d, 0xdd, 0x19, 0x14, 0x3e,
  0x6f, 0xec, 0x04, 0xbd, 0x30, 0x5e, 0x92, 0x3d, 0x9c, 0x18, 0x83, 0xbe,
  0x9b, 0xf4, 0xfb, 0xbd, 0xd1, 0x23, 0x5e, 0xbe, 0xc9, 0x67, 0xad, 0xbd,
  0x8a, 0xb3, 0x0c, 0xbe, 0xd3, 0xf0, 0xcc, 0xbd, 0x9f, 0x59, 0xb0, 0x3d,
  0xc4, 0xd6, 0x99, 0xbd, 0xb7, 0xb3, 0xf7, 0x3d, 0x71, 0x68, 0xf1, 0xbd,
  0x6b, 0x98, 0x6f, 0xbe, 0x23, 0x21, 0x7b, 0xbe, 0x75, 0xb1, 0xc3, 0x3d,
  0x8c, 0x02, 0x1e, 0x3e, 0xcc, 0x60, 0x04, 0x3e, 0xdc, 0x8f, 0xe4, 0xbc,
  0xa3, 0x80, 0xd1, 0xbc, 0x0c, 0xd0, 0xfa, 0xbd, 0x16, 0x6f, 0xdd, 0xbd,
  0x4b, 0xc8, 0xa3, 0xbd, 0x27, 0x45, 0x23, 0xbe, 0x10, 0xbf, 0x8b, 0xbb,
  0x85, 0xc8, 0xfc, 0x3c, 0x8d, 0x69, 0xa6, 0x3d, 0x00, 0xb7, 0xc6, 0xbd,
  0x23, 0x16, 0x1d, 0xbe, 0x55, 0x72, 0x2f, 0xbe, 0x74, 0x00, 0x10, 0xbd,
  0x71, 0xc7, 0xf4, 0xbc, 0x9e, 0xec, 0xbe, 0xbd, 0xd3, 0xb1, 0x77, 0x3c,
  0x74, 0x63, 0x52, 0xbc, 0x7a, 0x42, 0xb6, 0x3d, 0xd5, 0x3f, 0x67, 0xbe,
  0xb2, 0x15, 0x21, 0x3e, 0xe9, 0x98, 0x93, 0x3d, 0x64, 0x98, 0xf3, 0xbd,
  0x68, 0xac, 0x7f, 0xbc, 0x83, 0xae, 0xf1, 0x3d, 0xf7, 0xa6, 0x40, 0xbe,
  0x6d, 0xee, 0x81, 0xbd, 0x6e, 0xae, 0xd1, 0xbd, 0xaf, 0x87, 0x23, 0x3e,
  0xf2, 0xb7, 0x15, 0xbe, 0x43, 0xe1, 0xd8, 0xbc, 0xe5, 0x9d, 0x08, 0xbe,
  0x66, 0x39, 0x0d, 0xbe, 0x1e, 0x38, 0x06, 0xbe, 0xdb, 0x92, 0x12, 0xbd,
  0x37, 0x72, 0x36, 0x3d, 0x1b, 0x2f, 0xfb, 0xbd, 0x9b, 0xbc, 0x23, 0x3c,
  0x36, 0x33, 0x28, 0xbe, 0x98, 0x28, 0x26, 0xbd, 0x6b, 0x3c, 0x24, 0xbe,
  0x31, 0x3e, 0x0a, 0x3d, 0x35, 0x8e, 0x21, 0xbe, 0x19, 0x73, 0x8c, 0x3d,
  0xfb, 0x41, 0x03, 0x3e, 0xdf, 0xe7, 0xe3, 0x3b, 0xd3, 0x18, 0xca, 0x3d,
  0x94, 0xe9, 0x41, 0x3e, 0x60, 0xc4, 0xe2, 0x3d, 0x32, 0xd4, 0x11, 0xbe,
  0xd4, 0x06, 0x01, 0x3e, 0x73, 0x54, 0x00, 0xbe, 0xdb, 0x52, 0xb2, 0x3d,
  0x9c, 0x0a, 0x82, 0x3d, 0x7d, 0x3c, 0x97, 0xbd, 0xb5, 0xb7, 0x69, 0xbe,
  0xac, 0x63, 0x04, 0x3d, 0x45, 0x97, 0x82, 0x3d, 0x61, 0xe3, 0xfe, 0x3d,
  0x79, 0x14, 0xfd, 0x3d, 0x3c, 0x11, 0xe4, 0x3b, 0x35, 0xad, 0x81, 0xbe,
  0xa6, 0x39, 0x03, 0xbe, 0x5b, 0x0f, 0x25, 0xbe, 0x12, 0x42, 0x3f, 0xbe,
  0x9b, 0xfe, 0x0f, 0x3e, 0x8e, 0xf8, 0xd8, 0x3a, 0x52, 0xcd, 0xed, 0x3d,
  0x8b, 0x0f, 0x05, 0xbe, 0x48, 0xbf, 0xcd, 0x3d, 0xcc, 0xdb, 0x94, 0xbe,
  0xc5, 0x7f, 0x9a, 0xbe, 0x17, 0x01, 0x07, 0xbd, 0x0e, 0x31, 0xb7, 0x3d,
  0x46, 0x5f, 0x45, 0xbe, 0xd9, 0xe9, 0x1a, 0xbe, 0x07, 0x17, 0xed, 0x3d,
  0x51, 0xca, 0x3a, 0xbe, 0x56, 0x04, 0xf8, 0xbd, 0x66, 0x35, 0x47, 0xbe,
  0x3c, 0xaa, 0x65, 0xbe, 0x05, 0x21, 0x86, 0xbe, 0x6e, 0x8c, 0xca, 0xbd,
  0x2a, 0xb4, 0xdc, 0x3d, 0x2b, 0x59, 0x91, 0xbd, 0x91, 0xa0, 0x26, 0xbe,
  0x24, 0xe9, 0x2b, 0xbe, 0x00, 0xef, 0xa1, 0xbe, 0x56, 0xa3, 0x1f, 0x3e,
  0x1c, 0xdd, 0x89, 0xbe, 0x18, 0x10, 0xc2, 0x3d, 0x68, 0xcc, 0x5c, 0x3e,
  0x09, 0x24, 0xf8, 0xbb, 0xa5, 0xea, 0xe0, 0xbd, 0x9f, 0x28, 0x20, 0xbc,
  0xb1, 0xc7, 0x7f, 0xbd, 0x24, 0x46, 0xa0, 0xbe, 0x8f, 0x8b, 0x36, 0xbe,
  0x83, 0x25, 0x00, 0x3e, 0x30, 0x9d, 0xee, 0xbe, 0x4c, 0x9b, 0x82, 0xbe,
  0x1d, 0x9e, 0x58, 0x3e, 0xcb, 0xd7, 0x6e, 0xbd, 0x2b, 0x05, 0xe2, 0x3e,
  0x6b, 0x2f, 0x83, 0x3b, 0x5c, 0x65, 0x74, 0x3e, 0x02, 0xce, 0xbf, 0x3e,
  0x41, 0x05, 0x68, 0x3e, 0x5f, 0x85, 0x03, 0xbe, 0x53, 0xc7, 0x8b, 0x3e,
  0xd0, 0x90, 0x0c, 0xbe, 0x0a, 0x4b, 0x26, 0xbe, 0xc9, 0x29, 0x72, 0xbe,
  0x67, 0x43, 0x26, 0x3e, 0x3b, 0x1a, 0x9c, 0x3e, 0xbc, 0x1b, 0xb3, 0xbd,
  0x63, 0xa2, 0x84, 0x3d, 0xc6, 0xce, 0x5b, 0x3e, 0x1c, 0x76, 0xb5, 0xbd,
  0x28, 0x44, 0x6d, 0x3c, 0xd6, 0x04, 0x14, 0xbe, 0xdb, 0x64, 0x36, 0x3e,
  0x8e, 0x54, 0x31, 0x3e, 0xc5, 0x7b, 0x9f, 0x3e, 0xde, 0xc0, 0x34, 0x3d,
  0xa4, 0x95, 0x12, 0x3e, 0x9e, 0xb7, 0x4c, 0x3e, 0x14, 0x0e, 0x3b, 0xbe,
  0x67, 0x40, 0xc5, 0x3c, 0xb1, 0x94, 0x06, 0x3d, 0xf8, 0x0b, 0x48, 0x3e,
  0xa6, 0x19, 0xda, 0xbb, 0x5b, 0xae, 0x82, 0x3d, 0x75, 0x59, 0x90, 0xbb,
  0xf4, 0x21, 0xb0, 0xbe, 0x08, 0x18, 0x5d, 0x3d, 0x75, 0xac, 0x82, 0xbe,
  0xbf, 0x37, 0xb0, 0x3d, 0xab, 0x4d, 0xf3, 0x3e, 0x18, 0x6f, 0x61, 0x3e,
  0x67, 0xaa, 0xa6, 0xbd, 0x23, 0xb2, 0x86, 0xbb, 0x58, 0xb7, 0x3d, 0xbe,
  0x98, 0x11, 0xc0, 0xbd, 0xe8, 0x63, 0xea, 0x3c, 0x9b, 0x8e, 0x6f, 0x3d,
  0x8e, 0x8b, 0x55, 0x3e, 0xfe, 0xee, 0xcb, 0xbd, 0x1a, 0xc2, 0x0d, 0x3e,
  0x0f, 0xca, 0x75, 0x3e, 0xd6, 0x9c, 0xa2, 0xbe, 0xf7, 0xe9, 0xcf, 0x3d,
  0x39, 0x5a, 0x8c, 0xbd, 0x68, 0x12, 0x26, 0x3e, 0x06, 0x10, 0x73, 0x3b,
  0xeb, 0x5b, 0xbf, 0x3e, 0xc4, 0x2a, 0xaa, 0xbe, 0x0e, 0xd9, 0x1a, 0xbe,
  0xcb, 0xde, 0xe4, 0xbd, 0x73, 0x06, 0x56, 0xbe, 0x87, 0x8d, 0xa8, 0xbe,
  0x18, 0x9d, 0x5b, 0x3d, 0x3c, 0x5c, 0xbd, 0x3d, 0xb3, 0x5d, 0x2f, 0xbe,
  0xba, 0x35, 0xb2, 0x3a, 0x10, 0xa3, 0x9c, 0x3d, 0x8e, 0xd8, 0xc9, 0xbe,
  0xaf, 0x8f, 0x67, 0x3e, 0x18, 0x81, 0x94, 0xbe, 0x3e, 0xcf, 0x8c, 0x3c,
  0xc8, 0x21, 0x14, 0x3e, 0x88, 0x08, 0x06, 0x3f, 0x74, 0x84, 0x16, 0xbd,
  0xbf, 0x5a, 0xd3, 0x3c, 0x9e, 0x29, 0xa4, 0x3d, 0xf8, 0x7f, 0x44, 0x3d,
  0x5a, 0x56, 0x0a, 0xbe, 0x75, 0xaa, 0xed, 0x3d, 0x6a, 0x15, 0xf2, 0xbd,
  0xb1, 0xdb, 0xc0, 0xbd, 0x78, 0xe6, 0x3c, 0x3e, 0xaa, 0x0b, 0xeb, 0x3d,
  0xc7, 0xe3, 0x77, 0xbd, 0xd4, 0xa7, 0xa5, 0x3d, 0x6e, 0xb9, 0x98, 0xbe,
  0x88, 0xcd, 0x84, 0xbd, 0x26, 0xcb, 0x96, 0x3e, 0xbe, 0x29, 0x96, 0x3d,
  0x8c, 0xc2, 0x56, 0xbe, 0x74, 0xb8, 0xd5, 0xbc, 0x5c, 0x87, 0x1a, 0xbe,
  0x07, 0x52, 0x9e, 0xbd, 0xd6, 0x3b, 0x4a, 0xbe, 0xb9, 0x21, 0xd5, 0xbc,
  0xe1, 0x25, 0x33, 0x3d, 0x98, 0x89, 0x08, 0x3e, 0xf4, 0xc8, 0xf1, 0xbd,
  0xba, 0x64, 0x50, 0xbd, 0x02, 0x96, 0xb0, 0xbe, 0x1c, 0xe2, 0xb7, 0xbb,
  0x34, 0x30, 0x20, 0xbd, 0x4b, 0x30, 0x09, 0xbe, 0x51, 0x13, 0xf7, 0x3d,
  0x19, 0x81, 0x69, 0x3e, 0x2f, 0x92, 0x24, 0xbe, 0x39, 0x18, 0xad, 0x3c,
  0xb0, 0x36, 0x0a, 0x3f, 0xd5, 0xf2, 0x6b, 0xbe, 0x8d, 0x64, 0x5d, 0xbe,
  0xa8, 0x36, 0x81, 0xbd, 0x1e, 0x81, 0xa8, 0xbe, 0x9a, 0x48, 0xba, 0x3c,
  0x33, 0x4c, 0x9e, 0xbe, 0xc2, 0x27, 0xa3, 0x3e, 0x65, 0x12, 0xe4, 0x3d,
  0xc0, 0x0f, 0x7c, 0x3e, 0x19, 0x17, 0x22, 0x3e, 0xea, 0x0c, 0xb2, 0xbe,
  0x0f, 0x78, 0x23, 0x3e, 0x8b, 0x41, 0x82, 0xbd, 0xc1, 0xd3, 0xdd, 0xbe,
  0x26, 0xf8, 0xb7, 0xbd, 0xef, 0x78, 0xe0, 0x3e, 0x3c, 0xf2, 0xf0, 0xbb,
  0xda, 0x2d, 0x14, 0x3e, 0x0a, 0x38, 0xf1, 0xbd, 0x27, 0xe3, 0x84, 0x3d,
  0x61, 0x63, 0x80, 0x3e, 0xc8, 0x13, 0x8f, 0x3b, 0xfb, 0x48, 0x57, 0x3f,
  0xea, 0x28, 0x1d, 0x3d, 0xeb, 0x9c, 0xd8, 0x3e, 0x71, 0x9f, 0x9e, 0xbe,
  0x11, 0x61, 0xeb, 0xbe, 0xf7, 0x80, 0xe6, 0x3d, 0x30, 0xf0, 0x20, 0xbe,
  0xe6, 0x68, 0xdb, 0xbe, 0xae, 0x90, 0x64, 0x3d, 0xba, 0x66, 0x24, 0x3e,
  0x23, 0xc4, 0x05, 0x3d, 0xc8, 0xea, 0xc0, 0x3e, 0xed, 0xb0, 0xd6, 0x3d,
  0x52, 0x5f, 0x43, 0xbe, 0x10, 0xbd, 0x50, 0x3e, 0x75, 0x1a, 0xab, 0xbe,
  0xd3, 0x3b, 0xa0, 0x3e, 0x72, 0xa3, 0x95, 0x3d, 0x05, 0x5c, 0x1e, 0x3d,
  0x9e, 0xef, 0xec, 0x3d, 0x0c, 0x23, 0x47, 0xbf, 0x27, 0x75, 0xb3, 0xbe,
  0xa6, 0xa9, 0xfb, 0xbd, 0x20, 0xaf, 0x67, 0xbe, 0x4e, 0xaa, 0x39, 0x3b,
  0xa9, 0x3c, 0x84, 0x3e, 0x84, 0xa4, 0x4f, 0x3a, 0xae, 0xce, 0xe2, 0x3d,
  0xd4, 0xe0, 0x98, 0xbd, 0xa5, 0x8c, 0x37, 0x3c, 0x42, 0x3f, 0x4e, 0x3e,
  0x52, 0x40, 0x80, 0xbd, 0x53, 0x5b, 0xa8, 0x3e, 0xc9, 0xbe, 0x23, 0x3d,
  0x70, 0x86, 0x02, 0x3e, 0x27, 0x57, 0x26, 0xbd, 0xdf, 0xd1, 0x13, 0xbf,
  0x70, 0x35, 0xf4, 0x3d, 0x5e, 0xbd, 0x18, 0x3e, 0xfd, 0x7a, 0xdb, 0xbe,
  0x85, 0x12, 0x96, 0xbd, 0x59, 0x11, 0xc4, 0x3d, 0x26, 0xe2, 0xce, 0xbd,
  0xa3, 0x37, 0x19, 0x3e, 0x1b, 0x7e, 0x2d, 0x3e, 0x22, 0xfa, 0x89, 0xbe,
  0x4b, 0x68, 0x57, 0x3e, 0x5a, 0x1e, 0x35, 0xbe, 0xf4, 0xe3, 0xeb, 0x3e,
  0xb6, 0xb5, 0x8d, 0x3d, 0x50, 0xf3, 0x8e, 0x3d, 0x40, 0x0b, 0x67, 0x3e,
  0x9f, 0x78, 0x16, 0xbf, 0xa9, 0x69, 0xb8, 0xbc, 0xbc, 0x02, 0xd3, 0x3d,
  0x8e, 0x1b, 0x63, 0xbe, 0xf9, 0x89, 0x0e, 0x3e, 0xc3, 0xbe, 0xbd, 0x3e,
  0x8b, 0x35, 0x0a, 0xbe, 0x65, 0x88, 0xa7, 0x3e, 0xe6, 0xd9, 0xa8, 0x3e,
  0xcc, 0xf6, 0xb2, 0xbe, 0x65, 0xd5, 0xbb, 0x3c, 0x8c, 0x27, 0x1e, 0xbe,
  0xc1, 0x08, 0x9a, 0x3e, 0x0c, 0x28, 0xe5, 0x3d, 0x3e, 0x63, 0xdd, 0x3d,
  0x39, 0xc4, 0xcd, 0x3d, 0xc5, 0x01, 0xb8, 0xbe, 0x23, 0x86, 0xb2, 0x3d,
  0xda, 0xae, 0xee, 0x3d, 0x0d, 0x40, 0xd3, 0x3a, 0x22, 0x3a, 0x42, 0xbe,
  0xda, 0x0b, 0xd3, 0x3e, 0x43, 0x8f, 0xb6, 0x3d, 0xb3, 0x78, 0x86, 0xbd,
  0xbd, 0x98, 0x81, 0xbe, 0xae, 0x46, 0x61, 0xbe, 0x64, 0xa5, 0x70, 0xbe,
  0xfb, 0x70, 0x90, 0xbd, 0x98, 0x47, 0x82, 0x3e, 0xee, 0xaf, 0xfd, 0x3b,
  0x96, 0x65, 0x78, 0x3d, 0xd2, 0xee, 0x36, 0xbe, 0x04, 0x0c, 0xab, 0xbd,
  0x88, 0x83, 0xfd, 0x3e, 0x19, 0xfe, 0x02, 0xbd, 0x5f, 0xa8, 0xec, 0xbc,
  0xdf, 0x21, 0xcd, 0x3c, 0xd3, 0xc7, 0x06, 0x3e, 0xe6, 0x64, 0x34, 0x3d,
  0x22, 0xa3, 0xa9, 0xbd, 0x80, 0x64, 0x20, 0xbe, 0xed, 0x8e, 0xce, 0xbe,
  0x15, 0x55, 0x6a, 0xbe, 0x02, 0x43, 0xb0, 0xbe, 0x07, 0x0a, 0x1b, 0x3f,
  0x9c, 0x00, 0xf9, 0x3d, 0x58, 0x70, 0x83, 0x3e, 0x49, 0x9a, 0xe9, 0xbd,
  0x84, 0xff, 0x1e, 0xbe, 0xe3, 0xc4, 0x9e, 0xbd, 0x76, 0xbb, 0xc8, 0x3d,
  0xf2, 0x3a, 0xcf, 0xbd, 0x1c, 0x5f, 0xd7, 0xbd, 0x1d, 0x2c, 0x2a, 0x3e,
  0x8c, 0x3a, 0x1e, 0x3d, 0xa3, 0x28, 0xc5, 0xbc, 0xc7, 0x1b, 0x3f, 0xbd,
  0x9e, 0x0f, 0xf9, 0x3d, 0x07, 0x20, 0x8e, 0xbd, 0x28, 0x91, 0x83, 0x3e,
  0xb5, 0x40, 0xdf, 0x3d, 0x2f, 0x84, 0x4c, 0x3e, 0x7f, 0xa4, 0xb4, 0x3e,
  0xe1, 0x0b, 0x30, 0xbe, 0xaa, 0xad, 0xd5, 0xbd, 0x1e, 0xc2, 0x2a, 0x3e,
  0x0a, 0xf9, 0x61, 0xbc, 0x29, 0xf4, 0x55, 0xbd, 0xa0, 0xc7, 0x50, 0x3d,
  0x77, 0x21, 0xe4, 0x3e, 0x21, 0xfa, 0x80, 0xbe, 0x7d, 0x68, 0x0d, 0xbe,
  0xa9, 0xd9, 0x89, 0x3e, 0xaa, 0x44, 0x4c, 0x3e, 0xe4, 0x10, 0x38, 0x3c,
  0xe1, 0x55, 0x93, 0xbd, 0x05, 0x0e, 0x7c, 0x3e, 0x66, 0xae, 0x32, 0x3d,
  0x08, 0xa8, 0x37, 0x3a, 0xcb, 0xa6, 0x50, 0x3d, 0x8e, 0x3b, 0x44, 0x3d,
  0x3e, 0x21, 0xa8, 0x3e, 0x63, 0x77, 0xcb, 0xbc, 0x24, 0xf1, 0x59, 0xbe,
  0x2b, 0x06, 0xad, 0x3d, 0x6a, 0xfd, 0xc1, 0x3d, 0xb0, 0x4a, 0x79, 0xbc,
  0xc8, 0xcb, 0xa0, 0x3c, 0xe6, 0x77, 0xa9, 0x3e, 0x82, 0x1a, 0xc2, 0x3d,
  0xcd, 0x19, 0xdb, 0xbc, 0x4c, 0x58, 0x5a, 0xbe, 0xc5, 0x66, 0x81, 0x3d,
  0x71, 0xb9, 0xa7, 0x3d, 0x49, 0x7b, 0x9e, 0x3d, 0x06, 0xee, 0x77, 0x3d,
  0x4e, 0xe3, 0x89, 0x3d, 0xc7, 0x7f, 0x94, 0xbc, 0xe8, 0x7d, 0xae, 0xbd,
  0xbd, 0xc7, 0xfe, 0xbd, 0x93, 0x29, 0xf9, 0xbd, 0xdb, 0x45, 0xfa, 0x3e,
  0x27, 0x15, 0x86, 0xbe, 0x85, 0x14, 0x2e, 0xbe, 0x50, 0x3c, 0xd6, 0xbd,
  0xd6, 0x1a, 0x86, 0xbd, 0x21, 0x45, 0x80, 0x3d, 0x03, 0x19, 0x56, 0xbd,
  0xfe, 0xf8, 0x06, 0x3f, 0x11, 0xf6, 0x11, 0x3c, 0xc2, 0xc6, 0x7c, 0x3d,
  0x0f, 0xff, 0x18, 0xbe, 0x58, 0x6b, 0x5e, 0x3c, 0xb4, 0x50, 0x76, 0x3e,
  0x82, 0x36, 0x3b, 0xbc, 0xb8, 0x46, 0x56, 0xbe, 0x1f, 0x1b, 0x9e, 0x3e,
  0x93, 0xc4, 0x9d, 0x3e, 0x13, 0xae, 0x07, 0xbe, 0x24, 0x02, 0xea, 0xbc,
  0x77, 0xe1, 0x17, 0x3e, 0xc7, 0x6c, 0xa8, 0x3d, 0x60, 0x5f, 0xe3, 0xbc,
  0x52, 0xa3, 0x8e, 0xbe, 0x57, 0x35, 0x11, 0x3f, 0xcf, 0x58, 0xe8, 0x3d,
  0x75, 0x5f, 0x37, 0x3d, 0xc5, 0xa8, 0x50, 0xbe, 0xf6, 0x11, 0x37, 0xbe,
  0x99, 0xcd, 0x03, 0xbd, 0x0e, 0xb9, 0xbe, 0xbc, 0x65, 0x5a, 0x8e, 0xbe,
  0x98, 0x90, 0x67, 0xbe, 0x86, 0x48, 0xaa, 0x3e, 0x45, 0xb1, 0x9c, 0xbe,
  0x9b, 0x1d, 0x04, 0xbd, 0xb0, 0x69, 0x81, 0xbd, 0xa1, 0xc8, 0x81, 0xbd,
  0x5e, 0xaa, 0x66, 0x3c, 0x66, 0xb1, 0x08, 0xbe, 0xaa, 0x44, 0x3a, 0x3e,
  0xae, 0x9e, 0x87, 0xbd, 0x47, 0x12, 0x8d, 0xbe, 0x5d, 0x61, 0x51, 0xbd,
  0x4a, 0xbc, 0x38, 0xbe, 0xee, 0x43, 0xcc, 0x3e, 0xeb, 0x48, 0x1f, 0xbe,
  0x8c, 0xbd, 0x77, 0x3e, 0xf1, 0x36, 0x28, 0x3e, 0xcb, 0xb0, 0xa0, 0xbe,
  0x9c, 0x5e, 0x4e, 0x3e, 0xb2, 0x01, 0x0b, 0x3e, 0x1f, 0x5e, 0xb0, 0x3d,
  0x05, 0xa0, 0xf2, 0x3d, 0x8d, 0xcd, 0x53, 0x3c, 0x28, 0x83, 0xcc, 0x3e,
  0x8d, 0xe6, 0x2d, 0xbf, 0xcb, 0x66, 0x58, 0xbe, 0xb9, 0x39, 0x05, 0xbe,
  0x39, 0xac, 0xf0, 0xbb, 0x64, 0x45, 0x62, 0x3e, 0x70, 0x99, 0xc1, 0x3c,
  0xf6, 0x2a, 0x13, 0xbf, 0x51, 0x04, 0x4b, 0x3e, 0xf0, 0xad, 0xa4, 0x3d,
  0xc1, 0xf9, 0xc2, 0xbd, 0xa4, 0xa3, 0xb4, 0xbc, 0xee, 0x9f, 0x4b, 0xbb,
  0xbf, 0x35, 0x93, 0x3e, 0xb0, 0x5b, 0x90, 0xbb, 0x4d, 0xd0, 0x09, 0xbe,
  0x74, 0xc8, 0xd7, 0x3d, 0x21, 0xe6, 0xd8, 0x3c, 0x71, 0xa6, 0xc0, 0xbd,
  0xbd, 0x8f, 0xdb, 0xbe, 0xf2, 0xbd, 0x8e, 0x3e, 0x0f, 0xea, 0x2c, 0x3e,
  0xa2, 0x34, 0xad, 0xbd, 0x0c, 0x7f, 0x06, 0xbf, 0xe5, 0x2e, 0xb0, 0x3e,
  0x07, 0xaa, 0xa0, 0x3c, 0x0d, 0xd7, 0x80, 0x3d, 0x3d, 0x56, 0x91, 0xbe,
  0xcd, 0x23, 0x9e, 0xbe, 0xf9, 0xe0, 0x8c, 0xbc, 0xbe, 0xab, 0xe3, 0x3c,
  0xb8, 0x3f, 0x87, 0xbe, 0xe7, 0x0f, 0x9b, 0x3e, 0x9a, 0x80, 0xd6, 0x3d,
  0x78, 0xbc, 0x91, 0xbc, 0x44, 0xe3, 0x26, 0xbe, 0x03, 0x6f, 0x0e, 0xbe,
  0xd2, 0x91, 0xe9, 0x3d, 0x32, 0x58, 0xc8, 0xbe, 0xba, 0x18, 0xfe, 0xbe,
  0x43, 0x5e, 0x40, 0x3e, 0xea, 0xde, 0x8c, 0x3e, 0x9c, 0x85, 0x03, 0xbd,
  0x3e, 0xee, 0x49, 0xbe, 0x82, 0xbd, 0x93, 0xbe, 0xe2, 0x9c, 0xea, 0x3d,
  0x83, 0x8b, 0x92, 0x3e, 0xd1, 0x54, 0x32, 0x3e, 0xf4, 0x8a, 0xdf, 0x3e,
  0x26, 0xd0, 0xb9, 0x3c, 0x5c, 0x74, 0x03, 0x3d, 0x26, 0x6c, 0x67, 0xbe,
  0xee, 0x70, 0x11, 0x3e, 0xba, 0xe1, 0xb2, 0xbd, 0x84, 0x5d, 0x09, 0xbe,
  0x97, 0x9a, 0xe5, 0xbe, 0xb4, 0x8b, 0x17, 0x3e, 0x41, 0x91, 0xba, 0x3d,
  0xd7, 0xe7, 0x53, 0xbe, 0x4f, 0x02, 0x11, 0x3e, 0x33, 0x2c, 0x7d, 0x3e,
  0x7c, 0x10, 0x78, 0x3e, 0xe8, 0x22, 0x15, 0x3d, 0x70, 0xc5, 0xb1, 0x3d,
  0x92, 0x15, 0x94, 0x3e, 0x1a, 0x72, 0x28, 0xbe, 0x03, 0xb7, 0x93, 0xbc,
  0x53, 0xa1, 0x9f, 0xbe, 0x28, 0xff, 0x66, 0x3e, 0x33, 0x4b, 0x0c, 0xbd,
  0x57, 0x36, 0x45, 0xbe, 0x3b, 0xb7, 0xbe, 0xbe, 0x67, 0xdc, 0xa6, 0x3e,
  0x7a, 0xf2, 0x89, 0xbe, 0x3c, 0xec, 0x9e, 0xbd, 0xa6, 0x76, 0x34, 0xbd,
  0x8f, 0x42, 0x94, 0x3d, 0x0c, 0x1e, 0x72, 0x3c, 0x94, 0xe0, 0x6f, 0x3d,
  0xc7, 0x56, 0x9e, 0xbd, 0x0d, 0x1e, 0xcf, 0x3e, 0x01, 0xe0, 0x20, 0x3e,
  0x4c, 0x17, 0xd6, 0xbd, 0xe3, 0x06, 0xc8, 0xbe, 0x89, 0xf7, 0x86, 0x3d,
  0x60, 0x69, 0x24, 0x3e, 0x31, 0xb7, 0x40, 0xbc, 0xcd, 0xf2, 0x94, 0xbe,
  0x0c, 0xfd, 0xe9, 0xbc, 0x5d, 0x00, 0x9e, 0xbd, 0x56, 0xc3, 0xb1, 0xbc,
  0x80, 0x9a, 0x2d, 0xbe, 0x32, 0x24, 0x31, 0xbe, 0x1b, 0x69, 0x9a, 0xbd,
  0x54, 0x1a, 0x3c, 0xbe, 0xce, 0x0c, 0xab, 0xbd, 0x8b, 0xb6, 0x49, 0x3d,
  0x6f, 0xbc, 0x38, 0x3e, 0xe4, 0x01, 0x48, 0xbd, 0xca, 0x97, 0xce, 0xbe,
  0xce, 0x37, 0xbc, 0xbd, 0xba, 0x3c, 0x89, 0xbe, 0x78, 0x84, 0xc1, 0xbe,
  0x3f, 0x8e, 0xa4, 0xbd, 0xfc, 0xd6, 0xa0, 0xbe, 0x90, 0x1b, 0x2d, 0xbe,
  0xe1, 0x29, 0x75, 0x3e, 0x92, 0x4a, 0x01, 0xbf, 0x91, 0x1b, 0x3e, 0xbe,
  0x8e, 0x6f, 0xf7, 0xbd, 0xd7, 0xc8, 0x26, 0xbf, 0x91, 0x62, 0x7c, 0xbe,
  0x36, 0x0b, 0xf9, 0xbe, 0x3b, 0x30, 0xa0, 0x3d, 0xb6, 0x70, 0x1e, 0xbe,
  0xcf, 0xb5, 0x07, 0xbf, 0x14, 0x68, 0x83, 0xbe, 0x8c, 0x84, 0xe7, 0xbe,
  0x17, 0xa7, 0x28, 0xbd, 0xa4, 0x4f, 0x67, 0xbe, 0x88, 0x49, 0x0d, 0xbe,
  0x30, 0x22, 0xa3, 0xbe, 0xb3, 0xdc, 0xa2, 0xbb, 0x26, 0x25, 0x78, 0xbe,
  0x3f, 0xf7, 0x88, 0xbe, 0x2d, 0xeb, 0x58, 0xbe, 0x7c, 0xad, 0xdd, 0xbe,
  0xa1, 0x4d, 0xf9, 0xbe, 0x33, 0xa8, 0xb1, 0xbe, 0xcb, 0xd2, 0x93, 0xbc,
  0xaf, 0x29, 0x27, 0xbd, 0x91, 0xb6, 0xa2, 0xbe, 0x27, 0xee, 0xf1, 0xbe,
  0x28, 0x85, 0xe6, 0xbe, 0xc1, 0x47, 0x86, 0x3d, 0x55, 0xbb, 0xc4, 0xbd,
  0x01, 0x56, 0x67, 0xbe, 0xcb, 0xe3, 0xb3, 0xbe, 0x99, 0xe9, 0x2d, 0x3e,
  0xbc, 0x05, 0xf1, 0xbe, 0x02, 0x26, 0xc0, 0xbe, 0x26, 0x8c, 0x1a, 0xbd,
  0x34, 0x36, 0xdb, 0x3e, 0xc3, 0x6e, 0x67, 0xbe, 0x31, 0xb6, 0xef, 0x3c,
  0x05, 0x93, 0x0a, 0xbe, 0xf0, 0x64, 0x09, 0xbc, 0xb3, 0xd1, 0x48, 0xbe,
  0x33, 0x13, 0xb1, 0xbe, 0x14, 0x04, 0xd0, 0xbd, 0x17, 0xb8, 0x0f, 0x3d,
  0xf8, 0x55, 0xc5, 0xbe, 0xe4, 0x63, 0x0e, 0xbe, 0x7a, 0x3a, 0x9f, 0x3e,
  0x01, 0xf4, 0xa7, 0x3b, 0x40, 0x27, 0x5f, 0x3e, 0xb4, 0x9b, 0x0e, 0xbe,
  0x11, 0x10, 0x0a, 0x3d, 0x73, 0xdf, 0xa8, 0x3d, 0x5f, 0xb5, 0x13, 0xbe,
  0xc6, 0xae, 0x38, 0x3e, 0xc0, 0x6c, 0xed, 0x3d, 0x3f, 0xb4, 0x4f, 0xbc,
  0xfc, 0x99, 0xb8, 0xbe, 0x2c, 0x75, 0x0e, 0x3e, 0x0f, 0x1a, 0xf3, 0xbd,
  0x93, 0x67, 0xad, 0xbe, 0x32, 0xc3, 0xd4, 0xbe, 0xb8, 0xe1, 0xa8, 0x3e,
  0xd2, 0x65, 0x57, 0x3e, 0xe8, 0x57, 0x8c, 0xbe, 0x43, 0x6d, 0xc4, 0x3e,
  0x5f, 0xb1, 0x23, 0xbc, 0xd5, 0x3a, 0xcd, 0x3d, 0xe6, 0x56, 0x96, 0x3e,
  0x63, 0xec, 0x11, 0x3e, 0x35, 0xd8, 0x8e, 0xbc, 0x66, 0x32, 0x1a, 0xbe,
  0x2a, 0x5a, 0x0f, 0xbe, 0xc7, 0x38, 0x63, 0xbe, 0xd2, 0x49, 0xb3, 0x3d,
  0xc1, 0xb8, 0xd6, 0x3c, 0xc1, 0xfd, 0xb0, 0xbe, 0xb5, 0xa1, 0x0a, 0xbe,
  0x00, 0x61, 0x3e, 0x3e, 0x14, 0xb0, 0x3b, 0x3e, 0x8a, 0x91, 0xf9, 0xbe,
  0x72, 0x2d, 0xc9, 0x3d, 0x08, 0x2e, 0x1e, 0xbd, 0x31, 0xe9, 0x9f, 0xbe,
  0xfe, 0xd3, 0x81, 0x3e, 0xca, 0xb4, 0x81, 0x3d, 0x1f, 0x65, 0x3d, 0x3d,
  0x52, 0x21, 0x02, 0xbe, 0xf5, 0xb2, 0x00, 0xbe, 0x51, 0xde, 0x88, 0xbe,
  0x36, 0x31, 0x36, 0x3d, 0x6b, 0x03, 0x6f, 0x3e, 0xe7, 0x42, 0xa9, 0xbe,
  0x93, 0x1f, 0x07, 0xbe, 0xf1, 0xb1, 0x92, 0x3c, 0xf7, 0x23, 0xc7, 0x3d,
  0x85, 0x87, 0x18, 0xbf, 0x60, 0xd5, 0x2d, 0xbd, 0xdd, 0x29, 0x79, 0x3c,
  0x38, 0x3e, 0x40, 0x3e, 0x89, 0xa6, 0x8b, 0x3e, 0xec, 0x05, 0x57, 0x3e,
  0x32, 0xc2, 0x6f, 0x3d, 0xa9, 0x71, 0x42, 0x3d, 0x6d, 0x71, 0xb6, 0xbd,
  0x0c, 0xe9, 0xe5, 0xbe, 0xf7, 0x27, 0x14, 0x3e, 0x83, 0x71, 0x86, 0x3e,
  0x32, 0x68, 0x25, 0xbe, 0x48, 0xbd, 0x1d, 0xbe, 0x67, 0x13, 0x67, 0xbe,
  0x0f, 0x57, 0xa1, 0xbd, 0x12, 0xe8, 0xaa, 0x3d, 0xc5, 0x13, 0x02, 0xbf,
  0x5b, 0xcc, 0x15, 0xbf, 0x4a, 0x78, 0x52, 0xbe, 0x2f, 0xda, 0xfd, 0xbe,
  0x9b, 0x08, 0x6d, 0xbe, 0x11, 0x35, 0x07, 0xbf, 0xee, 0xb7, 0x44, 0xbd,
  0x72, 0xf5, 0xd1, 0xbd, 0xc5, 0x1e, 0x79, 0xbd, 0x8f, 0x19, 0x92, 0xbe,
  0xfc, 0xb8, 0x35, 0xbf, 0x4c, 0x6a, 0xb3, 0x3e, 0xe1, 0x4a, 0x29, 0xbe,
  0x81, 0x86, 0x05, 0xbf, 0x43, 0x55, 0xba, 0x3c, 0x74, 0x6d, 0xa4, 0xbd,
  0x91, 0xbc, 0x02, 0xbf, 0xe0, 0xb4, 0xf1, 0xbe, 0x32, 0x58, 0xb6, 0xbe,
  0x47, 0xb6, 0xbc, 0x3e, 0x18, 0x23, 0x15, 0xbe, 0xbb, 0x97, 0x3c, 0x3e,
  0xd3, 0x96, 0x86, 0xbb, 0xb3, 0x7e, 0x7e, 0x3b, 0xf6, 0x67, 0xa8, 0xbe,
  0xb9, 0xae, 0xaf, 0xbe, 0x24, 0xd9, 0x24, 0xbe, 0xc5, 0x18, 0x4b, 0xbe,
  0xd7, 0x08, 0x86, 0xbe, 0xd5, 0x8d, 0x38, 0x3e, 0x81, 0x40, 0x0a, 0x3e,
  0xcc, 0x76, 0xb9, 0x3d, 0xe7, 0x0f, 0x42, 0xbd, 0x97, 0x06, 0x13, 0x3e,
  0x3d, 0xc9, 0x3c, 0x3d, 0x95, 0xef, 0x2f, 0x3b, 0x7a, 0x43, 0x25, 0x3e,
  0x22, 0xfe, 0x8a, 0x3e, 0x9e, 0xfd, 0x20, 0xbe, 0xe1, 0xe2, 0xd7, 0xbd,
  0x10, 0x36, 0x85, 0xbe, 0x6e, 0xfe, 0xc8, 0x3e, 0x4b, 0x65, 0x65, 0xbe,
  0xad, 0x0a, 0x37, 0xbe, 0x61, 0x21, 0xc1, 0xbe, 0x14, 0x6f, 0x1f, 0x3e,
  0xd7, 0xcb, 0x8a, 0x3d, 0xbb, 0x25, 0x2e, 0xbe, 0x2b, 0xcd, 0xbd, 0x3e,
  0xbc, 0x02, 0xa8, 0x3c, 0x33, 0x7d, 0x45, 0x3e, 0x65, 0x8d, 0xb9, 0x3d,
  0x98, 0x2a, 0x21, 0x3e, 0x64, 0x23, 0x9c, 0xbd, 0x2b, 0x4d, 0xaa, 0xbe,
  0xb9, 0xd4, 0x29, 0xbe, 0xd1, 0xf7, 0x0f, 0xbe, 0x77, 0x31, 0xfb, 0x3d,
  0xb7, 0xbf, 0x77, 0xbd, 0x2a, 0x83, 0xf1, 0xbd, 0x35, 0x37, 0x03, 0xbf,
  0xc2, 0x71, 0x98, 0x3e, 0xed, 0x95, 0x8b, 0xba, 0x39, 0x19, 0xf6, 0xbe,
  0x07, 0x0f, 0x43, 0x3e, 0xf8, 0x70, 0x19, 0x3d, 0xda, 0x59, 0x12, 0x3e,
  0xf2, 0x62, 0x68, 0x3d, 0xb7, 0x0b, 0x86, 0xbd, 0x66, 0x51, 0x99, 0x3d,
  0x18, 0x96, 0x9f, 0xbe, 0x7f, 0x5d, 0x19, 0xbe, 0x12, 0x66, 0xb1, 0xbe,
  0xc7, 0x12, 0xcf, 0x3d, 0xf0, 0x0c, 0x74, 0x3e, 0xef, 0xbc, 0x05, 0xbf,
  0xd0, 0x13, 0x8f, 0xbe, 0x58, 0xf3, 0x9a, 0x3e, 0x9b, 0xe7, 0x58, 0x3e,
  0x94, 0x28, 0xee, 0xbe, 0x86, 0xbb, 0xb2, 0xbd, 0xba, 0x23, 0x94, 0xbd,
  0xe0, 0x11, 0x10, 0x3d, 0xf1, 0x85, 0xa8, 0x3e, 0xfd, 0x4c, 0x99, 0x3c,
  0x47, 0xd2, 0x5d, 0x3e, 0x68, 0x29, 0x24, 0xbe, 0x58, 0x6b, 0xe1, 0xbd,
  0x5e, 0xf1, 0x70, 0xbe, 0x27, 0x97, 0x29, 0x3d, 0x6a, 0x1e, 0x13, 0x3e,
  0xbe, 0x42, 0x00, 0xbe, 0x53, 0xc3, 0x79, 0x3d, 0xc8, 0xc3, 0xbd, 0xbc,
  0xf9, 0xd8, 0x52, 0x3e, 0x70, 0x0e, 0x5e, 0xbf, 0x2e, 0x3d, 0x0d, 0xbd,
  0xc3, 0x94, 0x7d, 0x3d, 0x20, 0x95, 0xb9, 0x3d, 0xb6, 0x8c, 0x73, 0x3e,
  0x8f, 0xa4, 0xc1, 0x3d, 0x6d, 0x32, 0xbc, 0x3d, 0x04, 0xfc, 0x28, 0xbd,
  0x31, 0x52, 0x97, 0xbd, 0x62, 0x7b, 0x91, 0xbb, 0x7c, 0x2c, 0x04, 0x3e,
  0x19, 0xab, 0xde, 0x3c, 0x65, 0xbe, 0xb0, 0xbd, 0x29, 0x6d, 0xb9, 0xbe,
  0xbf, 0xb2, 0x09, 0x3e, 0xfa, 0x4f, 0xad, 0x3d, 0x06, 0xb4, 0xe1, 0xbe,
  0x0d, 0xe9, 0x28, 0x3e, 0xe3, 0x41, 0x24, 0x3e, 0x39, 0xe6, 0x8c, 0x3d,
  0x67, 0xcc, 0xfc, 0x3d, 0x87, 0x54, 0xab, 0xbc, 0x38, 0xc9, 0x67, 0x3e,
  0x89, 0x80, 0x0c, 0xbf, 0x87, 0x05, 0x7f, 0xbd, 0x5a, 0xe2, 0xb6, 0xbe,
  0xe8, 0x56, 0x4d, 0xbe, 0xf0, 0x81, 0xd0, 0xbb, 0x0c, 0x25, 0xae, 0xbe,
  0x3f, 0x4e, 0x90, 0xbe, 0x2c, 0x9a, 0x95, 0x3e, 0xd4, 0x46, 0x71, 0xbc,
  0xb4, 0x6a, 0x65, 0xbe, 0xcb, 0xf3, 0x35, 0x3e, 0x92, 0x47, 0xe0, 0x3d,
  0x1f, 0x9d, 0xe3, 0x3d, 0x59, 0xd5, 0x52, 0x3e, 0x52, 0x03, 0x84, 0x3e,
  0x3c, 0x4e, 0x28, 0x3e, 0x83, 0xa8, 0xd6, 0xbc, 0xdc, 0xe2, 0x08, 0xbe,
  0x1e, 0x8c, 0x50, 0xbe, 0xd3, 0xc9, 0x34, 0x3e, 0xb3, 0x20, 0xc1, 0x3e,
  0x2a, 0xb8, 0x0a, 0xbe, 0x40, 0xe0, 0xea, 0xbe, 0xf2, 0xc2, 0x8e, 0x3e,
  0x1d, 0x84, 0x00, 0x3e, 0xd8, 0xda, 0x45, 0xbe, 0x48, 0x3e, 0xf8, 0xbd,
  0x78, 0x79, 0xa3, 0xbd, 0x16, 0x31, 0x55, 0x3d, 0xf9, 0x1e, 0x2b, 0x3e,
  0x03, 0x4e, 0x14, 0x3e, 0xbe, 0xdd, 0x98, 0x3e, 0x16, 0xa3, 0xd4, 0xbd,
  0x3d, 0x8a, 0x97, 0xbc, 0x6d, 0xef, 0x0d, 0xbe, 0x3d, 0xfb, 0x28, 0x3d,
  0xb3, 0x5c, 0x81, 0x3e, 0xcf, 0x2d, 0x0d, 0xbe, 0x0e, 0x99, 0xb7, 0xbe,
  0x1f, 0xe0, 0x9c, 0x3e, 0xcc, 0x3c, 0xbd, 0x3e, 0xa5, 0x9b, 0x0e, 0xbf,
  0xeb, 0x9d, 0x16, 0x3e, 0x2b, 0xd2, 0x3a, 0x3d, 0x6b, 0xe8, 0x77, 0x3e,
  0x47, 0xe9, 0x48, 0xbc, 0xa5, 0x90, 0x31, 0x3b, 0xad, 0x4f, 0xa0, 0x3e,
  0x81, 0xb9, 0xb2, 0xbc, 0x1d, 0x0a, 0x93, 0xbd, 0x89, 0x00, 0x09, 0xbe,
  0xff, 0xf6, 0x1a, 0x3e, 0x7d, 0xb9, 0x79, 0x3e, 0x23, 0xcf, 0xa1, 0xbe,
  0xb0, 0x80, 0xce, 0xbe, 0x5c, 0xd3, 0xcf, 0x3d, 0x75, 0xf5, 0x50, 0x3e,
  0x56, 0x51, 0xd0, 0xbd, 0xeb, 0xea, 0x7c, 0x3d, 0x6e, 0xd3, 0x80, 0xbd,
  0xef, 0xe3, 0xdc, 0x3e, 0xdb, 0x8e, 0xda, 0x3d, 0xef, 0xc3, 0x11, 0xbe,
  0x9f, 0xc0, 0x32, 0x3d, 0xb3, 0x0c, 0x03, 0x3e, 0xa5, 0x09, 0x8e, 0x3c,
  0x9a, 0x43, 0x98, 0xbd, 0xd7, 0x63, 0x42, 0x3e, 0xc6, 0x0d, 0x86, 0x3d,
  0x70, 0x38, 0x31, 0xbe, 0xc5, 0x68, 0xc9, 0xbe, 0xba, 0xb2, 0x5f, 0x3e,
  0x74, 0xa0, 0xbb, 0xbd, 0x05, 0x77, 0xca, 0x3c, 0x19, 0x66, 0x01, 0xbf,
  0x99, 0x6e, 0xa0, 0xbd, 0x46, 0xa1, 0xc6, 0xbd, 0x12, 0xa5, 0x71, 0xbe,
  0x42, 0x87, 0x05, 0xbf, 0x9b, 0xfe, 0x17, 0xbb, 0xe9, 0x34, 0x00, 0xbd,
  0x16, 0x96, 0x0d, 0x3d, 0x6e, 0xb5, 0xdb, 0xbc, 0x9f, 0xc0, 0x0c, 0x3d,
  0x06, 0xaa, 0x44, 0xbe, 0x18, 0x9e, 0x67, 0xbe, 0x6a, 0xbd, 0xce, 0xbd,
  0x87, 0x9f, 0x9e, 0xbe, 0x01, 0x60, 0x6e, 0xbe, 0x00, 0x58, 0x97, 0xbc,
  0x0a, 0xd9, 0x49, 0xbe, 0x5d, 0x89, 0x25, 0xbe, 0xb6, 0xfc, 0x0e, 0xbe,
  0xf6, 0xdc, 0xac, 0xbd, 0xa3, 0xcc, 0x24, 0xbe, 0x01, 0xdc, 0x08, 0x3d,
  0x05, 0x2f, 0x74, 0xbe, 0xbf, 0x6c, 0x92, 0xbd, 0x29, 0x98, 0x0a, 0xbe,
  0x70, 0xc1, 0x45, 0x3d, 0xea, 0xd1, 0xd9, 0xbe, 0x4d, 0x06, 0x06, 0xbe,
  0x15, 0x1c, 0xab, 0x3d, 0x71, 0x1f, 0x49, 0xbd, 0x3f, 0x33, 0x98, 0x3c,
  0x02, 0x96, 0xba, 0x3c, 0x5a, 0x37, 0xcb, 0xbc, 0x1e, 0xae, 0xae, 0xbe,
  0xb9, 0x86, 0xdc, 0xbd, 0x82, 0x14, 0x9b, 0x3d, 0xf1, 0x86, 0x1b, 0xbe,
  0xd8, 0xd3, 0x25, 0xbe, 0x96, 0xf5, 0x0e, 0xbe, 0x7f, 0x35, 0xdb, 0xbd,
  0x0b, 0x13, 0xbf, 0xbe, 0x06, 0x90, 0xcf, 0x3b, 0x22, 0x5e, 0xcd, 0xbd,
  0xdb, 0x80, 0x8c, 0xbe, 0x0b, 0x41, 0x81, 0xbd, 0x12, 0xbd, 0x80, 0x3e,
  0xa5, 0x81, 0x0b, 0x3e, 0xbf, 0xee, 0x9d, 0xbe, 0x8c, 0xf7, 0x2a, 0xbd,
  0x9c, 0xda, 0x92, 0xbe, 0xf4, 0x4e, 0x6f, 0x3d, 0xff, 0xc5, 0xa1, 0x3e,
  0x94, 0x82, 0x04, 0xbe, 0x68, 0x57, 0x55, 0x3d, 0x49, 0xbb, 0x39, 0x3a,
  0x16, 0x2a, 0x02, 0xbe, 0x0f, 0x1e, 0x80, 0xbe, 0x5a, 0x7b, 0x07, 0x3e,
  0x5a, 0x30, 0x91, 0x3e, 0x12, 0x58, 0x6e, 0x3d, 0x36, 0x59, 0x34, 0xbe,
  0x3b, 0x20, 0xf6, 0x3c, 0x08, 0x46, 0x16, 0x3e, 0xb0, 0xb0, 0x75, 0xbe,
  0x61, 0xc8, 0xee, 0x3d, 0x76, 0x12, 0x58, 0xbd, 0xd0, 0x1c, 0x22, 0x3e,
  0x57, 0x8f, 0x6c, 0x3e, 0x41, 0x1b, 0xbb, 0x3e, 0xae, 0x68, 0x37, 0x3e,
  0x3d, 0x50, 0x68, 0xbd, 0x43, 0x4b, 0xf1, 0xbc, 0x79, 0x3d, 0x1c, 0xbe,
  0x68, 0x62, 0x8a, 0x3d, 0x18, 0xff, 0x77, 0xbe, 0x13, 0x5c, 0xf3, 0xbd,
  0xfa, 0x3f, 0xec, 0xbd, 0xb9, 0x4d, 0x08, 0x3d, 0x44, 0xcb, 0x0f, 0x3d,
  0x43, 0xb6, 0x6f, 0xbe, 0x9e, 0x0e, 0xa0, 0x3d, 0x6a, 0xd0, 0x97, 0x3e,
  0x8a, 0x65, 0x06, 0x3e, 0xc3, 0xd7, 0x5d, 0x3d, 0x3c, 0x72, 0xf5, 0x3e,
  0x67, 0x9a, 0x14, 0x3e, 0xf1, 0xa8, 0xb3, 0xbd, 0xed, 0xcd, 0x09, 0xbe,
  0x2a, 0x04, 0xee, 0xbd, 0x8d, 0xe4, 0x75, 0x3e, 0x2b, 0x3a, 0xbb, 0xbd,
  0x6d, 0xf1, 0x90, 0xbe, 0x48, 0x69, 0x85, 0xbe, 0x16, 0x31, 0x99, 0x3e,
  0x2b, 0x9d, 0x23, 0x3e, 0xca, 0x0f, 0xad, 0xbe, 0x6e, 0x2b, 0x63, 0x3e,
  0xe2, 0xdf, 0xc3, 0x3e, 0xea, 0x41, 0x9e, 0xbc, 0x78, 0xfc, 0x07, 0x3e,
  0x73, 0x18, 0x2f, 0x3e, 0x9d, 0x96, 0x43, 0x3d, 0x18, 0xb2, 0x87, 0xbe,
  0xb2, 0xd2, 0xbd, 0xbd, 0x99, 0x9e, 0x8d, 0xbe, 0x73, 0xe9, 0x82, 0x3d,
  0x00, 0xfe, 0xe0, 0x3d, 0x31, 0xb4, 0xc1, 0xbd, 0x65, 0x71, 0x7c, 0xbd,
  0x34, 0x70, 0x2a, 0x3d, 0x62, 0xb9, 0xbf, 0xbe, 0x78, 0x51, 0xa2, 0xbe,
  0xc4, 0xcb, 0x45, 0x3d, 0x74, 0x27, 0xdd, 0x3d, 0x97, 0x0d, 0xe9, 0xbd,
  0x16, 0x0e, 0xa1, 0xbd, 0xd2, 0x82, 0x0b, 0xbf, 0x3b, 0x68, 0x97, 0xbe,
  0xd3, 0x83, 0xed, 0xbd, 0xd2, 0xce, 0x8f, 0xbc, 0xc4, 0xa2, 0xa6, 0xbe,
  0xa7, 0x55, 0xe3, 0xbe, 0xcd, 0xbe, 0x1f, 0x3d, 0x65, 0x89, 0x24, 0xbe,
  0x5d, 0xb3, 0x35, 0xbe, 0xbe, 0x9d, 0x05, 0xbe, 0x73, 0x51, 0xd4, 0x3c,
  0x7f, 0xc6, 0xae, 0xbe, 0x0d, 0xca, 0x40, 0xbe, 0xf9, 0x79, 0xa9, 0xbe,
  0x06, 0x1c, 0xd6, 0xbc, 0xa1, 0x06, 0x25, 0x3d, 0xa7, 0x4c, 0x8a, 0xbc,
  0x93, 0xeb, 0x0b, 0xbb, 0x69, 0xd5, 0x05, 0x3e, 0x43, 0x78, 0x70, 0x3d,
  0x7d, 0x3c, 0xf4, 0xbd, 0x04, 0xc3, 0x84, 0xbd, 0x0f, 0x26, 0xd3, 0xbe,
  0xbd, 0x8e, 0xa9, 0xbe, 0xd4, 0x51, 0xec, 0x3e, 0xf5, 0xa8, 0x32, 0xbe,
  0xb4, 0x6e, 0x91, 0xbe, 0x7d, 0x81, 0x13, 0x3f, 0x07, 0xab, 0xaa, 0xbe,
  0x0b, 0xfd, 0xd9, 0xbe, 0x74, 0xab, 0x1a, 0xbe, 0xa4, 0x5a, 0xb0, 0xbe,
  0xcd, 0x09, 0x11, 0xbe, 0xd8, 0x12, 0x13, 0xbf, 0x9f, 0xea, 0xe6, 0x3e,
  0x03, 0xea, 0xf3, 0x3d, 0x60, 0x81, 0x91, 0x3e, 0x2a, 0x0f, 0x07, 0x3f,
  0xb8, 0x68, 0x52, 0xbd, 0xc8, 0x0e, 0x9b, 0x3e, 0x8a, 0x7c, 0x7b, 0x3e,
  0x04, 0x84, 0x92, 0xbe, 0xdb, 0x45, 0xc1, 0x3d, 0x90, 0x1f, 0x4b, 0x3f,
  0xda, 0xae, 0x94, 0xbe, 0xb9, 0x7e, 0x18, 0x3c, 0xe0, 0x58, 0x1c, 0xbe,
  0x4f, 0x64, 0x3c, 0xbd, 0x3a, 0xa5, 0x81, 0xbe, 0x26, 0x94, 0x9b, 0x3e,
  0x86, 0xa7, 0x44, 0x3e, 0xe6, 0x5e, 0xe4, 0xbc, 0xa9, 0xcb, 0xb8, 0x3d,
  0x7f, 0xd6, 0x6a, 0xbe, 0x5b, 0xbb, 0xaa, 0xbd, 0x7d, 0x28, 0x30, 0x3e,
  0x9a, 0x08, 0xba, 0x3e, 0x17, 0x9d, 0xce, 0xbd, 0x6a, 0xf7, 0x82, 0x3d,
  0xfc, 0x2d, 0x2f, 0x3f, 0xc9, 0xa3, 0x34, 0xbe, 0x72, 0x97, 0xda, 0xbc,
  0xf0, 0x42, 0x05, 0x3f, 0x56, 0x2c, 0x9d, 0x3d, 0x87, 0xf7, 0x6f, 0x3d,
  0xab, 0x30, 0x9a, 0xbe, 0xff, 0x7f, 0xad, 0x3e, 0xe1, 0x00, 0x4d, 0x3d,
  0xa5, 0xe8, 0x84, 0x3c, 0x0b, 0xb9, 0xb9, 0xbd, 0x81, 0xe9, 0x00, 0x3d,
  0xc3, 0x5c, 0xf5, 0x3e, 0x7a, 0xcb, 0xf8, 0x3e, 0x13, 0x63, 0x51, 0xbe,
  0x36, 0x65, 0x03, 0x3e, 0xf7, 0x82, 0x40, 0x3f, 0xbc, 0xc5, 0x8b, 0xbe,
  0x67, 0x3a, 0x3f, 0xbd, 0xbd, 0x50, 0x57, 0x3d, 0xc3, 0x7e, 0x12, 0x3e,
  0x3a, 0xd1, 0xa1, 0xbd, 0xfd, 0xe2, 0xe5, 0xbc, 0xa9, 0xc4, 0xbf, 0x3e,
  0x82, 0xba, 0x44, 0x3d, 0x43, 0xc0, 0x6d, 0x3e, 0x9c, 0x74, 0x51, 0xbe,
  0x8c, 0x18, 0x1c, 0x3c, 0xb7, 0x0f, 0x92, 0x3e, 0xb5, 0xeb, 0x0e, 0x3e,
  0xc2, 0x7e, 0xad, 0xbe, 0xdb, 0xb5, 0x57, 0xbc, 0x22, 0x0b, 0xba, 0x3d,
  0x88, 0x7c, 0xee, 0xbe, 0x53, 0x70, 0x64, 0x3d, 0xc9, 0x3d, 0x65, 0xbd,
  0x96, 0xa1, 0x8e, 0xbb, 0x76, 0x97, 0xb7, 0x3c, 0xe6, 0x41, 0xca, 0xbd,
  0xdb, 0x79, 0xb8, 0x3e, 0x2c, 0xcf, 0x8f, 0x3d, 0x40, 0x7f, 0x74, 0x3d,
  0x00, 0xd7, 0xa1, 0xbe, 0x1d, 0x3e, 0xf8, 0x3d, 0x69, 0xdb, 0xc5, 0x3e,
  0x42, 0x5c, 0xca, 0x3e, 0x56, 0xcf, 0xe5, 0xbd, 0x3e, 0x40, 0x55, 0x3e,
  0xbc, 0x5a, 0xa0, 0x3e, 0xc1, 0xcd, 0x74, 0xbe, 0x24, 0x01, 0x23, 0x3d,
  0x91, 0x9f, 0xb3, 0x3e, 0x99, 0xcc, 0x3f, 0x3e, 0x30, 0xa7, 0x65, 0xbe,
  0xcb, 0x00, 0x15, 0x3c, 0x58, 0x51, 0x44, 0x3e, 0xfd, 0x71, 0x00, 0x3e,
  0xf0, 0x4a, 0x86, 0x3d, 0x1b, 0x86, 0x5f, 0x3e, 0x5f, 0x61, 0x9a, 0xbd,
  0x04, 0x1f, 0x94, 0x3e, 0xb6, 0xf1, 0x06, 0x3e, 0xc1, 0x28, 0xa1, 0xbe,
  0xe6, 0x01, 0xe3, 0xbd, 0x4c, 0xd5, 0xa9, 0x3e, 0x72, 0xb4, 0x27, 0xbc,
  0x48, 0x37, 0x9b, 0x3c, 0x51, 0x0b, 0x04, 0xbd, 0xe0, 0xd0, 0xb2, 0xbe,
  0xda, 0x41, 0xad, 0xbe, 0xff, 0xec, 0x35, 0xbe, 0xfd, 0x26, 0xfd, 0x3e,
  0x29, 0xd6, 0xda, 0x3d, 0x9b, 0x45, 0x41, 0x3e, 0x6b, 0xd9, 0xc1, 0x3e,
  0x63, 0x1d, 0xb0, 0xbe, 0x76, 0xc9, 0xe9, 0x3e, 0x08, 0x33, 0x22, 0xbe,
  0x1e, 0x62, 0x91, 0x3d, 0x3b, 0xbc, 0x1d, 0x3e, 0x53, 0x38, 0xea, 0xbe,
  0x2e, 0x88, 0x3c, 0x3e, 0x13, 0xf0, 0x99, 0x3e, 0x0a, 0x36, 0xb1, 0x3e,
  0xfa, 0x21, 0x50, 0x3e, 0x44, 0x56, 0x01, 0x3d, 0xe0, 0x7b, 0xaa, 0x3e,
  0xae, 0x3b, 0x01, 0xbf, 0x64, 0x38, 0x53, 0xbe, 0x1b, 0x25, 0x31, 0xbe,
  0x12, 0x79, 0x47, 0xbe, 0xe7, 0x9f, 0x3f, 0x3e, 0x0e, 0x3e, 0xbf, 0xbe,
  0x68, 0xed, 0xda, 0xbe, 0x16, 0xfa, 0xea, 0x3e, 0xdc, 0x29, 0x27, 0x3c,
  0x0d, 0xe6, 0x13, 0xbe, 0x54, 0xf9, 0x96, 0x3e, 0xb4, 0x28, 0x98, 0x3d,
  0x10, 0x1f, 0xc8, 0xbc, 0x99, 0x4d, 0x22, 0xbe, 0xe1, 0x98, 0xb6, 0xbd,
  0x64, 0x78, 0x86, 0xbe, 0x47, 0xc0, 0xb7, 0xbd, 0xc9, 0xee, 0xf2, 0xbd,
  0x9a, 0xd6, 0xf9, 0xbd, 0xfd, 0x3e, 0x7a, 0x3e, 0x09, 0x8f, 0x0c, 0x3d,
  0x05, 0x99, 0x06, 0xbf, 0x50, 0x93, 0xda, 0xbe, 0x8f, 0x53, 0x0b, 0x3f,
  0x33, 0x58, 0x88, 0xbe, 0x1b, 0x77, 0x14, 0xbc, 0x38, 0x55, 0xcf, 0xbc,
  0xd4, 0xb3, 0x98, 0xbe, 0xcf, 0x23, 0xd8, 0x3c, 0x68, 0x11, 0x98, 0xbd,
  0xe1, 0x02, 0x74, 0xbe, 0xb2, 0x23, 0x4a, 0x3e, 0x2a, 0x5f, 0x69, 0x3d,
  0x58, 0x1f, 0xe0, 0xbd, 0x67, 0xa9, 0x4c, 0x3e, 0x0b, 0xd5, 0xe3, 0x3c,
  0x6c, 0x52, 0x6e, 0x3d, 0x9b, 0x1f, 0xa3, 0xbe, 0x18, 0x6c, 0x08, 0xbf,
  0x01, 0x1b, 0x43, 0x3d, 0xa2, 0x48, 0x57, 0xbe, 0x38, 0xac, 0xb2, 0x3d,
  0x71, 0x08, 0xcc, 0xbe, 0x6c, 0x40, 0x6f, 0xbe, 0x1c, 0xad, 0x6e, 0xbc,
  0x17, 0xab, 0x8f, 0xbe, 0x32, 0x38, 0x2c, 0xbe, 0x43, 0xc3, 0xb3, 0x3e,
  0x47, 0x7d, 0x4d, 0x3e, 0x58, 0xda, 0xae, 0xbd, 0x07, 0xfa, 0x28, 0xbc,
  0x7c, 0xa3, 0xd9, 0x3d, 0x92, 0x70, 0xa2, 0xbe, 0x78, 0x0f, 0xa9, 0xbc,
  0xce, 0x95, 0x94, 0xbe, 0x90, 0x33, 0x0a, 0xbf, 0xd9, 0x2e, 0x4b, 0xbd,
  0x9a, 0xaf, 0xdb, 0x3e, 0x56, 0xf9, 0xd8, 0xbe, 0x98, 0x93, 0xe1, 0xbe,
  0x4b, 0x26, 0x71, 0xbe, 0xef, 0x15, 0x20, 0x3c, 0xce, 0x44, 0x44, 0xbe,
  0x00, 0x43, 0x52, 0x3e, 0x61, 0x17, 0x3f, 0x3e, 0x8d, 0x4d, 0x2c, 0xb9,
  0x11, 0xd6, 0x22, 0x3d, 0xc6, 0xd9, 0xaf, 0xbd, 0xbf, 0x4b, 0xd2, 0xbe,
  0x54, 0x1a, 0x83, 0xbe, 0xb6, 0x2a, 0x10, 0xbe, 0x1a, 0x0f, 0x4f, 0xbd,
  0xa4, 0x40, 0xa7, 0x3e, 0xa8, 0x1f, 0x38, 0x3d, 0x87, 0x94, 0x36, 0x3e,
  0x3f, 0x1e, 0x39, 0xbe, 0xc2, 0xac, 0x05, 0x3e, 0xbf, 0x0e, 0xe3, 0x3e,
  0xb4, 0x75, 0xa9, 0x3e, 0x31, 0x4a, 0x83, 0x3e, 0xe2, 0x77, 0xa5, 0xbc,
  0xc5, 0xf1, 0x81, 0xbd, 0xef, 0xac, 0x9d, 0x3d, 0xea, 0x0a, 0x9e, 0x3e,
  0xb5, 0x29, 0x48, 0x3d, 0xce, 0xf7, 0x93, 0x3c, 0x25, 0xe2, 0x56, 0xbc,
  0x85, 0x04, 0x27, 0x3e, 0x8f, 0x23, 0x61, 0xbe, 0x4a, 0xc4, 0x8b, 0xbd,
  0x95, 0x0d, 0x91, 0xbd, 0x43, 0xd3, 0xaa, 0x3d, 0xd2, 0xa5, 0xfd, 0xbc,
  0x16, 0x68, 0x67, 0xbc, 0x78, 0x76, 0x29, 0xbe, 0xfc, 0xe4, 0x95, 0xbe,
  0x14, 0xb1, 0xc8, 0x3d, 0x3b, 0xe3, 0xde, 0xbd, 0x6b, 0xae, 0x0b, 0xbe,
  0xe3, 0xc1, 0x1d, 0x3d, 0x07, 0xab, 0x56, 0xbd, 0x49, 0x73, 0xc3, 0x3d,
  0xba, 0x1b, 0x43, 0xbd, 0x04, 0x60, 0x9e, 0x3c, 0xd4, 0xac, 0xd1, 0x3c,
  0x34, 0x91, 0x51, 0xbe, 0x8f, 0x7d, 0x62, 0xbe, 0xd1, 0x24, 0xa3, 0xbd,
  0xa8, 0xd4, 0x4a, 0xbe, 0x08, 0xde, 0x0a, 0xbc, 0xcd, 0xa8, 0xb9, 0x3d,
  0xe3, 0x10, 0x15, 0x3d, 0x52, 0x77, 0x39, 0xbe, 0x51, 0x3e, 0xa0, 0xbe,
  0x01, 0x92, 0xb1, 0x3c, 0x7b, 0x18, 0xfe, 0xbd, 0x09, 0xa2, 0x81, 0x3d,
  0x63, 0xfa, 0xa7, 0xbc, 0x84, 0xd1, 0x46, 0xbe, 0x6d, 0xcc, 0x77, 0xbc,
  0xca, 0xc7, 0x1c, 0xbe, 0x20, 0x10, 0x1d, 0xbe, 0x83, 0x42, 0x32, 0xbe,
  0x53, 0x6c, 0x22, 0x3e, 0xf0, 0xfd, 0x9f, 0xbd, 0xe9, 0xfe, 0x9e, 0xbd,
  0x89, 0xde, 0x1a, 0xbe, 0x07, 0xc6, 0x5c, 0xbe, 0x96, 0x6a, 0x26, 0x3e,
  0x42, 0xa8, 0xe2, 0xbd, 0x12, 0xdc, 0x72, 0x3d, 0x52, 0x39, 0x6d, 0xbe,
  0xb3, 0xb5, 0x55, 0xbe, 0x16, 0xec, 0x75, 0xbd, 0xa8, 0x48, 0x28, 0xbe,
  0x09, 0x6d, 0x8e, 0xbc, 0x1f, 0x9c, 0x4d, 0xbe, 0x6a, 0xe4, 0x59, 0xbe,
  0x06, 0x6f, 0x11, 0xbe, 0xe8, 0x4b, 0x1d, 0xbe, 0x32, 0x06, 0x29, 0x3e,
  0x74, 0x3e, 0xf2, 0x3d, 0x24, 0x24, 0xd5, 0xbc, 0x78, 0x51, 0xae, 0x3c,
  0x86, 0xfe, 0x4d, 0xbe, 0x67, 0x41, 0x2a, 0xbe, 0x96, 0xa6, 0x88, 0xbe,
  0x11, 0xea, 0x1a, 0x3e, 0x19, 0x4d, 0xff, 0xbd, 0xaf, 0x03, 0xab, 0x3b,
  0x6e, 0x3f, 0xea, 0x3d, 0xd5, 0x80, 0x44, 0xbd, 0x9d, 0x28, 0x19, 0xbe,
  0xcc, 0xf3, 0x70, 0xbe, 0x86, 0x26, 0x28, 0xbb, 0x58, 0x3b, 0x8f, 0xbd,
  0xbc, 0x87, 0x05, 0x3e, 0x3c, 0xa4, 0x00, 0xbe, 0xf6, 0x7e, 0x63, 0xbe,
  0x6a, 0x15, 0xfc, 0x3c, 0xfc, 0xa4, 0x32, 0xbd, 0xc6, 0x61, 0xaf, 0xbe,
  0xeb, 0x2b, 0x1a, 0xbe, 0xeb, 0x01, 0x71, 0xbe, 0x49, 0x49, 0x7f, 0xbe,
  0x19, 0x3b, 0x59, 0xbd, 0x87, 0xe3, 0xdd, 0x3d, 0x97, 0x22, 0xb6, 0x3d,
  0x4a, 0x9b, 0x31, 0xbe, 0xe4, 0xcc, 0x34, 0x3e, 0x44, 0xb7, 0x46, 0xbd,
  0xfe, 0xd3, 0xcb, 0xbc, 0x3e, 0x72, 0x66, 0xbe, 0x16, 0x7a, 0x25, 0xbe,
  0x80, 0xb3, 0x1e, 0xbe, 0xe1, 0x05, 0x11, 0x3e, 0xcd, 0x88, 0x66, 0xbe,
  0x91, 0x62, 0x6b, 0xbe, 0x09, 0xd8, 0xfb, 0x3d, 0x40, 0x02, 0x4d, 0x3d,
  0x06, 0xaf, 0x22, 0x3d, 0xda, 0x59, 0xa1, 0x3c, 0x6f, 0xfb, 0x88, 0x3d,
  0x1d, 0xd3, 0x9f, 0xbd, 0x0d, 0x5b, 0x3c, 0xbe, 0xf5, 0x28, 0xbc, 0x3d,
  0xc5, 0x85, 0x3d, 0xbd, 0xa2, 0x0d, 0xdc, 0xbc, 0x80, 0x20, 0x2c, 0xbe,
  0x9c, 0x6f, 0xc5, 0xbd, 0x29, 0xb8, 0x0f, 0x3d, 0x45, 0xcd, 0x6d, 0x3c,
  0x2a, 0xe5, 0x57, 0x3d, 0x6b, 0xe7, 0xe0, 0xbd, 0x51, 0x70, 0xf6, 0x3d,
  0x26, 0x4a, 0x01, 0xbe, 0x0f, 0x94, 0x00, 0x3d, 0x1e, 0x2d, 0xbb, 0xbd,
  0xb5, 0x68, 0x7b, 0xbd, 0xa0, 0xe6, 0xa5, 0xbd, 0x29, 0x1b, 0x4e, 0xbd,
  0x45, 0xe8, 0x0e, 0x3e, 0x7a, 0x34, 0x26, 0xbe, 0xe9, 0xd8, 0xc2, 0xbd,
  0xed, 0x3d, 0xce, 0x3d, 0x37, 0x48, 0x8b, 0x3d, 0xcf, 0xd7, 0x02, 0x3e,
  0x02, 0x62, 0xa7, 0xbe, 0x8c, 0xdc, 0xc1, 0xbd, 0xfd, 0x3f, 0x25, 0xbd,
  0xc7, 0x02, 0xc1, 0xbc, 0xb9, 0x5e, 0x32, 0x3d, 0x16, 0x0e, 0x80, 0xbe,
  0x67, 0xeb, 0x0c, 0xbe, 0x27, 0xfe, 0xe4, 0x3d, 0xfa, 0x0b, 0x0f, 0xbc,
  0x30, 0x73, 0x25, 0xbe, 0x7f, 0x1b, 0x61, 0x3e, 0x70, 0x0b, 0x18, 0xbe,
  0x23, 0x8d, 0x13, 0xbe, 0xb8, 0x1c, 0x9b, 0xbe, 0xde, 0x74, 0x58, 0x3d,
  0x8c, 0xb3, 0xe7, 0xbe, 0x98, 0x4d, 0x85, 0xbe, 0xb1, 0x8e, 0xa1, 0x3e,
  0x4a, 0xd8, 0xb4, 0xbd, 0xd3, 0x4f, 0xd1, 0x3e, 0x99, 0x63, 0xe5, 0xbd,
  0x7a, 0x27, 0x6e, 0x3e, 0x3e, 0xce, 0x9c, 0x3e, 0x24, 0xe6, 0x4f, 0x3e,
  0xec, 0xaa, 0xc6, 0xbc, 0x16, 0x78, 0x34, 0xbe, 0x9d, 0xf9, 0xb5, 0xbd,
  0xec, 0xee, 0x7b, 0xbe, 0x49, 0x50, 0xc6, 0xbd, 0x37, 0xbc, 0x00, 0x3d,
  0xb2, 0xfe, 0xe1, 0x3d, 0xd4, 0xcb, 0x06, 0xbe, 0x3e, 0x4b, 0x30, 0xbe,
  0x33, 0x3b, 0xe9, 0x3d, 0x1d, 0x94, 0xe6, 0xbc, 0xa9, 0x45, 0xc7, 0x3e,
  0x52, 0xe6, 0x41, 0xbd, 0xbe, 0x70, 0x34, 0xbd, 0x4d, 0xac, 0xd5, 0x3e,
  0x68, 0x07, 0xdf, 0x3e, 0xfd, 0xaa, 0x58, 0x3e, 0xcc, 0x1e, 0x03, 0xbc,
  0xd1, 0x9c, 0x14, 0xbe, 0xfb, 0xe8, 0x53, 0xbc, 0x5a, 0x1c, 0x80, 0xbd,
  0x54, 0x75, 0x43, 0x3d, 0x5e, 0xe9, 0x32, 0x3c, 0xad, 0xa6, 0x32, 0xbe,
  0x5b, 0xb6, 0x0c, 0x3e, 0xce, 0x0c, 0x4b, 0x3d, 0x16, 0x3a, 0x48, 0xbe,
  0x14, 0x8f, 0x33, 0x3d, 0x72, 0xf6, 0xd7, 0xbd, 0x83, 0x6a, 0x33, 0xbd,
  0xe7, 0xb5, 0xa3, 0x3e, 0x2a, 0x0e, 0x99, 0x3e, 0x32, 0x37, 0xfe, 0x3d,
  0xd5, 0xfd, 0x31, 0x3e, 0x17, 0x94, 0xcc, 0xbc, 0x60, 0x69, 0x31, 0xbe,
  0xeb, 0x0e, 0xd7, 0xbd, 0x98, 0xf2, 0x71, 0x3e, 0x4a, 0xdb, 0x39, 0x3e,
  0x99, 0xda, 0x55, 0xbd, 0xf8, 0xe5, 0xde, 0xbc, 0xea, 0xf6, 0xb9, 0xbc,
  0x4e, 0xce, 0xc6, 0xbe, 0x6b, 0x17, 0xda, 0x3e, 0x72, 0x62, 0xde, 0xbd,
  0x01, 0x88, 0x9d, 0xbc, 0x56, 0xb7, 0x14, 0x3e, 0x30, 0xcc, 0xa7, 0x3d,
  0xfe, 0x0e, 0x34, 0xbd, 0x66, 0x6d, 0x8f, 0x3d, 0x51, 0x90, 0x9f, 0x3d,
  0x92, 0xe7, 0xa8, 0xbe, 0x64, 0x36, 0x48, 0xbe, 0xb4, 0xd5, 0x4c, 0x3e,
  0xda, 0x02, 0xff, 0x3d, 0xb2, 0x57, 0x3b, 0xbe, 0x91, 0x43, 0x07, 0xbd,
  0xd0, 0xfa, 0x42, 0xbe, 0x49, 0x4e, 0x92, 0xbe, 0xef, 0x52, 0x20, 0x3e,
  0x6f, 0x60, 0x7f, 0xbe, 0xd9, 0x0d, 0xe3, 0x3d, 0x8b, 0x0f, 0xdf, 0x3e,
  0xe5, 0x9e, 0x79, 0x3e, 0x6d, 0xad, 0x60, 0x3d, 0x29, 0x11, 0x90, 0x3e,
  0x6a, 0x65, 0x4b, 0x3d, 0xc1, 0xb7, 0x50, 0xbe, 0x9f, 0x8f, 0x13, 0xbd,
  0x1f, 0x60, 0x4d, 0xbe, 0xb7, 0xf6, 0x86, 0x3b, 0x0b, 0xeb, 0xdf, 0xbd,
  0xfa, 0xa1, 0x42, 0x3d, 0xd4, 0x5a, 0x12, 0xbe, 0x6b, 0x6a, 0x35, 0x3e,
  0x6c, 0xc6, 0x15, 0x3d, 0x93, 0x21, 0xe3, 0xbd, 0xfd, 0x4b, 0xa4, 0x3d,
  0xac, 0x9c, 0x9f, 0x3e, 0x20, 0xfe, 0x91, 0x3e, 0x27, 0xa7, 0x42, 0x3d,
  0x8f, 0x00, 0x01, 0xbd, 0xdb, 0xc9, 0xd1, 0x3e, 0x4f, 0x40, 0xaf, 0x3d,
  0xa0, 0xad, 0x5b, 0xbc, 0x6e, 0x70, 0xe8, 0xbc, 0x84, 0xda, 0x01, 0xbe,
  0x3d, 0x42, 0xe0, 0xbd, 0x13, 0x02, 0x2a, 0xbe, 0xc0, 0xc3, 0x69, 0xbe,
  0x16, 0x71, 0x9c, 0xbd, 0x0c, 0xef, 0x1e, 0xbe, 0x02, 0x37, 0x68, 0x3e,
  0x38, 0x59, 0x08, 0xbe, 0x36, 0x38, 0x81, 0x3e, 0x38, 0x88, 0x7f, 0x3e,
  0x63, 0x04, 0x85, 0xbe, 0x9a, 0x72, 0xee, 0x3c, 0xb7, 0x1a, 0xb9, 0x3e,
  0xc5, 0xb9, 0x2c, 0xbe, 0x2f, 0x15, 0xca, 0x3d, 0xf9, 0xc2, 0x03, 0xbe,
  0xa2, 0x40, 0x68, 0xbe, 0x63, 0x9c, 0xe8, 0xbd, 0x39, 0x07, 0xbc, 0xbd,
  0xa3, 0x77, 0x98, 0x3e, 0x8c, 0x12, 0x4e, 0xbe, 0xb3, 0x12, 0x6c, 0x3e,
  0x04, 0x25, 0x5a, 0x3e, 0x4f, 0xe8, 0x91, 0xbe, 0x1f, 0x8b, 0x9f, 0x3d,
  0x9a, 0xd0, 0x9e, 0xbd, 0xaf, 0x54, 0xae, 0xbb, 0x92, 0x52, 0x61, 0xbe,
  0xfe, 0x4d, 0x28, 0x3e, 0x29, 0x00, 0xac, 0xbd, 0xfe, 0x84, 0x70, 0xbd,
  0x2d, 0xb6, 0xfa, 0xbd, 0x27, 0x9d, 0xc1, 0x3d, 0xea, 0x55, 0xde, 0xbd,
  0x0c, 0x5d, 0x08, 0x3e, 0xeb, 0xb5, 0xf3, 0xbd, 0x11, 0x00, 0x05, 0xbe,
  0xea, 0xef, 0xe6, 0x3d, 0x8a, 0x35, 0xc6, 0xbd, 0x06, 0xfc, 0xd2, 0xbd,
  0xe8, 0xd6, 0x22, 0xbe, 0xe5, 0x8c, 0x4d, 0xbc, 0xa1, 0xfc, 0x8f, 0x3d,
  0x82, 0x64, 0x04, 0x3e, 0x25, 0xcf, 0x74, 0x3e, 0x5f, 0xcb, 0xc9, 0xbd,
  0xdd, 0x02, 0x37, 0xbe, 0xc4, 0x3e, 0x5a, 0xbe, 0x6b, 0x76, 0x0f, 0xbe,
  0x7b, 0x8f, 0xe4, 0xbd, 0xec, 0xb9, 0xf2, 0xbd, 0x4e, 0xbf, 0xdf, 0x3d,
  0xe6, 0x85, 0x51, 0xbe, 0xa9, 0xf2, 0x8f, 0x3d, 0xd6, 0xa5, 0xab, 0x3d,
  0xba, 0xf0, 0x5e, 0xbd, 0x1c, 0x2f, 0xb0, 0xbc, 0xfd, 0xbe, 0x37, 0x3e,
  0x6f, 0x49, 0x15, 0x3e, 0x72, 0x24, 0x12, 0xbe, 0xa2, 0x59, 0x06, 0x3e,
  0x3d, 0xb0, 0xe8, 0x3d, 0x6c, 0x04, 0x12, 0xbe, 0x1d, 0x5c, 0x9a, 0xbd,
  0x30, 0x8b, 0x4d, 0xbe, 0xf4, 0xbf, 0x95, 0xbd, 0xef, 0x83, 0x90, 0xbd,
  0xdd, 0x57, 0xd6, 0x3d, 0x04, 0x97, 0x24, 0xbe, 0xbc, 0x1f, 0x5d, 0x3e,
  0x80, 0x9a, 0x79, 0x3c, 0xd9, 0xa1, 0xf1, 0xbd, 0xec, 0x11, 0xe1, 0xbd,
  0xa6, 0xc0, 0x2f, 0xbe, 0xce, 0x94, 0x0d, 0xbe, 0xde, 0x2b, 0xbb, 0xbd,
  0x81, 0x90, 0x87, 0x3e, 0x55, 0x64, 0x9a, 0xba, 0xac, 0xbf, 0x3e, 0xbe,
  0x71, 0xa0, 0x52, 0xbe, 0x6e, 0xa8, 0xbb, 0xbd, 0xc7, 0x70, 0x06, 0xbe,
  0xaf, 0xac, 0xf5, 0xbd, 0x06, 0xf0, 0x98, 0x3d, 0x5b, 0x82, 0xf3, 0xbc,
  0xcd, 0xed, 0x9e, 0x3d, 0x50, 0x2a, 0xd0, 0xbd, 0xc4, 0xa5, 0x1c, 0xbc,
  0xfe, 0x1e, 0xe1, 0x3d, 0xfb, 0x81, 0x1f, 0xbe, 0xac, 0x55, 0xa5, 0xbd,
  0xab, 0x46, 0x0a, 0xbe, 0x2d, 0x98, 0xc7, 0x3d, 0x7c, 0xcc, 0xd0, 0xbd,
  0x14, 0x53, 0x2e, 0xbc, 0xdb, 0x27, 0x5f, 0xbe, 0xd2, 0x39, 0x4b, 0xbd,
  0x7a, 0x43, 0x75, 0xbe, 0x74, 0x65, 0xe2, 0x3d, 0x79, 0xb4, 0xd4, 0xbd,
  0xbd, 0x38, 0xee, 0x3a, 0x03, 0xc6, 0x85, 0xbc, 0x12, 0x72, 0x09, 0x3d,
  0x42, 0xee, 0x53, 0xbd, 0x23, 0xb9, 0x43, 0x3d, 0x7f, 0x8b, 0x6c, 0xbe,
  0xd3, 0xe0, 0xd8, 0xbd, 0xdc, 0x9d, 0x19, 0xbe, 0xf7, 0x2a, 0xd9, 0x3d,
  0xa6, 0xbd, 0x96, 0xbd, 0xbf, 0x6a, 0x31, 0xbd, 0xeb, 0x3c, 0xed, 0xbd,
  0x1f, 0x02, 0xac, 0xbd, 0xac, 0x40, 0xb9, 0xbd, 0x95, 0xbd, 0xd9, 0x3c,
  0x81, 0xf4, 0xd2, 0xbd, 0x90, 0x29, 0xf2, 0xbd, 0x54, 0x60, 0xcb, 0xbd,
  0xfd, 0xe6, 0x93, 0x3d, 0x52, 0xf0, 0xbc, 0x3c, 0x87, 0xab, 0xad, 0xbb,
  0x94, 0xfb, 0x33, 0x3d, 0x44, 0x3e, 0xb5, 0x3d, 0x1f, 0x27, 0x5d, 0x3d,
  0x85, 0xd9, 0x21, 0xbe, 0x58, 0xb2, 0x04, 0xbd, 0x86, 0x28, 0xc5, 0xbd,
  0x72, 0x75, 0x29, 0xbe, 0xec, 0x5f, 0x1b, 0xbe, 0x24, 0xbd, 0x81, 0xbe,
  0x24, 0x2d, 0x66, 0x3d, 0x90, 0x84, 0x1f, 0xbe, 0x5e, 0xfd, 0x31, 0xbe,
  0x75, 0x3e, 0x69, 0xbe, 0xec, 0x3a, 0x96, 0xba, 0xb5, 0x31, 0xe5, 0xbd,
  0x45, 0x3f, 0x83, 0xbe, 0x6b, 0x19, 0x96, 0x3b, 0xd4, 0xbe, 0x31, 0x3d,
  0x15, 0x17, 0x96, 0xbd, 0x3a, 0x1f, 0x19, 0x3e, 0x74, 0x52, 0x2b, 0xbe,
  0xd5, 0xd2, 0x31, 0x3e, 0x9a, 0x03, 0x59, 0xbe, 0x62, 0x24, 0x74, 0xbe,
  0x49, 0xbb, 0x1d, 0x3d, 0x1f, 0xf7, 0xc0, 0xbc, 0xb1, 0x28, 0x0f, 0x3d,
  0x80, 0xa6, 0x29, 0xbe, 0x05, 0x05, 0x05, 0xbd, 0xa9, 0x23, 0xf3, 0xbd,
  0x93, 0xa7, 0x9c, 0xbd, 0xab, 0xf5, 0xf1, 0x3d, 0x72, 0x4d, 0xd5, 0xb9,
  0x66, 0x07, 0xc3, 0x3d, 0xb7, 0x92, 0x1f, 0x3d, 0x5f, 0xb4, 0xea, 0x3d,
  0x1b, 0x21, 0x4f, 0xbc, 0x46, 0xd0, 0xa1, 0xbc, 0xb1, 0x58, 0xab, 0x3d,
  0x39, 0xd8, 0xdc, 0x3d, 0xc2, 0xfd, 0x55, 0x3b, 0x1d, 0x09, 0x85, 0xbc,
  0x73, 0x92, 0xe7, 0xbd, 0xcc, 0x28, 0x46, 0xbe, 0x31, 0xaf, 0x99, 0xbe,
  0x6d, 0x87, 0x20, 0x3e, 0x54, 0x2c, 0xed, 0xbd, 0xd1, 0x18, 0x02, 0x3e,
  0x8d, 0x1a, 0xf7, 0xbc, 0x6d, 0x7c, 0x15, 0x3e, 0xce, 0x72, 0x22, 0xbe,
  0x61, 0x84, 0xdf, 0x3d, 0x88, 0x3e, 0xaa, 0x3d, 0x2b, 0x54, 0x88, 0xbe,
  0xc4, 0x3d, 0x2f, 0xbe, 0xb5, 0xa7, 0xbc, 0x3d, 0x70, 0x0b, 0xa9, 0x3d,
  0x4b, 0x28, 0xa5, 0xbd, 0x09, 0x49, 0x42, 0xbe, 0xad, 0x4d, 0x43, 0xbe,
  0xde, 0x07, 0xe9, 0xbd, 0x34, 0x60, 0x35, 0xbd, 0xe0, 0x27, 0xf1, 0xbd,
  0x87, 0x5d, 0xec, 0xbd, 0xa6, 0x97, 0x22, 0x3e, 0x8b, 0x05, 0xa9, 0xbd,
  0x23, 0x3d, 0xae, 0xbc, 0x4d, 0xa4, 0x1d, 0xbb, 0xb2, 0x0d, 0x46, 0xbe,
  0x60, 0xe7, 0x4a, 0xbc, 0xf1, 0xa1, 0x0d, 0xbe, 0x94, 0xa5, 0x98, 0x3d,
  0x08, 0x5b, 0xa5, 0x3d, 0x03, 0x85, 0x42, 0x3d, 0x78, 0xa8, 0xa3, 0xbd,
  0xb7, 0xc1, 0xb9, 0xbe, 0xa4, 0x3d, 0x16, 0xbe, 0xb4, 0x28, 0x8a, 0xbd,
  0x56, 0xfc, 0xb5, 0xbd, 0x76, 0x6e, 0x42, 0xbe, 0xf3, 0xeb, 0xb5, 0x3d,
  0x00, 0x1f, 0x95, 0xbd, 0x63, 0x52, 0x6b, 0xbe, 0xc5, 0xa5, 0xa9, 0xbd,
  0x84, 0xe2, 0x24, 0xbd, 0xa7, 0xf7, 0x7c, 0xbe, 0x96, 0x41, 0x38, 0xbe,
  0xac, 0xf6, 0x49, 0x3e, 0x88, 0xcb, 0x58, 0x3d, 0x1b, 0xd3, 0xd2, 0xbd,
  0xcd, 0x1e, 0xbd, 0xbc, 0x57, 0x8d, 0x01, 0xbe, 0x6d, 0xbd, 0x17, 0xbe,
  0xc9, 0xd9, 0x2a, 0x3e, 0xb1, 0x3a, 0xc1, 0xbd, 0x4f, 0x9f, 0x69, 0xbe,
  0xab, 0x23, 0x6f, 0xbe, 0x18, 0x18, 0x4c, 0x3d, 0x41, 0x3f, 0x54, 0xbe,
  0x7d, 0xfa, 0xf4, 0xbd, 0x77, 0xfc, 0x0f, 0xbe, 0x36, 0x57, 0xcc, 0xbb,
  0x32, 0xf0, 0xe8, 0xbd, 0xfd, 0x3f, 0x9a, 0x3d, 0x13, 0x13, 0xa9, 0xbd,
  0xb2, 0x3f, 0x11, 0xbc, 0x9c, 0xc5, 0xa0, 0x3d, 0x0b, 0xde, 0x44, 0xbe,
  0xe4, 0x2a, 0xb1, 0xbd, 0x46, 0xff, 0xf8, 0xbd, 0xf6, 0x1b, 0x33, 0xbe,
  0x2d, 0xf3, 0x3b, 0x3e, 0x4e, 0xfe, 0xff, 0xff, 0x10, 0x00, 0x00, 0x00,
  0x05, 0x00, 0x00, 0x00, 0x14, 0x00, 0x00, 0x00, 0x2c, 0x00, 0x00, 0x00,
  0x02, 0x00, 0x00, 0x00, 0x10, 0x00, 0x00, 0x00, 0x70, 0x00, 0x00, 0x00,
  0x17, 0x00, 0x00, 0x00, 0x73, 0x65, 0x71, 0x75, 0x65, 0x6e, 0x74, 0x69,
  0x61, 0x6c, 0x2f, 0x64, 0x65, 0x6e, 0x73, 0x65, 0x2f, 0x4d, 0x61, 0x74,
  0x4d, 0x75, 0x6c, 0x00, 0x3c, 0xfe, 0xff, 0xff, 0x32, 0xff, 0xff, 0xff,
  0x04, 0x00, 0x00, 0x00, 0x08, 0x00, 0x00, 0x00, 0xff, 0xff, 0xff, 0xff,
  0x70, 0x00, 0x00, 0x00, 0x00, 0x00, 0x0e, 0x00, 0x18, 0x00, 0x08, 0x00,
  0x07, 0x00, 0x0c, 0x00, 0x10, 0x00, 0x14, 0x00, 0x0e, 0x00, 0x00, 0x00,
  0x00, 0x00, 0x00, 0x02, 0x10, 0x00, 0x00, 0x00, 0x04, 0x00, 0x00, 0x00,
  0x10, 0x00, 0x00, 0x00, 0x2c, 0x00, 0x00, 0x00, 0x01, 0x00, 0x00, 0x00,
  0x02, 0x00, 0x00, 0x00, 0x18, 0x00, 0x00, 0x00, 0x73, 0x65, 0x71, 0x75,
  0x65, 0x6e, 0x74, 0x69, 0x61, 0x6c, 0x2f, 0x66, 0x6c, 0x61, 0x74, 0x74,
  0x65, 0x6e, 0x2f, 0x43, 0x6f, 0x6e, 0x73, 0x74, 0x00, 0x00, 0x00, 0x00,
  0xa4, 0xfe, 0xff, 0xff, 0x9a, 0xff, 0xff, 0xff, 0x04, 0x00, 0x00, 0x00,
  0x08, 0x00, 0x00, 0x00, 0x48, 0x4e, 0x63, 0xbf, 0xbe, 0x4d, 0x63, 0x3f,
  0x0a, 0xff, 0xff, 0xff, 0x10, 0x00, 0x00, 0x00, 0x03, 0x00, 0x00, 0x00,
  0x10, 0x00, 0x00, 0x00, 0x3c, 0x00, 0x00, 0x00, 0x01, 0x00, 0x00, 0x00,
  0x02, 0x00, 0x00, 0x00, 0x29, 0x00, 0x00, 0x00, 0x73, 0x65, 0x71, 0x75,
  0x65, 0x6e, 0x74, 0x69, 0x61, 0x6c, 0x2f, 0x64, 0x65, 0x6e, 0x73, 0x65,
  0x5f, 0x31, 0x2f, 0x42, 0x69, 0x61, 0x73, 0x41, 0x64, 0x64, 0x2f, 0x52,
  0x65, 0x61, 0x64, 0x56, 0x61, 0x72, 0x69, 0x61, 0x62, 0x6c, 0x65, 0x4f,
  0x70, 0x00, 0x00, 0x00, 0x60, 0xff, 0xff, 0xff, 0x00, 0x00, 0x06, 0x00,
  0x08, 0x00, 0x04, 0x00, 0x06, 0x00, 0x00, 0x00, 0x04, 0x00, 0x00, 0x00,
  0x40, 0x00, 0x00, 0x00, 0xf1, 0xdf, 0x3d, 0xbe, 0x13, 0x86, 0x35, 0xbe,
  0x33, 0x7e, 0x64, 0xbd, 0x12, 0x5c, 0x1a, 0xbe, 0x81, 0xbd, 0x80, 0xbe,
  0xcf, 0x00, 0x07, 0xc0, 0xac, 0x71, 0xea, 0xbf, 0xd8, 0x5e, 0xe1, 0xbf,
  0xb6, 0x1e, 0xb9, 0xbf, 0x23, 0x6c, 0x46, 0xbf, 0x07, 0xcd, 0x30, 0xbe,
  0xf7, 0x55, 0xfb, 0xbf, 0xbe, 0x9f, 0x82, 0xbe, 0x8e, 0x67, 0x62, 0x3c,
  0x33, 0xc4, 0x53, 0xbe, 0xac, 0x4b, 0x88, 0xbe, 0xae, 0xff, 0xff, 0xff,
  0x10, 0x00, 0x00, 0x00, 0x02, 0x00, 0x00, 0x00, 0x10, 0x00, 0x00, 0x00,
  0x3c, 0x00, 0x00, 0x00, 0x01, 0x00, 0x00, 0x00, 0x10, 0x00, 0x00, 0x00,
  0x27, 0x00, 0x00, 0x00, 0x73, 0x65, 0x71, 0x75, 0x65, 0x6e, 0x74, 0x69,
  0x61, 0x6c, 0x2f, 0x64, 0x65, 0x6e, 0x73, 0x65, 0x2f, 0x42, 0x69, 0x61,
  0x73, 0x41, 0x64, 0x64, 0x2f, 0x52, 0x65, 0x61, 0x64, 0x56, 0x61, 0x72,
  0x69, 0x61, 0x62, 0x6c, 0x65, 0x4f, 0x70, 0x00, 0x04, 0x00, 0x06, 0x00,
  0x04, 0x00, 0x00, 0x00, 0x00, 0x00, 0x0e, 0x00, 0x14, 0x00, 0x04, 0x00,
  0x00, 0x00, 0x08, 0x00, 0x0c, 0x00, 0x10, 0x00, 0x0e, 0x00, 0x00, 0x00,
  0x10, 0x00, 0x00, 0x00, 0x01, 0x00, 0x00, 0x00, 0x1c, 0x00, 0x00, 0x00,
  0x2c, 0x00, 0x00, 0x00, 0x04, 0x00, 0x00, 0x00, 0x01, 0x00, 0x00, 0x00,
  0x40, 0x00, 0x00, 0x00, 0x03, 0x00, 0x00, 0x00, 0x01, 0x00, 0x00, 0x00,
  0x0c, 0x00, 0x00, 0x00, 0x63, 0x6f, 0x6e, 0x76, 0x32, 0x64, 0x5f, 0x69,
  0x6e, 0x70, 0x75, 0x74, 0x00, 0x00, 0x00, 0x00, 0xfc, 0xff, 0xff, 0xff,
  0x04, 0x00, 0x04, 0x00, 0x04, 0x00, 0x00, 0x00
};
unsigned int _content_mbed_lab7_model_model_tflite_len = 12248;

