#include "magic_wand_model_data.h"

// We need to keep the data array aligned on some architectures.
#ifdef __has_attribute
#define HAVE_ATTRIBUTE(x) __has_attribute(x)
#else
#define HAVE_ATTRIBUTE(x) 0
#endif
#if HAVE_ATTRIBUTE(aligned) || (defined(__GNUC__) && !defined(__clang__))
#define DATA_ALIGN_ATTRIBUTE __attribute__((aligned(4)))
#else
#define DATA_ALIGN_ATTRIBUTE
#endif

const unsigned char g_magic_wand_model_data[] DATA_ALIGN_ATTRIBUTE = {
  0x08, 0x00, 0x00, 0x00, 0x54, 0x46, 0x4c, 0x33, 0x62, 0xff, 0xff, 0xff,
  0x03, 0x00, 0x00, 0x00, 0x10, 0x00, 0x00, 0x00, 0x24, 0x00, 0x00, 0x00,
  0x78, 0x00, 0x00, 0x00, 0x24, 0x00, 0x00, 0x00, 0x05, 0x00, 0x00, 0x00,
  0x78, 0x05, 0x00, 0x00, 0xb0, 0x04, 0x00, 0x00, 0xe0, 0x02, 0x00, 0x00,
  0x60, 0x02, 0x00, 0x00, 0x54, 0x01, 0x00, 0x00, 0x01, 0x00, 0x00, 0x00,
  0x78, 0x00, 0x00, 0x00, 0x13, 0x00, 0x00, 0x00, 0xd4, 0x2f, 0x00, 0x00,
  0xd0, 0x2f, 0x00, 0x00, 0xdc, 0x2e, 0x00, 0x00, 0x68, 0x2e, 0x00, 0x00,
  0xfc, 0x2d, 0x00, 0x00, 0xac, 0x11, 0x00, 0x00, 0x98, 0x10, 0x00, 0x00,
  0xbc, 0x0e, 0x00, 0x00, 0x60, 0x06, 0x00, 0x00, 0xfc, 0x05, 0x00, 0x00,
  0x78, 0x05, 0x00, 0x00, 0xa8, 0x2f, 0x00, 0x00, 0xa4, 0x2f, 0x00, 0x00,
  0xa0, 0x2f, 0x00, 0x00, 0x9c, 0x2f, 0x00, 0x00, 0x98, 0x2f, 0x00, 0x00,
  0x94, 0x2f, 0x00, 0x00, 0x90, 0x2f, 0x00, 0x00, 0x8c, 0x2f, 0x00, 0x00,
  0x0f, 0x00, 0x00, 0x00, 0x4d, 0x4c, 0x49, 0x52, 0x20, 0x43, 0x6f, 0x6e,
  0x76, 0x65, 0x72, 0x74, 0x65, 0x64, 0x2e, 0x00, 0x00, 0x00, 0x0e, 0x00,
  0x18, 0x00, 0x04, 0x00, 0x08, 0x00, 0x0c, 0x00, 0x10, 0x00, 0x14, 0x00,
  0x0e, 0x00, 0x00, 0x00, 0x14, 0x00, 0x00, 0x00, 0x5c, 0x00, 0x00, 0x00,
  0x60, 0x00, 0x00, 0x00, 0x64, 0x00, 0x00, 0x00, 0x84, 0x00, 0x00, 0x00,
  0x12, 0x00, 0x00, 0x00, 0x04, 0x2f, 0x00, 0x00, 0xa0, 0x2e, 0x00, 0x00,
  0xf8, 0x2d, 0x00, 0x00, 0x98, 0x2d, 0x00, 0x00, 0x30, 0x2d, 0x00, 0x00,
  0xdc, 0x10, 0x00, 0x00, 0xc0, 0x0f, 0x00, 0x00, 0xe4, 0x0d, 0x00, 0x00,
  0xa0, 0x05, 0x00, 0x00, 0x3c, 0x05, 0x00, 0x00, 0xb0, 0x04, 0x00, 0x00,
  0xe8, 0x03, 0x00, 0x00, 0x38, 0x03, 0x00, 0x00, 0xa4, 0x02, 0x00, 0x00,
  0x10, 0x02, 0x00, 0x00, 0x90, 0x01, 0x00, 0x00, 0xfc, 0x00, 0x00, 0x00,
  0x80, 0x00, 0x00, 0x00, 0x01, 0x00, 0x00, 0x00, 0x00, 0x00, 0x00, 0x00,
  0x01, 0x00, 0x00, 0x00, 0x11, 0x00, 0x00, 0x00, 0x08, 0x00, 0x00, 0x00,
  0x1c, 0x04, 0x00, 0x00, 0x58, 0x03, 0x00, 0x00, 0xc8, 0x02, 0x00, 0x00,
  0x24, 0x02, 0x00, 0x00, 0xac, 0x01, 0x00, 0x00, 0x10, 0x01, 0x00, 0x00,
  0x94, 0x00, 0x00, 0x00, 0x10, 0x00, 0x00, 0x00, 0x04, 0x00, 0x00, 0x00,
  0x6d, 0x61, 0x69, 0x6e, 0x00, 0x00, 0x00, 0x00, 0x8e, 0xff, 0xff, 0xff,
  0x00, 0x00, 0x00, 0x09, 0x04, 0x00, 0x00, 0x00, 0x1c, 0x00, 0x00, 0x00,
  0x10, 0x00, 0x00, 0x00, 0x04, 0x00, 0x00, 0x00, 0x4e, 0xd2, 0xff, 0xff,
  0x00, 0x00, 0x80, 0x3f, 0x01, 0x00, 0x00, 0x00, 0x11, 0x00, 0x00, 0x00,
  0x01, 0x00, 0x00, 0x00, 0x10, 0x00, 0x00, 0x00, 0xf6, 0xfb, 0xff, 0xff,
  0x00, 0x00, 0x00, 0x19, 0x01, 0x00, 0x00, 0x00, 0xce, 0xd1, 0xff, 0xff,
  0x10, 0x00, 0x00, 0x00, 0x12, 0x00, 0x00, 0x00, 0x14, 0x00, 0x00, 0x00,
  0x20, 0x00, 0x00, 0x00, 0x02, 0x00, 0x00, 0x00, 0x01, 0x00, 0x00, 0x00,
  0x03, 0x00, 0x00, 0x00, 0x08, 0x00, 0x00, 0x00, 0x49, 0x64, 0x65, 0x6e,
  0x74, 0x69, 0x74, 0x79, 0x00, 0x00, 0x00, 0x00, 0x08, 0xd2, 0xff, 0xff,
  0x00, 0x00, 0x0e, 0x00, 0x18, 0x00, 0x08, 0x00, 0x0c, 0x00, 0x10, 0x00,
  0x07, 0x00, 0x14, 0x00, 0x0e, 0x00, 0x00, 0x00, 0x00, 0x00, 0x00, 0x08,
  0x03, 0x00, 0x00, 0x00, 0x18, 0x00, 0x00, 0x00, 0x0c, 0x00, 0x00, 0x00,
  0x04, 0x00, 0x00, 0x00, 0xdc, 0xd1, 0xff, 0xff, 0x01, 0x00, 0x00, 0x00,
  0x10, 0x00, 0x00, 0x00, 0x03, 0x00, 0x00, 0x00, 0x0f, 0x00, 0x00, 0x00,
  0x05, 0x00, 0x00, 0x00, 0x02, 0x00, 0x00, 0x00, 0x46, 0xd2, 0xff, 0xff,
  0x10, 0x00, 0x00, 0x00, 0x11, 0x00, 0x00, 0x00, 0x14, 0x00, 0x00, 0x00,
  0x30, 0x00, 0x00, 0x00, 0x02, 0x00, 0x00, 0x00, 0x01, 0x00, 0x00, 0x00,
  0x03, 0x00, 0x00, 0x00, 0x1a, 0x00, 0x00, 0x00, 0x73, 0x65, 0x71, 0x75,
  0x65, 0x6e, 0x74, 0x69, 0x61, 0x6c, 0x2f, 0x64, 0x65, 0x6e, 0x73, 0x65,
  0x5f, 0x31, 0x2f, 0x42, 0x69, 0x61, 0x73, 0x41, 0x64, 0x64, 0x00, 0x00,
  0x38, 0xd2, 0xff, 0xff, 0xd6, 0xfd, 0xff, 0xff, 0x00, 0x00, 0x00, 0x08,
  0x03, 0x00, 0x00, 0x00, 0x24, 0x00, 0x00, 0x00, 0x18, 0x00, 0x00, 0x00,
  0x0c, 0x00, 0x00, 0x00, 0x00, 0x00, 0x06, 0x00, 0x08, 0x00, 0x07, 0x00,
  0x06, 0x00, 0x00, 0x00, 0x00, 0x00, 0x00, 0x01, 0x01, 0x00, 0x00, 0x00,
  0x0f, 0x00, 0x00, 0x00, 0x03, 0x00, 0x00, 0x00, 0x0e, 0x00, 0x00, 0x00,
  0x04, 0x00, 0x00, 0x00, 0x01, 0x00, 0x00, 0x00, 0xfe, 0xfc, 0xff, 0xff,
  0x00, 0x00, 0x00, 0x09, 0x01, 0x00, 0x00, 0x00, 0xd6, 0xd2, 0xff, 0xff,
  0x10, 0x00, 0x00, 0x00, 0x10, 0x00, 0x00, 0x00, 0x14, 0x00, 0x00, 0x00,
  0x2c, 0x00, 0x00, 0x00, 0x02, 0x00, 0x00, 0x00, 0x01, 0x00, 0x00, 0x00,
  0x10, 0x00, 0x00, 0x00, 0x15, 0x00, 0x00, 0x00, 0x73, 0x65, 0x71, 0x75,
  0x65, 0x6e, 0x74, 0x69, 0x61, 0x6c, 0x2f, 0x64, 0x65, 0x6e, 0x73, 0x65,
  0x2f, 0x52, 0x65, 0x6c, 0x75, 0x00, 0x00, 0x00, 0x1c, 0xd3, 0xff, 0xff,
  0x00, 0x00, 0x0a, 0x00, 0x10, 0x00, 0x04, 0x00, 0x08, 0x00, 0x0c, 0x00,
  0x0a, 0x00, 0x00, 0x00, 0x02, 0x00, 0x00, 0x00, 0x10, 0x00, 0x00, 0x00,
  0x04, 0x00, 0x00, 0x00, 0x01, 0x00, 0x00, 0x00, 0x0e, 0x00, 0x00, 0x00,
  0x02, 0x00, 0x00, 0x00, 0x0d, 0x00, 0x00, 0x00, 0x03, 0x00, 0x00, 0x00,
  0x7a, 0xfd, 0xff, 0xff, 0x00, 0x00, 0x00, 0x16, 0x01, 0x00, 0x00, 0x00,
  0x52, 0xd3, 0xff, 0xff, 0x10, 0x00, 0x00, 0x00, 0x0f, 0x00, 0x00, 0x00,
  0x14, 0x00, 0x00, 0x00, 0x30, 0x00, 0x00, 0x00, 0x02, 0x00, 0x00, 0x00,
  0x01, 0x00, 0x00, 0x00, 0x70, 0x00, 0x00, 0x00, 0x1a, 0x00, 0x00, 0x00,
  0x73, 0x65, 0x71, 0x75, 0x65, 0x6e, 0x74, 0x69, 0x61, 0x6c, 0x2f, 0x66,
  0x6c, 0x61, 0x74, 0x74, 0x65, 0x6e, 0x2f, 0x52, 0x65, 0x73, 0x68, 0x61,
  0x70, 0x65, 0x00, 0x00, 0x44, 0xd3, 0xff, 0xff, 0xe2, 0xfe, 0xff, 0xff,
  0x00, 0x00, 0x00, 0x05, 0x01, 0x00, 0x00, 0x00, 0x38, 0x00, 0x00, 0x00,
  0x2c, 0x00, 0x00, 0x00, 0x14, 0x00, 0x00, 0x00, 0x00, 0x00, 0x0e, 0x00,
  0x14, 0x00, 0x00, 0x00, 0x10, 0x00, 0x0c, 0x00, 0x08, 0x00, 0x04, 0x00,
  0x0e, 0x00, 0x00, 0x00, 0x03, 0x00, 0x00, 0x00, 0x01, 0x00, 0x00, 0x00,
  0x03, 0x00, 0x00, 0x00, 0x01, 0x00, 0x00, 0x00, 0x01, 0x00, 0x00, 0x00,
  0x0d, 0x00, 0x00, 0x00, 0x01, 0x00, 0x00, 0x00, 0x0c, 0x00, 0x00, 0x00,
  0xe2, 0xd3, 0xff, 0xff, 0x10, 0x00, 0x00, 0x00, 0x0e, 0x00, 0x00, 0x00,
  0x1c, 0x00, 0x00, 0x00, 0x40, 0x00, 0x00, 0x00, 0x04, 0x00, 0x00, 0x00,
  0x01, 0x00, 0x00, 0x00, 0x07, 0x00, 0x00, 0x00, 0x01, 0x00, 0x00, 0x00,
  0x10, 0x00, 0x00, 0x00, 0x22, 0x00, 0x00, 0x00, 0x73, 0x65, 0x71, 0x75,
  0x65, 0x6e, 0x74, 0x69, 0x61, 0x6c, 0x2f, 0x6d, 0x61, 0x78, 0x5f, 0x70,
  0x6f, 0x6f, 0x6c, 0x69, 0x6e, 0x67, 0x32, 0x64, 0x5f, 0x31, 0x2f, 0x4d,
  0x61, 0x78, 0x50, 0x6f, 0x6f, 0x6c, 0x00, 0x00, 0xe4, 0xd3, 0xff, 0xff,
  0xc2, 0xfe, 0xff, 0xff, 0x00, 0x00, 0x00, 0x01, 0x24, 0x00, 0x00, 0x00,
  0x18, 0x00, 0x00, 0x00, 0x04, 0x00, 0x00, 0x00, 0xb4, 0xfe, 0xff, 0xff,
  0x01, 0x00, 0x00, 0x00, 0x01, 0x00, 0x00, 0x00, 0x00, 0x00, 0x00, 0x01,
  0x01, 0x00, 0x00, 0x00, 0x0c, 0x00, 0x00, 0x00, 0x03, 0x00, 0x00, 0x00,
  0x0b, 0x00, 0x00, 0x00, 0x07, 0x00, 0x00, 0x00, 0x09, 0x00, 0x00, 0x00,
  0x72, 0xd4, 0xff, 0xff, 0x10, 0x00, 0x00, 0x00, 0x0d, 0x00, 0x00, 0x00,
  0x1c, 0x00, 0x00, 0x00, 0x2c, 0x00, 0x00, 0x00, 0x04, 0x00, 0x00, 0x00,
  0x01, 0x00, 0x00, 0x00, 0x15, 0x00, 0x00, 0x00, 0x01, 0x00, 0x00, 0x00,
  0x10, 0x00, 0x00, 0x00, 0x0c, 0x00, 0x00, 0x00, 0x74, 0x66, 0x6c, 0x2e,
  0x63, 0x6f, 0x6e, 0x76, 0x5f, 0x32, 0x64, 0x31, 0x00, 0x00, 0x00, 0x00,
  0xb8, 0xd4, 0xff, 0xff, 0x00, 0x00, 0x0e, 0x00, 0x1a, 0x00, 0x08, 0x00,
  0x0c, 0x00, 0x10, 0x00, 0x07, 0x00, 0x14, 0x00, 0x0e, 0x00, 0x00, 0x00,
  0x00, 0x00, 0x00, 0x05, 0x01, 0x00, 0x00, 0x00, 0x3c, 0x00, 0x00, 0x00,
  0x30, 0x00, 0x00, 0x00, 0x14, 0x00, 0x00, 0x00, 0x00, 0x00, 0x0e, 0x00,
  0x18, 0x00, 0x17, 0x00, 0x10, 0x00, 0x0c, 0x00, 0x08, 0x00, 0x04, 0x00,
  0x0e, 0x00, 0x00, 0x00, 0x03, 0x00, 0x00, 0x00, 0x03, 0x00, 0x00, 0x00,
  0x03, 0x00, 0x00, 0x00, 0x03, 0x00, 0x00, 0x00, 0x00, 0x00, 0x00, 0x01,
  0x01, 0x00, 0x00, 0x00, 0x0b, 0x00, 0x00, 0x00, 0x01, 0x00, 0x00, 0x00,
  0x0a, 0x00, 0x00, 0x00, 0x46, 0xff, 0xff, 0xff, 0x00, 0x00, 0x00, 0x11,
  0x01, 0x00, 0x00, 0x00, 0x1e, 0xd5, 0xff, 0xff, 0x10, 0x00, 0x00, 0x00,
  0x0c, 0x00, 0x00, 0x00, 0x1c, 0x00, 0x00, 0x00, 0x40, 0x00, 0x00, 0x00,
  0x04, 0x00, 0x00, 0x00, 0x01, 0x00, 0x00, 0x00, 0x15, 0x00, 0x00, 0x00,
  0x01, 0x00, 0x00, 0x00, 0x08, 0x00, 0x00, 0x00, 0x20, 0x00, 0x00, 0x00,
  0x73, 0x65, 0x71, 0x75, 0x65, 0x6e, 0x74, 0x69, 0x61, 0x6c, 0x2f, 0x6d,
  0x61, 0x78, 0x5f, 0x70, 0x6f, 0x6f, 0x6c, 0x69, 0x6e, 0x67, 0x32, 0x64,
  0x2f, 0x4d, 0x61, 0x78, 0x50, 0x6f, 0x6f, 0x6c, 0x00, 0x00, 0x00, 0x00,
  0x78, 0xd5, 0xff, 0xff, 0x00, 0x00, 0x0e, 0x00, 0x14, 0x00, 0x00, 0x00,
  0x08, 0x00, 0x0c, 0x00, 0x07, 0x00, 0x10, 0x00, 0x0e, 0x00, 0x00, 0x00,
  0x00, 0x00, 0x00, 0x01, 0x30, 0x00, 0x00, 0x00, 0x24, 0x00, 0x00, 0x00,
  0x10, 0x00, 0x00, 0x00, 0x0c, 0x00, 0x10, 0x00, 0x00, 0x00, 0x04, 0x00,
  0x08, 0x00, 0x0f, 0x00, 0x0c, 0x00, 0x00, 0x00, 0x01, 0x00, 0x00, 0x00,
  0x01, 0x00, 0x00, 0x00, 0x00, 0x00, 0x00, 0x01, 0x01, 0x00, 0x00, 0x00,
  0x0a, 0x00, 0x00, 0x00, 0x03, 0x00, 0x00, 0x00, 0x00, 0x00, 0x00, 0x00,
  0x06, 0x00, 0x00, 0x00, 0x08, 0x00, 0x00, 0x00, 0x00, 0x00, 0x0a, 0x00,
  0x0c, 0x00, 0x07, 0x00, 0x00, 0x00, 0x08, 0x00, 0x0a, 0x00, 0x00, 0x00,
  0x00, 0x00, 0x00, 0x03, 0x01, 0x00, 0x00, 0x00, 0xe2, 0xd5, 0xff, 0xff,
  0x10, 0x00, 0x00, 0x00, 0x0b, 0x00, 0x00, 0x00, 0x1c, 0x00, 0x00, 0x00,
  0x28, 0x00, 0x00, 0x00, 0x04, 0x00, 0x00, 0x00, 0x01, 0x00, 0x00, 0x00,
  0x40, 0x00, 0x00, 0x00, 0x03, 0x00, 0x00, 0x00, 0x08, 0x00, 0x00, 0x00,
  0x0b, 0x00, 0x00, 0x00, 0x74, 0x66, 0x6c, 0x2e, 0x63, 0x6f, 0x6e, 0x76,
  0x5f, 0x32, 0x64, 0x00, 0xcc, 0xd5, 0xff, 0xff, 0xc2, 0xd6, 0xff, 0xff,
  0x04, 0x00, 0x00, 0x00, 0x40, 0x00, 0x00, 0x00, 0x70, 0x7a, 0xfc, 0xbe,
  0x9b, 0x9a, 0x07, 0x3c, 0xe9, 0x04, 0x12, 0xbf, 0x7b, 0xa8, 0xcc, 0xbe,
  0x6d, 0xc8, 0xe6, 0xbf, 0xd4, 0x33, 0xe7, 0x3f, 0xf8, 0xd5, 0x52, 0x3e,
  0xd4, 0x7c, 0xc8, 0xbf, 0x3d, 0x72, 0xba, 0xbc, 0xc7, 0x25, 0x0e, 0x3f,
  0x8d, 0x29, 0xeb, 0xbd, 0x7d, 0xbc, 0x00, 0x3e, 0x59, 0x13, 0x0a, 0xbe,
  0x39, 0xb0, 0xd4, 0xbd, 0x1a, 0x98, 0x8d, 0xbf, 0x1c, 0x7c, 0x65, 0xbc,
  0x6a, 0xd6, 0xff, 0xff, 0x10, 0x00, 0x00, 0x00, 0x0a, 0x00, 0x00, 0x00,
  0x10, 0x00, 0x00, 0x00, 0x20, 0x00, 0x00, 0x00, 0x01, 0x00, 0x00, 0x00,
  0x10, 0x00, 0x00, 0x00, 0x0d, 0x00, 0x00, 0x00, 0x73, 0x74, 0x64, 0x2e,
  0x63, 0x6f, 0x6e, 0x73, 0x74, 0x61, 0x6e, 0x74, 0x31, 0x00, 0x00, 0x00,
  0x4c, 0xd6, 0xff, 0xff, 0x42, 0xd7, 0xff, 0xff, 0x04, 0x00, 0x00, 0x00,
  0x20, 0x00, 0x00, 0x00, 0x93, 0xfe, 0x03, 0xc0, 0xac, 0xc5, 0xe2, 0xbe,
  0x57, 0x02, 0xf3, 0xbf, 0xbf, 0xec, 0xfa, 0xbf, 0x5e, 0x7d, 0xfd, 0xbf,
  0xf1, 0x72, 0x72, 0x3d, 0x6c, 0x41, 0xe4, 0xbf, 0x3d, 0x15, 0x87, 0xbf,
  0xca, 0xd6, 0xff, 0xff, 0x10, 0x00, 0x00, 0x00, 0x09, 0x00, 0x00, 0x00,
  0x10, 0x00, 0x00, 0x00, 0x20, 0x00, 0x00, 0x00, 0x01, 0x00, 0x00, 0x00,
  0x08, 0x00, 0x00, 0x00, 0x0c, 0x00, 0x00, 0x00, 0x73, 0x74, 0x64, 0x2e,
  0x63, 0x6f, 0x6e, 0x73, 0x74, 0x61, 0x6e, 0x74, 0x00, 0x00, 0x00, 0x00,
  0xac, 0xd6, 0xff, 0xff, 0xa2, 0xd7, 0xff, 0xff, 0x04, 0x00, 0x00, 0x00,
  0x00, 0x08, 0x00, 0x00, 0x14, 0xfd, 0x1d, 0x3f, 0x6b, 0x46, 0x03, 0xbe,
  0xe7, 0x9e, 0x5a, 0xbe, 0x48, 0x23, 0xc6, 0xbe, 0xb0, 0x81, 0x74, 0x3b,
  0x0c, 0x98, 0x73, 0x3c, 0x80, 0x92, 0x62, 0xbe, 0x58, 0xe5, 0xf7, 0xbd,
  0xe0, 0xa7, 0x0a, 0x3d, 0xea, 0x9c, 0x71, 0xbd, 0x49, 0x7e, 0x69, 0xbe,
  0x85, 0xa3, 0x41, 0xbe, 0x6a, 0x05, 0xf5, 0xbd, 0x18, 0xde, 0x6c, 0xbd,
  0xd8, 0x3c, 0x51, 0xbe, 0x90, 0x80, 0xb2, 0xbe, 0x79, 0xe9, 0x29, 0xbf,
  0xd9, 0x14, 0x5f, 0x3d, 0x17, 0x56, 0xda, 0xbd, 0x50, 0x1b, 0x2a, 0x3e,
  0x4b, 0x88, 0xb1, 0xbc, 0xeb, 0xe8, 0x16, 0xbd, 0x38, 0xfa, 0xcb, 0xbd,
  0xaf, 0x71, 0xe7, 0xbd, 0xa6, 0x3c, 0x5c, 0x3e, 0x9a, 0xb1, 0x9e, 0x3e,
  0x7b, 0x22, 0x15, 0xbe, 0x78, 0x1d, 0x04, 0x3e, 0xd1, 0x04, 0x96, 0x3d,
  0x86, 0xbf, 0x16, 0x3c, 0xe7, 0x7f, 0x93, 0xbe, 0x16, 0x1e, 0xfd, 0xbc,
  0x4e, 0xe1, 0x05, 0xbc, 0xdd, 0x34, 0x02, 0x3f, 0xca, 0x1d, 0xc1, 0x3c,
  0x2c, 0x4f, 0xeb, 0x3d, 0x87, 0x7b, 0xd1, 0xbd, 0xe0, 0x35, 0xb9, 0xbc,
  0x37, 0x20, 0x7f, 0xbd, 0x87, 0x93, 0x8f, 0xbd, 0x9b, 0x8b, 0x81, 0x3d,
  0xe2, 0x66, 0x98, 0xbb, 0x95, 0x32, 0x41, 0x3b, 0x0c, 0x2b, 0x56, 0x3e,
  0x88, 0xfe, 0x5c, 0x3d, 0x4b, 0xf4, 0x05, 0x3e, 0x77, 0x56, 0x3e, 0xbd,
  0xa1, 0x6d, 0x81, 0x3d, 0xc5, 0xec, 0x90, 0xbe, 0x3c, 0xc0, 0x1a, 0xbd,
  0xe4, 0x30, 0x6d, 0x3d, 0x60, 0x56, 0x3f, 0xbe, 0x26, 0xd1, 0xd4, 0x38,
  0x53, 0x1c, 0x6f, 0x3d, 0x48, 0x11, 0x17, 0xbd, 0x44, 0xdc, 0xf1, 0x3c,
  0x56, 0x79, 0x38, 0x3d, 0xb7, 0xc2, 0x16, 0xbe, 0x60, 0x88, 0x23, 0x3d,
  0xaf, 0x20, 0x42, 0x3d, 0x92, 0xdc, 0x5c, 0xbd, 0xa0, 0xbd, 0xfd, 0xbc,
  0x2f, 0xa8, 0xba, 0x3e, 0x89, 0x80, 0x85, 0xbb, 0xa8, 0x42, 0x40, 0xbe,
  0x3c, 0xa7, 0xa4, 0xbe, 0x38, 0x7e, 0x92, 0xbd, 0x35, 0xfc, 0x8e, 0xbe,
  0xb1, 0x08, 0x9b, 0x3d, 0x89, 0x6b, 0xb3, 0xbe, 0xa0, 0xb5, 0x12, 0xbe,
  0x23, 0x0a, 0x59, 0xbe, 0x50, 0x20, 0xeb, 0x3c, 0x76, 0x29, 0x3e, 0xbe,
  0x22, 0xb6, 0x9c, 0x3d, 0x3e, 0x55, 0x1c, 0x3d, 0x80, 0x91, 0xae, 0xbd,
  0x4f, 0x39, 0x8b, 0xbe, 0xda, 0x45, 0x02, 0xbe, 0x7c, 0x3a, 0x2e, 0xbe,
  0xd7, 0x26, 0xeb, 0x3c, 0x43, 0xf9, 0x8f, 0x3d, 0x52, 0xda, 0x84, 0x3e,
  0xd3, 0x4f, 0xa4, 0x3e, 0x25, 0x54, 0xbb, 0x3d, 0x7e, 0x86, 0x8f, 0xbe,
  0x30, 0x68, 0x70, 0x3e, 0xa6, 0xd0, 0x5e, 0x3e, 0x2d, 0xd9, 0x83, 0xbc,
  0x2e, 0x32, 0x7e, 0xbd, 0x05, 0x0d, 0x95, 0xbd, 0x53, 0xc3, 0xa8, 0x3d,
  0x80, 0x7a, 0xd4, 0xbd, 0x56, 0x9e, 0xc4, 0xbe, 0x90, 0x0a, 0xcf, 0xb9,
  0x55, 0x61, 0xcd, 0x3e, 0x63, 0x9f, 0x7e, 0x3d, 0x6c, 0x30, 0x05, 0x3f,
  0xfc, 0xcc, 0x93, 0xbe, 0x00, 0xb2, 0x1a, 0x3f, 0x16, 0x39, 0x25, 0x3e,
  0x2c, 0xda, 0x22, 0x3d, 0x47, 0xfb, 0xb0, 0xbe, 0xa4, 0x7f, 0xd0, 0x39,
  0x44, 0xe9, 0x55, 0xbb, 0xe0, 0xf2, 0xd4, 0xbd, 0xd9, 0x26, 0x81, 0xbe,
  0x03, 0x63, 0xb9, 0xbd, 0x9e, 0x82, 0x10, 0xbe, 0x2e, 0xc6, 0xb8, 0x3b,
  0x1c, 0x02, 0x16, 0xbe, 0x4f, 0xc2, 0x72, 0xbe, 0x63, 0xb8, 0x81, 0x3c,
  0x3a, 0xb2, 0x91, 0x3d, 0x6a, 0xfe, 0x67, 0xbe, 0x88, 0x37, 0x4d, 0x3e,
  0x09, 0x9c, 0x2c, 0xbd, 0xb8, 0xde, 0x32, 0xbd, 0x20, 0x8d, 0xa6, 0x3d,
  0x88, 0x0c, 0x13, 0xbe, 0x95, 0xff, 0xd8, 0x3c, 0x5b, 0x70, 0xa9, 0x3d,
  0xba, 0x87, 0x3e, 0xbe, 0xc4, 0xd8, 0xb4, 0x3d, 0xaf, 0x75, 0x2f, 0x3b,
  0x1e, 0xb1, 0x08, 0xbd, 0xc9, 0x1f, 0x1b, 0x3e, 0x18, 0x54, 0xc2, 0xbd,
  0x2c, 0x82, 0xd0, 0x3e, 0xd3, 0xfc, 0x28, 0xbe, 0x75, 0x06, 0x9c, 0xbd,
  0xb6, 0xe3, 0x9a, 0x3c, 0x97, 0xac, 0x48, 0x3e, 0x11, 0x95, 0x2f, 0xbb,
  0x38, 0x2e, 0xd7, 0xbd, 0x73, 0xdd, 0xde, 0xbe, 0xaa, 0x3e, 0x8b, 0x3e,
  0xce, 0xa5, 0xd3, 0xbe, 0xb9, 0x97, 0x2d, 0x3e, 0x54, 0xe2, 0xaa, 0x3d,
  0x7a, 0x4c, 0xa2, 0xbe, 0x4d, 0xbc, 0x2a, 0xbe, 0x70, 0xd6, 0x1b, 0xbd,
  0x64, 0xf1, 0x94, 0xbe, 0xa3, 0x31, 0x39, 0x3d, 0x4d, 0xf7, 0x7e, 0xbd,
  0x48, 0xde, 0x91, 0xbd, 0xa3, 0x1b, 0x91, 0xbc, 0x33, 0x95, 0x6d, 0xbd,
  0x77, 0x43, 0x96, 0xbe, 0x12, 0x76, 0xbb, 0x3d, 0xff, 0xb6, 0xd0, 0x3e,
  0x24, 0x43, 0x0f, 0xbf, 0x50, 0x6d, 0x96, 0xbd, 0xf5, 0x73, 0x24, 0xbe,
  0xdc, 0xe8, 0x7d, 0xbd, 0x3f, 0xde, 0x6c, 0xbd, 0x31, 0x02, 0xa3, 0xbc,
  0xcc, 0x8e, 0x0f, 0xbe, 0x83, 0xbc, 0xaa, 0x3e, 0xa8, 0xe8, 0xb6, 0xbe,
  0x1e, 0x94, 0x4e, 0xbe, 0x59, 0x3e, 0x13, 0xbd, 0x63, 0xe6, 0x92, 0x3e,
  0x74, 0x50, 0x2b, 0xbe, 0x9b, 0x06, 0x40, 0xbe, 0x7e, 0x04, 0xb8, 0x3d,
  0x6b, 0x46, 0xdd, 0xbd, 0x21, 0x98, 0x11, 0x3e, 0x8d, 0x66, 0x62, 0xbe,
  0x6f, 0x01, 0x9d, 0xbd, 0x2c, 0x01, 0x05, 0xbe, 0xcb, 0xc5, 0xad, 0xbd,
  0xcd, 0x96, 0x37, 0xbd, 0xe1, 0x34, 0x86, 0x3d, 0xd5, 0xb4, 0xb8, 0xbd,
  0x1a, 0x74, 0x8f, 0xbd, 0x53, 0x85, 0x83, 0xbd, 0x9f, 0x3d, 0x9b, 0xbd,
  0xdb, 0xde, 0x14, 0x3d, 0xde, 0xca, 0x8a, 0xbd, 0x87, 0xff, 0x4b, 0xbd,
  0x2d, 0x83, 0x41, 0xbe, 0xb9, 0x38, 0x61, 0x3e, 0x06, 0xd1, 0x66, 0x3d,
  0xa8, 0xd7, 0xc1, 0x3d, 0x34, 0x24, 0xf9, 0xbd, 0x54, 0x08, 0x84, 0x3b,
  0xbb, 0x09, 0x9f, 0x3e, 0x55, 0xae, 0x1d, 0x3e, 0x0b, 0x74, 0x7c, 0xbe,
  0x99, 0xca, 0x53, 0x3b, 0xb1, 0xfc, 0x5d, 0xbe, 0x7b, 0xbf, 0xf0, 0xbd,
  0x7c, 0xfe, 0x85, 0xbd, 0x14, 0x3c, 0x4b, 0xbe, 0x86, 0xde, 0x7f, 0x3d,
  0x73, 0xf2, 0x55, 0xbe, 0x29, 0xd6, 0xb5, 0xbe, 0x0f, 0x24, 0x26, 0x3d,
  0x04, 0xc6, 0x8b, 0x3d, 0xc8, 0xfa, 0xd5, 0xbd, 0x7c, 0x32, 0xf0, 0x3d,
  0x13, 0x71, 0xae, 0xbd, 0x14, 0xd8, 0x04, 0xbe, 0xff, 0xad, 0x97, 0xbe,
  0x65, 0x73, 0xaf, 0xbe, 0x4e, 0xbf, 0xce, 0x3e, 0xc7, 0xf3, 0xc0, 0xbd,
  0x4a, 0x55, 0x46, 0xbe, 0xd1, 0xe5, 0x2b, 0xbe, 0x0f, 0xa7, 0xf6, 0x3d,
  0x4f, 0xdd, 0x06, 0x3c, 0x18, 0x03, 0x4e, 0xbe, 0x58, 0x9b, 0x66, 0xbe,
  0x17, 0xf1, 0x16, 0x3e, 0xe6, 0x19, 0x3e, 0xbe, 0x29, 0xd8, 0x50, 0xbe,
  0xd5, 0xbd, 0xbe, 0x3d, 0x9b, 0x85, 0x44, 0xbe, 0x63, 0x71, 0xe5, 0x3d,
  0xcf, 0xff, 0x8d, 0xbe, 0x53, 0x15, 0x52, 0xbe, 0xc8, 0xc8, 0x38, 0xbd,
  0x92, 0x6e, 0x1a, 0xbe, 0x90, 0xa2, 0x89, 0x3d, 0xfe, 0x5d, 0x16, 0xbe,
  0x80, 0xad, 0xa4, 0x3e, 0xc5, 0x4c, 0x13, 0x3f, 0x70, 0xef, 0x3f, 0x3d,
  0xdb, 0xd8, 0xdc, 0xbe, 0x64, 0x62, 0x02, 0xbd, 0xd9, 0x0b, 0x40, 0xba,
  0x14, 0x80, 0xb4, 0xbd, 0xef, 0x48, 0xb1, 0xbd, 0xc8, 0x08, 0xc5, 0xbe,
  0x54, 0x9e, 0x17, 0xbe, 0xca, 0xca, 0xf4, 0x3b, 0x94, 0x92, 0x12, 0xbe,
  0x42, 0x61, 0xa6, 0xbd, 0xfa, 0x0b, 0xd9, 0x3e, 0x08, 0xd3, 0x26, 0xbe,
  0x18, 0x7b, 0x9a, 0xbd, 0x48, 0x4c, 0x60, 0xbd, 0xf3, 0x96, 0x83, 0xbd,
  0xb3, 0xdb, 0xf2, 0xbd, 0xf3, 0xef, 0xb0, 0xbc, 0x09, 0xa1, 0x64, 0xbe,
  0x52, 0x1c, 0x6f, 0xbe, 0xc8, 0x89, 0x7a, 0xbe, 0x80, 0x7a, 0xf5, 0x3d,
  0x51, 0x3a, 0x5c, 0xbd, 0x3a, 0xc2, 0xe1, 0xbd, 0x06, 0x7b, 0xa2, 0xbd,
  0x0f, 0x1e, 0x1f, 0x3e, 0xae, 0x94, 0xe9, 0xbd, 0xc2, 0xee, 0x55, 0xbe,
  0xd2, 0x41, 0x23, 0xbf, 0x48, 0x82, 0x11, 0xbc, 0x5a, 0x4a, 0x54, 0xbe,
  0x2f, 0x2f, 0xcb, 0xbe, 0x94, 0xa8, 0xc6, 0x3d, 0xe6, 0xfc, 0x01, 0xbd,
  0x62, 0x89, 0x23, 0xbd, 0xe0, 0x59, 0x60, 0xbe, 0xc5, 0x1f, 0xb4, 0xbe,
  0x8f, 0x81, 0x7d, 0xbb, 0x30, 0xf7, 0xa1, 0xbe, 0xf7, 0x38, 0x72, 0xbe,
  0x94, 0x31, 0x40, 0xbd, 0xc3, 0xd5, 0xc9, 0xbd, 0xc8, 0xaa, 0x98, 0xbd,
  0x15, 0xf8, 0x80, 0x3d, 0xd9, 0x82, 0xac, 0xbe, 0xa9, 0x1d, 0x83, 0x3d,
  0x1c, 0x64, 0xea, 0x3b, 0xa6, 0x78, 0x1d, 0xbe, 0x51, 0xa1, 0xcb, 0xbd,
  0xdd, 0xf4, 0xf4, 0xbd, 0x43, 0x75, 0x15, 0xbe, 0x59, 0xa5, 0x9e, 0x3e,
  0x17, 0x1b, 0x25, 0xbb, 0xb7, 0xe3, 0x4c, 0xbd, 0xa5, 0x24, 0xe6, 0x3d,
  0xbc, 0x68, 0x69, 0xbe, 0xc7, 0x53, 0x82, 0xbe, 0xcc, 0x3b, 0x3f, 0x3e,
  0xb8, 0x08, 0x99, 0x3e, 0x9a, 0x22, 0xfd, 0x3b, 0x47, 0x28, 0x84, 0xbe,
  0xd8, 0x8d, 0x67, 0xbe, 0xa8, 0x3d, 0xee, 0xbd, 0x94, 0xa5, 0x29, 0xbe,
  0x89, 0xc8, 0xe5, 0xbe, 0xcf, 0x41, 0x56, 0xbd, 0x06, 0x04, 0xab, 0x3e,
  0xbf, 0x58, 0x07, 0x3b, 0xda, 0x1d, 0x74, 0xbe, 0xee, 0x7a, 0xf2, 0xbd,
  0x9c, 0x91, 0x40, 0xbd, 0xbb, 0xda, 0xa9, 0xbe, 0xfe, 0xfa, 0x02, 0xbf,
  0xe3, 0xb5, 0x50, 0xbe, 0x7b, 0x49, 0x74, 0x3d, 0xcc, 0x40, 0x25, 0xbe,
  0x75, 0x7d, 0x77, 0xbe, 0x00, 0x84, 0xc4, 0xbc, 0x97, 0xb4, 0x3e, 0xbe,
  0x03, 0xb1, 0x22, 0xbd, 0xe8, 0x85, 0xac, 0xbe, 0x83, 0x81, 0x19, 0x3e,
  0x06, 0xae, 0x85, 0x3e, 0xe6, 0x23, 0x79, 0xbd, 0x6a, 0x55, 0x4e, 0x3d,
  0xab, 0x4e, 0x6e, 0x3e, 0x25, 0x60, 0x9e, 0x3d, 0x81, 0x77, 0x70, 0xbe,
  0x09, 0x00, 0x09, 0xbe, 0x75, 0xcb, 0x16, 0x3e, 0x21, 0x2c, 0x45, 0x3d,
  0xb8, 0x67, 0x1c, 0xbe, 0xbd, 0x5c, 0x29, 0xbe, 0x33, 0xab, 0x61, 0x3a,
  0xb2, 0xb3, 0x1f, 0xbe, 0xf1, 0x66, 0x3c, 0xbd, 0x87, 0x4d, 0xf4, 0xbd,
  0xab, 0xda, 0x3d, 0xbd, 0xb7, 0x7a, 0xc9, 0xbd, 0x8f, 0x5a, 0x1f, 0xbf,
  0x3f, 0xc8, 0x1b, 0xbe, 0xdd, 0xdc, 0x85, 0xbd, 0x6e, 0x20, 0xb0, 0x3e,
  0x19, 0xe0, 0x64, 0xbd, 0x9c, 0xff, 0xfa, 0xbd, 0x4a, 0x92, 0x20, 0xbe,
  0xcb, 0x97, 0xaa, 0xbd, 0xcb, 0x1c, 0xdb, 0xbd, 0x2e, 0x53, 0x1c, 0x3d,
  0x70, 0x48, 0x9b, 0xbc, 0xc7, 0x0d, 0x4c, 0x3d, 0xcf, 0x5b, 0x35, 0x3f,
  0x60, 0xe3, 0x58, 0xbd, 0x46, 0x86, 0xf5, 0xbc, 0x45, 0xda, 0xdc, 0x3d,
  0x99, 0x5e, 0xae, 0xbd, 0x62, 0x0b, 0xa9, 0xbd, 0x7f, 0x0c, 0x0f, 0x3d,
  0x82, 0xde, 0xd5, 0x3b, 0x4d, 0xb4, 0x7a, 0xbd, 0x53, 0x85, 0xa3, 0xbd,
  0x21, 0x87, 0x39, 0x3e, 0x7e, 0x4a, 0xfc, 0xbc, 0xeb, 0xd7, 0x15, 0xbe,
  0x24, 0x98, 0xbb, 0x3c, 0x84, 0xba, 0xe6, 0xbd, 0xd2, 0x39, 0x67, 0x3d,
  0x77, 0x03, 0x03, 0xbe, 0xbb, 0xca, 0x32, 0xbe, 0xd3, 0x20, 0xf0, 0xbd,
  0x39, 0xfc, 0x7f, 0xbc, 0x32, 0x84, 0x9e, 0xbe, 0xda, 0x1c, 0x73, 0xbe,
  0xd5, 0x3a, 0x63, 0xbd, 0x54, 0xfb, 0x8c, 0xbd, 0xf5, 0x40, 0xb1, 0xbd,
  0x21, 0x06, 0xd8, 0xbd, 0x24, 0x70, 0x63, 0xbd, 0x51, 0xe6, 0x68, 0xbe,
  0xd7, 0x77, 0xfd, 0x3c, 0xed, 0x7f, 0x13, 0x3f, 0x9b, 0x74, 0x20, 0xbd,
  0x1e, 0x96, 0x8b, 0x3b, 0x84, 0x80, 0xe0, 0xbe, 0xdb, 0x60, 0x87, 0x3c,
  0xa9, 0xc3, 0x11, 0xbe, 0x6c, 0x27, 0x9f, 0x3e, 0x22, 0x2a, 0x58, 0x3d,
  0xbc, 0x47, 0x14, 0xbe, 0x0c, 0x82, 0xaf, 0xbd, 0xb8, 0x49, 0x02, 0x3e,
  0xf9, 0xeb, 0x5d, 0xbe, 0x2b, 0x78, 0x99, 0x3d, 0xea, 0x4e, 0xc3, 0xbd,
  0xb8, 0x86, 0x7d, 0x3d, 0x66, 0x73, 0x10, 0x3e, 0xa8, 0xf0, 0x8f, 0x3c,
  0xb9, 0x73, 0x5f, 0xbe, 0x25, 0x57, 0x10, 0xbe, 0xf2, 0x18, 0xf6, 0xbd,
  0xad, 0x85, 0xb7, 0xbd, 0xd5, 0xad, 0x1a, 0xbe, 0x9f, 0xb2, 0xd1, 0xbb,
  0xa7, 0xc2, 0xcd, 0x3d, 0x97, 0xdd, 0x60, 0x3d, 0x4d, 0xeb, 0xd2, 0xbd,
  0xea, 0x17, 0x76, 0x3e, 0x9f, 0x21, 0x61, 0xbd, 0x6c, 0x53, 0xd2, 0xbc,
  0xc3, 0x78, 0x9b, 0x3d, 0x04, 0x05, 0xbd, 0xbd, 0x38, 0x14, 0x65, 0x3e,
  0x15, 0xd0, 0x3a, 0xbd, 0x45, 0x7a, 0x27, 0x3c, 0x6c, 0xd2, 0x52, 0x3d,
  0x45, 0x7a, 0x51, 0xbc, 0x27, 0xfb, 0x53, 0xbd, 0x04, 0x9d, 0xb3, 0x3e,
  0xed, 0x50, 0x96, 0x3e, 0x3b, 0x33, 0x9a, 0x3d, 0x02, 0xd5, 0xe4, 0x3c,
  0xf3, 0xc7, 0x84, 0x3c, 0x5f, 0x65, 0x48, 0xbc, 0x3b, 0xf1, 0xf0, 0xbd,
  0x76, 0x2a, 0xc9, 0xbd, 0xce, 0xf1, 0xd5, 0x3d, 0x97, 0x1b, 0x2f, 0x3e,
  0x37, 0x7d, 0x8c, 0x3d, 0x21, 0xfa, 0xc3, 0x3d, 0x73, 0x5f, 0xf0, 0xbc,
  0x86, 0xf2, 0xb0, 0xbe, 0xa2, 0xca, 0x83, 0x3d, 0xab, 0x94, 0x05, 0x3e,
  0x4d, 0xc8, 0xf5, 0xbe, 0x40, 0x6d, 0x02, 0xbd, 0x7d, 0xc4, 0xeb, 0x3d,
  0x98, 0x3a, 0xd7, 0x3d, 0xff, 0x3a, 0xbb, 0xbd, 0xae, 0xfa, 0x13, 0xbf,
  0xc3, 0x40, 0x9c, 0xbd, 0x1f, 0x5e, 0x50, 0xbd, 0xc7, 0x89, 0x14, 0xbf,
  0xd7, 0x12, 0x82, 0xbd, 0x8b, 0x06, 0xe5, 0x3d, 0x90, 0xfc, 0x1f, 0xbc,
  0x6d, 0xed, 0x5b, 0xbd, 0x69, 0x05, 0x33, 0xbf, 0x4f, 0x14, 0x02, 0x3d,
  0x64, 0x54, 0x87, 0xbd, 0xa6, 0xe7, 0x06, 0xbf, 0x1d, 0x9b, 0x1b, 0xbe,
  0x4e, 0x27, 0x22, 0xbe, 0x57, 0x6b, 0x83, 0xbe, 0x67, 0x7f, 0x85, 0xbe,
  0xe4, 0x0a, 0x5f, 0xbe, 0xf0, 0xfb, 0x6f, 0xbe, 0xb5, 0x8d, 0x73, 0x3c,
  0x86, 0xa1, 0xc6, 0xbe, 0x35, 0x0e, 0x28, 0xbe, 0x25, 0x07, 0x1b, 0x3d,
  0xde, 0x32, 0xa6, 0x3c, 0xb6, 0x77, 0xf0, 0x3e, 0x26, 0xd5, 0x02, 0x3f,
  0x2a, 0x44, 0xc5, 0xbd, 0x2d, 0xe9, 0x84, 0xbe, 0x08, 0x38, 0xed, 0x3c,
  0xb3, 0xf9, 0xe8, 0x3b, 0xf5, 0x48, 0xda, 0x3c, 0x8e, 0xf7, 0xd5, 0xbd,
  0xe3, 0x18, 0xff, 0xbd, 0xca, 0x1c, 0x87, 0xbd, 0x5b, 0x55, 0x38, 0xbe,
  0x67, 0xe8, 0xdb, 0xbe, 0x19, 0x3f, 0x06, 0x3e, 0xff, 0x12, 0xf7, 0x3d,
  0x60, 0x53, 0x02, 0x3e, 0x27, 0xc8, 0x81, 0xbd, 0x19, 0xcc, 0x8d, 0xbe,
  0xeb, 0xb3, 0x0e, 0xbe, 0x66, 0x64, 0xf8, 0xbd, 0x7e, 0x91, 0x64, 0xbe,
  0xec, 0x8e, 0x70, 0xbe, 0xe8, 0xd8, 0x52, 0x3e, 0xf9, 0x30, 0x16, 0x3d,
  0x40, 0x17, 0x65, 0xbd, 0x3a, 0xc9, 0xc3, 0xbe, 0x45, 0xd1, 0xab, 0xbe,
  0xac, 0xc2, 0x74, 0x3d, 0xc8, 0xa1, 0xb1, 0x3d, 0x7a, 0xf1, 0xcf, 0xbe,
  0xf3, 0xfb, 0x1d, 0x3e, 0x50, 0x93, 0xa0, 0x3e, 0xec, 0xbf, 0xb1, 0x3d,
  0x60, 0x69, 0xad, 0xbd, 0x5a, 0xcc, 0xea, 0xbd, 0x30, 0xf2, 0x49, 0xbc,
  0xe1, 0x9b, 0xe3, 0x3d, 0xcd, 0xbb, 0x1f, 0xbe, 0xf3, 0x2e, 0xb1, 0x3d,
  0xd5, 0xf6, 0x4f, 0x3d, 0x36, 0x3b, 0x2a, 0x3e, 0xda, 0x15, 0xb9, 0xbd,
  0xcb, 0x61, 0x83, 0xbe, 0x9f, 0x98, 0xfc, 0xbd, 0x07, 0xa5, 0x2c, 0x3d,
  0xf6, 0x26, 0xb4, 0xbd, 0xe9, 0x0f, 0x29, 0x3e, 0x55, 0x5b, 0xe7, 0xbe,
  0xff, 0x4d, 0x28, 0xbe, 0xdc, 0x48, 0x30, 0xbb, 0xc9, 0x6d, 0x42, 0xbe,
  0xe3, 0x17, 0x15, 0xbe, 0xf9, 0x86, 0xff, 0x3c, 0xe7, 0x78, 0x8f, 0x3d,
  0x1b, 0x2f, 0x57, 0xbe, 0xbd, 0x4b, 0xbe, 0xbe, 0xc5, 0x6a, 0xd8, 0xbd,
  0x06, 0xc3, 0xb4, 0x3d, 0xf0, 0xdb, 0xa1, 0x3e, 0xdf, 0x45, 0x06, 0xbe,
  0xd6, 0x0f, 0xdf, 0xbd, 0x27, 0x6d, 0xbf, 0xbc, 0x4a, 0x8f, 0x2c, 0xbe,
  0x0a, 0xdf, 0xff, 0xff, 0x10, 0x00, 0x00, 0x00, 0x08, 0x00, 0x00, 0x00,
  0x1c, 0x00, 0x00, 0x00, 0x38, 0x00, 0x00, 0x00, 0x04, 0x00, 0x00, 0x00,
  0x10, 0x00, 0x00, 0x00, 0x04, 0x00, 0x00, 0x00, 0x01, 0x00, 0x00, 0x00,
  0x08, 0x00, 0x00, 0x00, 0x1a, 0x00, 0x00, 0x00, 0x73, 0x65, 0x71, 0x75,
  0x65, 0x6e, 0x74, 0x69, 0x61, 0x6c, 0x2f, 0x63, 0x6f, 0x6e, 0x76, 0x32,
  0x64, 0x5f, 0x31, 0x2f, 0x43, 0x6f, 0x6e, 0x76, 0x32, 0x44, 0x00, 0x00,
  0x04, 0xdf, 0xff, 0xff, 0xfa, 0xdf, 0xff, 0xff, 0x04, 0x00, 0x00, 0x00,
  0x80, 0x01, 0x00, 0x00, 0x61, 0x7a, 0xe1, 0x3b, 0x63, 0xaa, 0xda, 0x3d,
  0x76, 0xc9, 0x04, 0x3e, 0x20, 0x12, 0x8a, 0x3d, 0x91, 0xe0, 0xa4, 0x3e,
  0x9b, 0x94, 0xac, 0x3e, 0x29, 0x48, 0x0b, 0x3e, 0x1c, 0xab, 0x9f, 0xbd,
  0x09, 0xf7, 0x15, 0xbe, 0x39, 0xbb, 0xe7, 0xbd, 0x44, 0x71, 0xa2, 0xbe,
  0xf1, 0xb3, 0xa2, 0xbe, 0xf2, 0xdb, 0xe0, 0x3c, 0x3b, 0xad, 0x0a, 0xbd,
  0xb2, 0x87, 0xd7, 0xbd, 0xaa, 0x22, 0xb6, 0xbe, 0xce, 0x9a, 0xd9, 0xbd,
  0x04, 0x05, 0x8d, 0xbe, 0x56, 0x39, 0x15, 0x3f, 0x98, 0x49, 0x1a, 0x3d,
  0xd1, 0x8c, 0xb0, 0x3e, 0xcf, 0x4d, 0x45, 0xbd, 0x77, 0x10, 0x6c, 0x3e,
  0xae, 0xf2, 0xec, 0x3b, 0x21, 0x62, 0x93, 0xbc, 0x7b, 0x4c, 0x06, 0x3e,
  0x71, 0xc2, 0x26, 0xbe, 0xf7, 0xcd, 0x0c, 0xbd, 0xb4, 0x32, 0x3a, 0x3e,
  0x69, 0x5e, 0x12, 0xbe, 0x73, 0x7a, 0x00, 0x3d, 0xd7, 0x30, 0x24, 0xbd,
  0x77, 0x10, 0x96, 0xbd, 0x55, 0xba, 0x0d, 0x3e, 0xe5, 0x43, 0x2a, 0xbe,
  0xa9, 0xa2, 0xbf, 0x3d, 0x91, 0x13, 0xd8, 0xba, 0x78, 0x93, 0xd0, 0x3a,
  0x96, 0x5c, 0x68, 0xbd, 0xd3, 0x3f, 0x28, 0xbd, 0x49, 0x61, 0x7a, 0x3c,
  0x2c, 0x44, 0x05, 0xbf, 0xc7, 0xe3, 0x18, 0x3d, 0xd4, 0xe5, 0xb3, 0xbc,
  0xde, 0x15, 0x8b, 0x3d, 0xa4, 0xa8, 0x65, 0x39, 0xcd, 0x56, 0x0d, 0x3c,
  0x89, 0xe0, 0xeb, 0x3e, 0x1a, 0xc5, 0x6b, 0xbd, 0xef, 0xd0, 0x13, 0xbe,
  0x8d, 0x45, 0x8d, 0xbd, 0x40, 0x31, 0xae, 0xbd, 0xa2, 0xa1, 0xc1, 0xbd,
  0x10, 0x6e, 0x20, 0xbe, 0x7c, 0x64, 0xe8, 0x3d, 0x98, 0xfa, 0x03, 0x3e,
  0xd5, 0x98, 0x95, 0x3d, 0xc8, 0xf1, 0xab, 0x3e, 0xe3, 0x91, 0x64, 0x3e,
  0xb9, 0xa7, 0x89, 0x3e, 0x61, 0x65, 0xb7, 0x3e, 0xc5, 0x6d, 0x75, 0xbe,
  0xc4, 0x4c, 0x00, 0x3d, 0x39, 0xe9, 0x3a, 0x3e, 0xa7, 0x65, 0x18, 0x3e,
  0x39, 0x4b, 0xae, 0x3d, 0x74, 0xaa, 0x40, 0x3e, 0x7c, 0x7d, 0x97, 0x3d,
  0x2b, 0xbd, 0x38, 0xbe, 0xdb, 0x5c, 0x6c, 0xbe, 0x07, 0x0b, 0x3c, 0x3e,
  0x13, 0xf8, 0x77, 0xbd, 0x7e, 0x19, 0xca, 0xbb, 0x0b, 0x33, 0x64, 0x3e,
  0x5c, 0x32, 0x99, 0xbe, 0x02, 0xc1, 0xef, 0x3c, 0x1e, 0x62, 0x10, 0xbe,
  0x1d, 0x6c, 0x95, 0x3d, 0xb5, 0x36, 0x00, 0x3b, 0x94, 0x1a, 0x2e, 0xbe,
  0xdb, 0x7b, 0xaa, 0x3d, 0x3f, 0xc1, 0xd5, 0xbd, 0x12, 0xdf, 0x89, 0xbd,
  0x43, 0x65, 0xe8, 0x3c, 0x55, 0x04, 0xa7, 0xbe, 0x0d, 0xfb, 0x4a, 0x3d,
  0xc4, 0x50, 0x0e, 0x3e, 0xa4, 0x5d, 0xd7, 0xbc, 0x97, 0xa3, 0xd0, 0x3d,
  0xb4, 0xab, 0x98, 0xbd, 0x90, 0x92, 0x94, 0x3e, 0x2a, 0x02, 0x81, 0x3d,
  0x00, 0x62, 0xa2, 0x3c, 0x16, 0x7d, 0xdd, 0x3d, 0x13, 0x0a, 0x3e, 0xbd,
  0xd4, 0x17, 0x6b, 0x3d, 0xe2, 0xe0, 0xff, 0xff, 0x10, 0x00, 0x00, 0x00,
  0x07, 0x00, 0x00, 0x00, 0x1c, 0x00, 0x00, 0x00, 0x38, 0x00, 0x00, 0x00,
  0x04, 0x00, 0x00, 0x00, 0x08, 0x00, 0x00, 0x00, 0x04, 0x00, 0x00, 0x00,
  0x03, 0x00, 0x00, 0x00, 0x01, 0x00, 0x00, 0x00, 0x18, 0x00, 0x00, 0x00,
  0x73, 0x65, 0x71, 0x75, 0x65, 0x6e, 0x74, 0x69, 0x61, 0x6c, 0x2f, 0x63,
  0x6f, 0x6e, 0x76, 0x32, 0x64, 0x2f, 0x43, 0x6f, 0x6e, 0x76, 0x32, 0x44,
  0x00, 0x00, 0x00, 0x00, 0xdc, 0xe0, 0xff, 0xff, 0xd2, 0xe1, 0xff, 0xff,
  0x04, 0x00, 0x00, 0x00, 0xc0, 0x00, 0x00, 0x00, 0x28, 0x61, 0xe9, 0xbe,
  0xc5, 0xd9, 0x2b, 0x3f, 0x51, 0x1a, 0x67, 0x3d, 0xfb, 0x24, 0x01, 0x3e,
  0xf7, 0x24, 0x8f, 0xbc, 0x1a, 0x07, 0x2d, 0x3e, 0x4a, 0x7a, 0xd6, 0xbe,
  0x37, 0x26, 0xdb, 0x3a, 0x9f, 0xde, 0x9f, 0x3e, 0x4b, 0xba, 0x08, 0x3f,
  0x95, 0x48, 0xbd, 0x3e, 0x8a, 0xb2, 0xe1, 0xbe, 0x78, 0x4a, 0xff, 0x3d,
  0x0a, 0x03, 0xaa, 0x3e, 0xf1, 0xb6, 0xc5, 0x3e, 0xf9, 0xd0, 0x8f, 0x3e,
  0x6a, 0x45, 0xd2, 0x3e, 0x43, 0x05, 0x8a, 0x3e, 0xd2, 0x13, 0xb3, 0x3c,
  0xf2, 0x49, 0xcc, 0xbe, 0x4f, 0xd4, 0x05, 0x3d, 0x5e, 0xbf, 0x8b, 0x3e,
  0x20, 0xcd, 0xd1, 0xbe, 0xc4, 0x57, 0x63, 0x3d, 0x63, 0xcb, 0xae, 0x3e,
  0x89, 0xee, 0xea, 0x3e, 0x5d, 0x13, 0xb2, 0x3e, 0x58, 0xc6, 0xe5, 0xbc,
  0x69, 0x66, 0x44, 0x3e, 0x58, 0xee, 0xad, 0x3e, 0xc1, 0x0d, 0xe3, 0xbe,
  0x8b, 0x07, 0xa2, 0x3e, 0xc8, 0x5a, 0x39, 0xbd, 0x26, 0xa2, 0x26, 0xbf,
  0x9b, 0x3f, 0x11, 0xbc, 0x8e, 0xbd, 0x19, 0xbf, 0x52, 0xec, 0x85, 0x3d,
  0xe2, 0x0c, 0x92, 0x3e, 0x0e, 0xa8, 0x08, 0xbf, 0xdb, 0x24, 0xa4, 0xbc,
  0x24, 0x67, 0x82, 0x3e, 0x68, 0xb7, 0x71, 0xbe, 0x65, 0xe7, 0x9f, 0x3e,
  0x46, 0x25, 0x89, 0x3e, 0x49, 0x4e, 0xf8, 0x3c, 0x12, 0xde, 0x9d, 0x3e,
  0xfe, 0x52, 0x3a, 0xbf, 0xf1, 0x1c, 0x73, 0x3e, 0xfa, 0xe1, 0xff, 0xff,
  0x10, 0x00, 0x00, 0x00, 0x06, 0x00, 0x00, 0x00, 0x14, 0x00, 0x00, 0x00,
  0x30, 0x00, 0x00, 0x00, 0x02, 0x00, 0x00, 0x00, 0x03, 0x00, 0x00, 0x00,
  0x10, 0x00, 0x00, 0x00, 0x19, 0x00, 0x00, 0x00, 0x73, 0x65, 0x71, 0x75,
  0x65, 0x6e, 0x74, 0x69, 0x61, 0x6c, 0x2f, 0x64, 0x65, 0x6e, 0x73, 0x65,
  0x5f, 0x31, 0x2f, 0x4d, 0x61, 0x74, 0x4d, 0x75, 0x6c, 0x00, 0x00, 0x00,
  0xec, 0xe1, 0xff, 0xff, 0xe2, 0xe2, 0xff, 0xff, 0x04, 0x00, 0x00, 0x00,
  0x00, 0x1c, 0x00, 0x00, 0x67, 0x13, 0x8f, 0x3d, 0xe0, 0xbe, 0xaa, 0xbe,
  0x2a, 0x32, 0x88, 0xbd, 0x7c, 0x19, 0x70, 0x3d, 0x14, 0xa1, 0xe4, 0xbd,
  0x7f, 0x68, 0x9d, 0xbe, 0xc7, 0xc3, 0x47, 0xbe, 0x4f, 0xe4, 0x32, 0xbd,
  0x34, 0xca, 0xee, 0x3c, 0xd1, 0x58, 0xb7, 0x3c, 0xc3, 0x42, 0x82, 0xbc,
  0x3e, 0x07, 0x7b, 0x3c, 0x42, 0xdc, 0x1d, 0x3c, 0xdc, 0xf3, 0x0c, 0xbd,
  0x3f, 0xaa, 0xb5, 0x3d, 0xbe, 0x05, 0x15, 0xbe, 0xe1, 0xf5, 0xba, 0x39,
  0xd2, 0x27, 0xbd, 0xbe, 0xc1, 0xb6, 0x04, 0x3e, 0x97, 0xec, 0x70, 0x3c,
  0x6a, 0x3c, 0xd6, 0x3d, 0x46, 0x50, 0xbf, 0xbc, 0x63, 0x12, 0x0f, 0x3e,
  0xda, 0xac, 0x1a, 0xbe, 0x71, 0x67, 0x64, 0x3d, 0xa8, 0x38, 0xca, 0x3d,
  0xed, 0xc7, 0xae, 0xbe, 0x62, 0xa6, 0x4d, 0xbe, 0xe7, 0x95, 0x55, 0xbe,
  0x24, 0xa7, 0xf3, 0xbd, 0xcb, 0x99, 0x8e, 0x3c, 0xe3, 0x6a, 0x75, 0xbe,
  0x01, 0x3e, 0xe7, 0x3c, 0x4c, 0x10, 0x71, 0xbe, 0x9e, 0x4f, 0x40, 0xbd,
  0x22, 0x00, 0xc5, 0xbb, 0x47, 0xea, 0x19, 0xbe, 0xfa, 0xe5, 0x06, 0x3d,
  0x0f, 0x1e, 0xdb, 0xbd, 0x99, 0x14, 0x4c, 0x3d, 0x6c, 0x1c, 0xbb, 0x3d,
  0x47, 0xb3, 0x40, 0x3e, 0xd9, 0x73, 0x01, 0xbd, 0xfd, 0xbf, 0x10, 0xbe,
  0x89, 0xfd, 0x28, 0xbe, 0x37, 0x5e, 0x3d, 0xbd, 0xc7, 0x46, 0x38, 0x3e,
  0x6c, 0x8f, 0xb0, 0x3d, 0xab, 0xbe, 0x50, 0xbe, 0x9d, 0x01, 0xda, 0xbe,
  0xa7, 0xa9, 0xa1, 0xbb, 0x66, 0xa3, 0xf4, 0x3d, 0x00, 0x02, 0x67, 0x3d,
  0xb6, 0x3a, 0xb6, 0xbb, 0xaa, 0x09, 0x7d, 0xbe, 0xff, 0x01, 0xa9, 0xbd,
  0x5d, 0x75, 0x08, 0xbe, 0x4e, 0x26, 0xc0, 0xbd, 0x04, 0xf8, 0xb0, 0x3c,
  0x1b, 0x24, 0x6c, 0x3d, 0x96, 0x6e, 0x21, 0xbe, 0xac, 0x6e, 0x26, 0x3e,
  0x99, 0x9e, 0xa2, 0x3b, 0x8f, 0xb6, 0x6e, 0xbe, 0x96, 0xe1, 0xa9, 0x3d,
  0x70, 0x0a, 0xda, 0xbd, 0x43, 0x47, 0x19, 0x3e, 0x83, 0xc2, 0x57, 0xbe,
  0xf8, 0x5d, 0x75, 0x3d, 0x7f, 0x8a, 0x89, 0x3d, 0xd8, 0xf5, 0x21, 0x3e,
  0xd3, 0xd3, 0x4f, 0xbb, 0xeb, 0x48, 0x37, 0xbe, 0x28, 0x76, 0x93, 0xbd,
  0xe5, 0x9d, 0x25, 0xbe, 0x56, 0x8f, 0x40, 0x3e, 0x63, 0x5c, 0xd3, 0x3c,
  0x19, 0x96, 0xb6, 0x3d, 0x69, 0x70, 0x51, 0xbd, 0x01, 0x78, 0x30, 0x3e,
  0xe2, 0x9a, 0x08, 0x3e, 0x39, 0x1b, 0x97, 0xbe, 0x67, 0xb0, 0xa3, 0xbb,
  0x1a, 0xf3, 0x6b, 0xbe, 0x02, 0x92, 0x94, 0xbc, 0x87, 0x06, 0x07, 0xbe,
  0x12, 0xb5, 0x27, 0xbe, 0x0e, 0x6a, 0xcc, 0x3d, 0x01, 0xd2, 0x17, 0xbc,
  0x49, 0x54, 0x54, 0xbe, 0xd7, 0x59, 0xe4, 0x3c, 0xb1, 0x2d, 0x8f, 0xbd,
  0x08, 0x8d, 0x0f, 0xbe, 0x65, 0x00, 0xb3, 0xbd, 0x51, 0x74, 0x93, 0xbd,
  0x4e, 0x26, 0x83, 0xbd, 0xc4, 0x4d, 0x3f, 0xbe, 0x02, 0x9a, 0xad, 0xbe,
  0xc9, 0x48, 0x44, 0xbd, 0x32, 0xb1, 0xb6, 0xbd, 0x91, 0x58, 0x03, 0x3d,
  0x9e, 0xf6, 0x72, 0xbe, 0xee, 0x2d, 0xf0, 0x3c, 0x11, 0x0c, 0xd9, 0xbd,
  0xf9, 0x54, 0x3a, 0x3e, 0x6f, 0x56, 0x00, 0x3e, 0xb2, 0xec, 0x35, 0xbe,
  0xb9, 0xb2, 0x66, 0xbd, 0xbc, 0xe7, 0x73, 0xbe, 0xd6, 0xdf, 0xac, 0x3c,
  0xab, 0x03, 0xbb, 0x3d, 0x81, 0x91, 0xa5, 0x3d, 0xd4, 0x53, 0x38, 0xbe,
  0xe7, 0x1e, 0xc2, 0xbe, 0xda, 0x49, 0x10, 0x3e, 0x5c, 0xbe, 0x90, 0x3d,
  0xb8, 0xca, 0x12, 0xbe, 0x53, 0x14, 0x57, 0x3c, 0x7e, 0x7d, 0x58, 0x3e,
  0x26, 0xe7, 0xec, 0xbb, 0xa4, 0xfb, 0x6d, 0xbe, 0xbd, 0x7d, 0x81, 0x3e,
  0x64, 0x21, 0x94, 0xbd, 0x58, 0x5b, 0x5a, 0xbd, 0x65, 0x74, 0x0b, 0x3d,
  0xa8, 0x4e, 0x6f, 0x3d, 0xb8, 0x98, 0x16, 0xbe, 0xe9, 0x0c, 0x97, 0xbd,
  0xa3, 0xc5, 0x88, 0xbe, 0x71, 0x69, 0xb6, 0xbe, 0xc4, 0xa1, 0xe2, 0xbd,
  0x94, 0x3e, 0x8f, 0xbd, 0x7d, 0x68, 0x1b, 0x3c, 0x3f, 0xc4, 0x00, 0x3f,
  0x2f, 0xa2, 0x66, 0xbc, 0x18, 0xe2, 0x7e, 0xbe, 0x02, 0x43, 0xa6, 0xbd,
  0x0d, 0xc5, 0x57, 0x3e, 0x3f, 0x1f, 0xd9, 0xbd, 0xfa, 0x08, 0xa4, 0x3d,
  0xf2, 0xb7, 0x8f, 0xbe, 0x5b, 0xe1, 0x76, 0xbd, 0x67, 0xb8, 0x33, 0xbe,
  0x58, 0xb7, 0x1b, 0xbe, 0xfc, 0x81, 0xac, 0xbd, 0x93, 0xd4, 0x9d, 0xbe,
  0x2a, 0x24, 0xb8, 0x38, 0xfe, 0x2f, 0x74, 0xbd, 0xbf, 0x94, 0x39, 0xbe,
  0x73, 0x12, 0x59, 0x3f, 0x32, 0x8f, 0xeb, 0x3c, 0x5d, 0x16, 0x25, 0xbd,
  0x67, 0x35, 0xaa, 0xbd, 0x06, 0x34, 0x48, 0x3d, 0x15, 0xe7, 0x0e, 0xbe,
  0xf7, 0xe2, 0x27, 0x3d, 0x51, 0xda, 0x38, 0xbe, 0x47, 0x14, 0x09, 0x3e,
  0xdb, 0xcc, 0xca, 0xbd, 0x95, 0x45, 0x78, 0xbe, 0x37, 0xc0, 0x24, 0x3d,
  0x58, 0x70, 0xe4, 0xbe, 0x43, 0xb7, 0x63, 0xbe, 0x0b, 0xf4, 0x87, 0xbc,
  0xb5, 0x75, 0x1a, 0xbe, 0x47, 0xae, 0x90, 0x3f, 0x35, 0xad, 0x08, 0x3e,
  0x65, 0x0b, 0x6c, 0x3d, 0xfd, 0x8f, 0x68, 0xbd, 0x2e, 0x9d, 0xeb, 0x3c,
  0x41, 0x70, 0x7a, 0xbe, 0xcc, 0x69, 0x3b, 0xbe, 0x2d, 0x98, 0x0f, 0xbe,
  0x9a, 0x9d, 0xbe, 0x3d, 0x0e, 0xd6, 0x82, 0xbe, 0xd9, 0x45, 0x7a, 0x3b,
  0x37, 0xf9, 0xcf, 0xbc, 0x2e, 0x75, 0x52, 0xbe, 0x02, 0x4e, 0x07, 0x3e,
  0xef, 0xb2, 0x21, 0xbe, 0xd9, 0x27, 0xd9, 0xbd, 0x6f, 0x71, 0x12, 0x3f,
  0x95, 0xdb, 0x00, 0xbd, 0x86, 0xb0, 0x82, 0xbe, 0x9d, 0x68, 0x1f, 0x3e,
  0x23, 0x15, 0xb1, 0xbd, 0x74, 0xa8, 0x90, 0xbe, 0x0a, 0x5d, 0x2d, 0x3e,
  0xed, 0x34, 0x4b, 0xbe, 0xd9, 0xd2, 0xae, 0x3d, 0xa5, 0xe4, 0x81, 0xbd,
  0x23, 0x32, 0xa1, 0xbd, 0xd5, 0x09, 0x3e, 0xbc, 0x74, 0xe4, 0xcb, 0x3d,
  0x88, 0x41, 0x99, 0xbc, 0xd7, 0xfb, 0x13, 0xbe, 0x57, 0x64, 0x42, 0xbd,
  0x5d, 0x61, 0xff, 0x3e, 0xeb, 0x20, 0xd3, 0x3e, 0xe5, 0x0e, 0x95, 0xbd,
  0xa3, 0xe3, 0x3a, 0xbe, 0x45, 0xb0, 0x25, 0x3d, 0x74, 0x60, 0x91, 0xbe,
  0xe5, 0xec, 0xfa, 0x3d, 0xd8, 0x3e, 0x81, 0xbe, 0x8f, 0x9b, 0xfd, 0x3d,
  0x05, 0x78, 0x25, 0x3b, 0xf7, 0x29, 0xb0, 0x3d, 0x6b, 0x39, 0xc1, 0xbd,
  0xa9, 0xad, 0xa1, 0xbe, 0xf8, 0x6c, 0x1f, 0xbd, 0x23, 0xf6, 0x0b, 0xbe,
  0x9b, 0x6d, 0xd3, 0xbd, 0x49, 0xb3, 0x57, 0x3e, 0x4f, 0xa6, 0x6e, 0x3d,
  0x15, 0x88, 0x1a, 0xbe, 0x34, 0x42, 0xa8, 0x3d, 0x96, 0xcf, 0xf7, 0x3d,
  0x08, 0x74, 0xbe, 0xbe, 0xa5, 0x50, 0x3f, 0xbe, 0x15, 0x16, 0x4b, 0xbe,
  0xd7, 0xba, 0x75, 0xbe, 0xa3, 0xe9, 0x42, 0xbd, 0x63, 0xf8, 0x98, 0xbd,
  0x12, 0x2b, 0xa2, 0xbe, 0x9d, 0x03, 0xb6, 0xbd, 0xf0, 0x9b, 0xd4, 0x3d,
  0x60, 0xf6, 0x90, 0xbe, 0x7a, 0x07, 0xa6, 0x3d, 0x0e, 0xed, 0x2f, 0xbe,
  0xab, 0x0b, 0x51, 0xbe, 0xe8, 0x5a, 0x1a, 0xbd, 0xdf, 0x40, 0xe6, 0x39,
  0xef, 0xe1, 0xfe, 0xbd, 0x66, 0xf9, 0x79, 0x3c, 0x04, 0x80, 0x71, 0x3e,
  0xdf, 0x06, 0x26, 0x3d, 0x66, 0x67, 0xce, 0xbe, 0xd1, 0x33, 0xe1, 0x3e,
  0x53, 0x3c, 0x02, 0xbe, 0x73, 0x8b, 0xa6, 0xbe, 0x30, 0xc4, 0x1a, 0xbe,
  0x6f, 0x8e, 0x9d, 0xbe, 0x84, 0x74, 0x93, 0xbe, 0x5f, 0x44, 0x03, 0x3e,
  0x1b, 0x5f, 0xce, 0x3e, 0x1d, 0x02, 0x42, 0xbe, 0xa7, 0x02, 0x17, 0x3d,
  0xd7, 0x33, 0x81, 0xbd, 0x48, 0xa6, 0x05, 0xbf, 0x75, 0xe4, 0x51, 0x3d,
  0xae, 0x88, 0x82, 0x3d, 0x57, 0x6a, 0x78, 0xbe, 0xa6, 0xb6, 0xc2, 0xbe,
  0x65, 0xa0, 0xf8, 0x3e, 0xec, 0x23, 0xf4, 0xbd, 0x4e, 0xe6, 0x2a, 0x3d,
  0x30, 0xac, 0x30, 0xbd, 0xc9, 0x61, 0x66, 0xbe, 0xad, 0x56, 0x33, 0x3d,
  0x69, 0x83, 0x0b, 0x3f, 0x6e, 0x9e, 0xd6, 0x3e, 0x9d, 0xfa, 0xa3, 0xbd,
  0x0a, 0x9d, 0xbe, 0x3e, 0x2f, 0x77, 0x6f, 0x3d, 0xf8, 0xb5, 0xed, 0xbe,
  0xc5, 0xcb, 0x8d, 0x3d, 0x9b, 0x02, 0x1c, 0xbb, 0xe1, 0x91, 0x81, 0xbd,
  0x0e, 0xf9, 0x49, 0xbe, 0x9e, 0x3d, 0x78, 0x3d, 0x77, 0x95, 0x66, 0x3e,
  0x3d, 0x9c, 0x61, 0xbd, 0xcd, 0x49, 0xa5, 0x3d, 0xe9, 0xb5, 0xbb, 0x3c,
  0x71, 0x7b, 0xf6, 0xbc, 0xdd, 0x24, 0xbe, 0x3e, 0x76, 0xc8, 0x64, 0xbc,
  0xc6, 0xd2, 0x1d, 0xbe, 0xd1, 0x10, 0x70, 0x3e, 0x07, 0xf1, 0x10, 0x3e,
  0xae, 0x5f, 0x1a, 0xbf, 0xb8, 0x1c, 0xc2, 0x3c, 0x6b, 0xee, 0x44, 0xbe,
  0x75, 0x8a, 0xa9, 0x3d, 0xa0, 0x17, 0xc9, 0xbe, 0xf1, 0x39, 0xc1, 0x3e,
  0x04, 0x8d, 0x01, 0x3e, 0x77, 0xdd, 0xc5, 0xbe, 0x32, 0x49, 0xeb, 0xbc,
  0xc9, 0x04, 0x02, 0x3e, 0xe8, 0x64, 0xc9, 0xbe, 0x2e, 0x3e, 0xac, 0x3e,
  0x6b, 0x25, 0x5a, 0x3e, 0xff, 0x2b, 0x63, 0xbd, 0x33, 0xf6, 0xd4, 0x3d,
  0xb1, 0x5d, 0x8e, 0x3e, 0x35, 0x37, 0x5a, 0xbe, 0x6b, 0xbf, 0xdc, 0xbc,
  0x9d, 0xdb, 0x21, 0x3e, 0x8d, 0xad, 0x1a, 0x3d, 0x10, 0x9c, 0xb3, 0x3d,
  0x67, 0xf0, 0xdd, 0x3e, 0x62, 0xd5, 0x4c, 0xbd, 0xe0, 0x9c, 0x73, 0xbe,
  0x5c, 0xb7, 0x02, 0xbd, 0x77, 0xd4, 0x89, 0x3e, 0xe7, 0x31, 0x8f, 0xbe,
  0xfe, 0x87, 0x14, 0x3e, 0x29, 0x62, 0x72, 0x3e, 0x9d, 0x5e, 0x07, 0xbe,
  0xb1, 0xbf, 0x24, 0xbd, 0x79, 0xf9, 0x5d, 0x3e, 0x84, 0x30, 0x5e, 0x3d,
  0x37, 0xbc, 0x8b, 0xbd, 0x2f, 0x9f, 0x37, 0xbe, 0x9d, 0x56, 0xb8, 0x3d,
  0x8e, 0x82, 0x62, 0x3c, 0x65, 0x06, 0xd7, 0x3e, 0xce, 0x62, 0xa3, 0xbd,
  0x70, 0x55, 0x87, 0xbe, 0xa6, 0x7f, 0x35, 0x3c, 0x49, 0xa8, 0xd4, 0x3c,
  0x81, 0x82, 0xa4, 0xbd, 0x6f, 0xc4, 0x8e, 0x3d, 0x60, 0x14, 0xaa, 0x3c,
  0xf8, 0x3a, 0x92, 0xbc, 0xd2, 0x4d, 0x77, 0xbd, 0xa8, 0x41, 0x82, 0xbe,
  0xcd, 0x42, 0xbe, 0xbe, 0x8a, 0x75, 0x96, 0xbd, 0x29, 0xbf, 0x23, 0x3d,
  0x4c, 0x5a, 0x37, 0x3c, 0x36, 0x14, 0x98, 0xbe, 0x1c, 0x56, 0x36, 0x3e,
  0xa7, 0x9c, 0x08, 0xbd, 0x00, 0x9d, 0x98, 0x3d, 0xa8, 0x57, 0xab, 0xbe,
  0x10, 0x9d, 0x09, 0xbe, 0xaf, 0xdb, 0x43, 0xbe, 0x14, 0xa4, 0x7c, 0xbe,
  0x56, 0x0b, 0x8a, 0x3d, 0xa1, 0x68, 0x16, 0x3e, 0x22, 0xa4, 0x18, 0xbe,
  0xc3, 0x42, 0x74, 0x3c, 0xa6, 0xbc, 0x1d, 0x3e, 0xf3, 0x49, 0x23, 0xbd,
  0x4d, 0x43, 0xe0, 0x3e, 0x3c, 0x15, 0xb8, 0xbe, 0x75, 0x3d, 0x08, 0xbe,
  0x60, 0x06, 0x3f, 0xbe, 0xb9, 0xd7, 0x3f, 0xbd, 0xa2, 0x09, 0x78, 0x3d,
  0x9c, 0x9b, 0xf7, 0xbe, 0x1c, 0xec, 0x98, 0xbe, 0xa9, 0x75, 0x72, 0x3d,
  0x91, 0xa8, 0x81, 0xbc, 0xa8, 0xca, 0x0c, 0x3f, 0x4b, 0xbc, 0x81, 0x3e,
  0x1c, 0xd1, 0x0a, 0xbe, 0x07, 0xce, 0xbe, 0x3d, 0x42, 0x04, 0xda, 0x3e,
  0x51, 0xf4, 0xb8, 0xbe, 0xe6, 0xf0, 0x5f, 0x3e, 0x2a, 0xec, 0xba, 0xbd,
  0x8e, 0x24, 0x2f, 0xbe, 0x9d, 0x22, 0xa3, 0xba, 0xf5, 0x79, 0xe3, 0x3c,
  0xee, 0x42, 0xc1, 0xbc, 0x7d, 0x05, 0xe8, 0xbe, 0xe7, 0xb9, 0x93, 0xbe,
  0x21, 0x04, 0x24, 0xbe, 0x14, 0x84, 0x30, 0x3e, 0x1b, 0xca, 0x2d, 0x3f,
  0x01, 0x33, 0x67, 0x3d, 0x8e, 0xb8, 0x0b, 0xbd, 0x5f, 0x11, 0x04, 0xbe,
  0x94, 0xea, 0x4d, 0x3e, 0xc8, 0xe4, 0x17, 0xbe, 0x2a, 0xaa, 0x62, 0x3e,
  0x30, 0x74, 0x97, 0xbd, 0x78, 0x25, 0x01, 0xbe, 0xa7, 0xac, 0x5f, 0xbd,
  0x4f, 0x71, 0x8a, 0xbe, 0xdc, 0xa6, 0x31, 0x3e, 0x48, 0x06, 0xba, 0xbe,
  0xd2, 0xd3, 0x05, 0xbe, 0xf7, 0x15, 0x66, 0xbe, 0x1e, 0x56, 0x97, 0x3c,
  0x01, 0x4a, 0x48, 0x3f, 0x97, 0x33, 0xac, 0xbd, 0xf7, 0x4c, 0x8c, 0x3d,
  0x21, 0xb4, 0x10, 0xbe, 0x8c, 0xa4, 0x68, 0x3d, 0x41, 0x11, 0x48, 0xbe,
  0x94, 0x77, 0xfe, 0xbd, 0xe7, 0x67, 0x71, 0xbe, 0x45, 0xcb, 0xfa, 0xbc,
  0x31, 0x31, 0x10, 0x3e, 0xe7, 0x51, 0x25, 0xbe, 0xa8, 0x20, 0x80, 0xbd,
  0x5a, 0xa4, 0xcd, 0xbe, 0x31, 0x01, 0x68, 0xbd, 0x97, 0x9f, 0x3d, 0xbe,
  0xb1, 0x03, 0x00, 0xbe, 0x01, 0xd6, 0xc6, 0x3e, 0xde, 0x2f, 0x3f, 0x3e,
  0x3b, 0x42, 0xce, 0xbd, 0x5a, 0xcb, 0x34, 0x3c, 0xa6, 0xbf, 0x0b, 0xbe,
  0x0b, 0x9c, 0x4f, 0xbd, 0x80, 0xf6, 0x6b, 0x3e, 0x7d, 0x85, 0x2a, 0xbe,
  0xf2, 0xe4, 0xb7, 0xbc, 0xac, 0x86, 0xe3, 0x3d, 0x8f, 0xfc, 0x22, 0xbe,
  0xc4, 0x26, 0x4b, 0x3c, 0x7d, 0x09, 0x0f, 0xbe, 0x13, 0xbd, 0xf3, 0x3c,
  0x15, 0xe4, 0x68, 0xbe, 0x60, 0x63, 0x34, 0xbe, 0x33, 0xa1, 0x96, 0x3e,
  0xfa, 0x80, 0x62, 0x3e, 0x4d, 0x5a, 0x31, 0xbe, 0xe4, 0x19, 0xe1, 0x3d,
  0x57, 0x27, 0x81, 0x3e, 0x32, 0x98, 0x7e, 0xbe, 0x55, 0x58, 0x72, 0x3e,
  0x42, 0x5b, 0x87, 0xbe, 0xd6, 0x3e, 0xea, 0xbd, 0xf2, 0xc4, 0x1e, 0x3e,
  0x3f, 0x38, 0x34, 0x3d, 0x6b, 0x78, 0x37, 0xbe, 0x2e, 0x8d, 0x37, 0xbe,
  0xa9, 0x15, 0x96, 0xbd, 0xba, 0xec, 0x21, 0xbe, 0x6d, 0x8e, 0x89, 0xbd,
  0xac, 0x28, 0x3f, 0x3e, 0xfa, 0x7d, 0x8c, 0x3e, 0xac, 0x06, 0x56, 0xbe,
  0xdb, 0x63, 0x26, 0x3c, 0x38, 0x9e, 0xe3, 0x3b, 0x83, 0xe2, 0x8f, 0xbe,
  0x82, 0xf9, 0x10, 0xbe, 0xfb, 0x71, 0x00, 0xbe, 0x5e, 0x09, 0x17, 0xbe,
  0x1d, 0x7b, 0xc6, 0xbd, 0xd1, 0x00, 0x87, 0xbe, 0xfb, 0xd2, 0x4d, 0x3e,
  0xfa, 0xd1, 0x47, 0xbc, 0x26, 0x25, 0x6e, 0xbd, 0x47, 0x58, 0xfb, 0x3d,
  0x15, 0x13, 0x76, 0xbe, 0x32, 0x84, 0x09, 0xbc, 0x3f, 0xb9, 0x7f, 0x3e,
  0xda, 0xf5, 0x59, 0xbe, 0x60, 0xb9, 0x4a, 0x39, 0x3c, 0xe2, 0x79, 0x3e,
  0x33, 0xea, 0x05, 0xbe, 0x27, 0x78, 0x9f, 0x3d, 0x5f, 0x92, 0xf0, 0xbc,
  0x54, 0xeb, 0x44, 0x3d, 0x29, 0xc8, 0x03, 0xbe, 0x4c, 0x74, 0x53, 0xbe,
  0x8b, 0xaf, 0xb9, 0x3d, 0xe8, 0x3b, 0x3e, 0xbd, 0xd2, 0x70, 0x1a, 0xbd,
  0x19, 0x9a, 0x72, 0x3e, 0x24, 0x46, 0x4e, 0xbe, 0x39, 0x0f, 0x1c, 0x3e,
  0x64, 0x96, 0x08, 0xbd, 0xe4, 0x57, 0xf0, 0x3d, 0x60, 0xfa, 0x33, 0xbe,
  0x48, 0xb5, 0x91, 0x3e, 0x49, 0xb9, 0x8d, 0xbe, 0x65, 0x14, 0x87, 0x3e,
  0xee, 0xa2, 0x9c, 0x3e, 0xda, 0x79, 0x14, 0xbd, 0x39, 0x39, 0x95, 0xbe,
  0x00, 0x11, 0x68, 0x3a, 0xcf, 0x87, 0x9b, 0x3e, 0x4b, 0x0e, 0xb0, 0xbc,
  0xf6, 0xaf, 0xd2, 0xbd, 0xdc, 0x88, 0x68, 0x3e, 0x63, 0xfa, 0xc6, 0x3d,
  0x75, 0x50, 0xf2, 0x3e, 0x19, 0x3c, 0x91, 0x3e, 0x05, 0x8e, 0xa5, 0x3d,
  0xe6, 0x98, 0x24, 0xbd, 0x1e, 0x10, 0x0a, 0x3f, 0x27, 0xe5, 0x94, 0xbe,
  0x4a, 0xc1, 0x87, 0x3e, 0xfe, 0xfa, 0x03, 0x3e, 0x02, 0xaa, 0xc4, 0xbe,
  0xdd, 0x75, 0x2d, 0x3d, 0x6e, 0xa5, 0xcd, 0x3d, 0xce, 0xd4, 0x29, 0x3e,
  0x30, 0x98, 0x6d, 0x3d, 0xbe, 0x1d, 0x5e, 0xbe, 0x55, 0xe6, 0x83, 0x3e,
  0xc0, 0x20, 0x80, 0x3e, 0x03, 0xbd, 0x83, 0x3d, 0x7f, 0x9d, 0xf5, 0x3e,
  0xe4, 0x1c, 0x5d, 0x3e, 0xd1, 0x57, 0x47, 0xbe, 0xb7, 0xa1, 0xc3, 0x3e,
  0xc2, 0x7d, 0x90, 0xbe, 0x99, 0xa3, 0x89, 0x3e, 0xbb, 0xd1, 0x8d, 0x3d,
  0xea, 0x33, 0x9b, 0xbe, 0x06, 0x55, 0x73, 0xbc, 0x33, 0xbc, 0x9f, 0x3e,
  0x90, 0xba, 0xa4, 0xbb, 0xe7, 0xf0, 0xdd, 0xbc, 0xca, 0xe6, 0x5a, 0xbe,
  0x31, 0x3a, 0x8a, 0x3e, 0xc4, 0x28, 0xbb, 0xbc, 0x30, 0x39, 0x2a, 0xbe,
  0x59, 0xa0, 0xb1, 0x3e, 0x42, 0x65, 0x1b, 0xbe, 0xc0, 0xde, 0x4b, 0xbe,
  0x87, 0x69, 0x34, 0xbd, 0x06, 0xe3, 0x09, 0xbf, 0x15, 0x95, 0x12, 0xbd,
  0x1d, 0x7e, 0x9b, 0x3d, 0x01, 0x51, 0x37, 0xbe, 0xec, 0x3f, 0xdd, 0xbc,
  0xef, 0xaa, 0xe1, 0xbc, 0x81, 0xad, 0x11, 0xbd, 0x02, 0x17, 0xcd, 0xbd,
  0x58, 0x75, 0x41, 0xbe, 0xbb, 0x06, 0x3c, 0x3e, 0x8e, 0x56, 0x9d, 0xbd,
  0x33, 0xa4, 0x8c, 0xbd, 0x1d, 0x06, 0xbb, 0x3e, 0x1d, 0xfc, 0x47, 0xbe,
  0x22, 0xff, 0x8f, 0x3d, 0x63, 0xb5, 0xd8, 0xbc, 0xe2, 0xec, 0x96, 0xbe,
  0xe7, 0x74, 0xda, 0x3c, 0x7b, 0x6b, 0x58, 0x3d, 0x70, 0xf2, 0x01, 0xbe,
  0xf8, 0xc3, 0xdb, 0x3d, 0xe2, 0xd4, 0x72, 0xbd, 0x2a, 0xa5, 0x20, 0xbb,
  0x3f, 0xf1, 0x3a, 0xbe, 0xdc, 0xc2, 0xe0, 0xbe, 0x96, 0xff, 0xba, 0x3e,
  0x7f, 0x44, 0x85, 0xbe, 0xcd, 0x5e, 0x34, 0x3d, 0x72, 0xd6, 0x4b, 0x3e,
  0x09, 0xdf, 0x0f, 0xbe, 0xb1, 0xe0, 0xa3, 0x3c, 0x41, 0xc9, 0x4c, 0x3e,
  0x7a, 0xb2, 0x91, 0xbe, 0x9f, 0xf5, 0xbd, 0xbc, 0x19, 0x8c, 0x82, 0xbd,
  0xb6, 0x34, 0x7c, 0xbe, 0x4e, 0xf2, 0x37, 0x3d, 0xcf, 0xe1, 0x4e, 0xbe,
  0x1c, 0x93, 0x16, 0x3c, 0x38, 0xd0, 0xb7, 0x3c, 0x1c, 0xba, 0x9c, 0xbe,
  0x7e, 0xb4, 0xcb, 0xbe, 0xec, 0x80, 0xe8, 0xbe, 0xa2, 0x13, 0xad, 0x3d,
  0x70, 0x67, 0x5c, 0x3e, 0x10, 0x2d, 0xd6, 0xbe, 0x9e, 0xce, 0x34, 0x3f,
  0xe8, 0x14, 0x10, 0x3f, 0x85, 0x22, 0x43, 0xbe, 0x06, 0x6d, 0xe5, 0x3e,
  0x01, 0xaa, 0xcf, 0xbd, 0x5b, 0xaf, 0x8b, 0x3d, 0x0f, 0x33, 0x58, 0xbe,
  0x43, 0xf9, 0x4c, 0x3d, 0x63, 0x6b, 0x0e, 0x3e, 0xc8, 0x9c, 0x22, 0x3e,
  0x3c, 0x9d, 0x08, 0xbe, 0xf8, 0xd7, 0xb9, 0x3d, 0xb2, 0xfe, 0x7f, 0xbd,
  0x0b, 0x36, 0x10, 0xbe, 0xa3, 0x9c, 0x86, 0x3e, 0x5e, 0x3d, 0x45, 0xbe,
  0x2f, 0xf4, 0x0f, 0x3e, 0x1b, 0xd5, 0x9f, 0x3e, 0x00, 0x79, 0x4c, 0x3d,
  0xd3, 0x07, 0x5b, 0x3e, 0x71, 0x01, 0x16, 0xbe, 0x36, 0x60, 0x62, 0xbd,
  0x31, 0x15, 0xe4, 0xbd, 0x7f, 0xc8, 0x70, 0xbe, 0x80, 0x4b, 0x6e, 0x3d,
  0x50, 0xf1, 0xa6, 0x3d, 0x9d, 0x8e, 0xcd, 0xbd, 0x96, 0x69, 0xab, 0x3d,
  0x99, 0x01, 0x01, 0xbe, 0x2d, 0xcd, 0xb2, 0x3d, 0xfd, 0x1a, 0xf6, 0x3e,
  0x4b, 0x6e, 0xb4, 0xbd, 0x9b, 0xc8, 0x8e, 0x3e, 0x14, 0x22, 0x6e, 0x3e,
  0xd6, 0x18, 0x96, 0xbe, 0x9e, 0x2a, 0xff, 0x3e, 0x4b, 0x6e, 0x39, 0x3c,
  0xd1, 0xe6, 0x1b, 0xbc, 0x3f, 0xa0, 0xfd, 0xbd, 0xc6, 0x7f, 0x75, 0x3c,
  0x11, 0xab, 0x73, 0x3e, 0x5d, 0xa0, 0x35, 0xbc, 0x34, 0xa8, 0x8f, 0xbe,
  0x41, 0xda, 0x53, 0x3e, 0xd0, 0x1c, 0x49, 0xbe, 0x5a, 0x9b, 0x39, 0x3c,
  0xef, 0x24, 0x6d, 0x3e, 0xe2, 0x5c, 0x5c, 0xbd, 0xc2, 0xe4, 0x92, 0x3d,
  0x02, 0x6a, 0x45, 0x3f, 0x05, 0x60, 0x0c, 0xbd, 0xef, 0x29, 0x88, 0x3d,
  0x56, 0x3d, 0x7f, 0xbd, 0x6d, 0xec, 0x6c, 0xbd, 0x8f, 0x8a, 0x99, 0xbe,
  0x48, 0xe9, 0x0a, 0x3d, 0x8c, 0x3f, 0x26, 0xbe, 0x6b, 0xfe, 0xd8, 0x3d,
  0x9b, 0xa2, 0x7f, 0xbe, 0x28, 0xd7, 0x97, 0x3c, 0x92, 0xeb, 0x25, 0xbd,
  0x81, 0x2e, 0x61, 0xbd, 0xbe, 0x7d, 0xf9, 0x3e, 0xcf, 0x95, 0x6d, 0x3d,
  0x2a, 0x12, 0x81, 0xbe, 0x38, 0xbb, 0xc0, 0x3d, 0xf1, 0x4e, 0xd2, 0xbd,
  0x45, 0xe6, 0x53, 0x3e, 0xce, 0x5d, 0x27, 0x3c, 0x95, 0x0c, 0xb1, 0xbd,
  0x99, 0xdf, 0x90, 0xbe, 0x3d, 0x9d, 0xab, 0x3e, 0x3b, 0x3e, 0x6f, 0xbd,
  0xff, 0xfb, 0x18, 0x3d, 0x59, 0x7b, 0x0b, 0xbe, 0x9f, 0x8b, 0xa6, 0x3d,
  0x3b, 0xc1, 0xbb, 0xbd, 0x9d, 0x07, 0xb4, 0xbd, 0xfd, 0x2a, 0xbb, 0x3e,
  0x77, 0x07, 0xb1, 0xba, 0xee, 0xf5, 0x58, 0xbe, 0x2f, 0x1c, 0x84, 0x3e,
  0xd2, 0xbf, 0x3a, 0xbe, 0x04, 0x0f, 0x67, 0x3d, 0x13, 0xb8, 0x0d, 0xbe,
  0x7f, 0x1d, 0x38, 0xbc, 0xf4, 0xb7, 0x99, 0xbd, 0x30, 0x06, 0xc4, 0xbc,
  0xf2, 0xbe, 0x12, 0xbe, 0x23, 0xe8, 0x6a, 0x3c, 0xdf, 0x97, 0x7f, 0x3d,
  0xd4, 0x4d, 0xc2, 0xbd, 0x64, 0x12, 0x79, 0xbe, 0x40, 0xef, 0xc3, 0xbe,
  0xcf, 0x62, 0x05, 0x3f, 0x28, 0x31, 0x8d, 0xbc, 0x01, 0xd0, 0xf3, 0xbd,
  0x75, 0x3f, 0x6f, 0xbc, 0xc0, 0xbd, 0xb7, 0xbc, 0xfe, 0x74, 0x45, 0xbe,
  0xed, 0xc9, 0x1b, 0xbe, 0x00, 0xe4, 0x6b, 0xbc, 0x01, 0x3c, 0x77, 0xbe,
  0xef, 0x6b, 0x8e, 0x3d, 0xe8, 0xc3, 0x7a, 0x3d, 0x82, 0xab, 0x0a, 0x3d,
  0x6d, 0x71, 0xd3, 0x3c, 0xdb, 0xae, 0xf1, 0x3d, 0xe8, 0xe2, 0x49, 0x3e,
  0x68, 0x83, 0x45, 0x3b, 0x51, 0xb1, 0x32, 0xbe, 0xc4, 0xd6, 0x90, 0x3e,
  0x76, 0xbf, 0x38, 0xbd, 0x95, 0xc0, 0x87, 0xbe, 0xaf, 0xa1, 0x26, 0x3e,
  0xd3, 0xa7, 0xfe, 0x3d, 0xff, 0x0a, 0x52, 0x3d, 0x1c, 0x70, 0x3a, 0xbe,
  0x54, 0x9d, 0x01, 0x3e, 0x0d, 0x5f, 0xf4, 0x3d, 0x3b, 0x4a, 0x89, 0x3d,
  0x0a, 0xdb, 0x8b, 0xbb, 0x67, 0x22, 0xfb, 0xbd, 0xaa, 0xc6, 0x13, 0xbe,
  0x9d, 0x73, 0xc9, 0x3d, 0xf0, 0x32, 0x32, 0x3e, 0x64, 0x96, 0x3e, 0xbd,
  0x73, 0xd1, 0x73, 0x3e, 0x0d, 0xd2, 0x4a, 0x3d, 0x83, 0x4e, 0xbe, 0xbd,
  0x5c, 0xeb, 0xe1, 0xbd, 0xca, 0x60, 0x6b, 0x3d, 0x7a, 0x9a, 0x79, 0xbd,
  0x51, 0x7a, 0x1b, 0x3d, 0xb5, 0x8d, 0x15, 0x3e, 0x7e, 0x39, 0x82, 0x3e,
  0x47, 0x53, 0x70, 0xbd, 0x21, 0xe9, 0xd6, 0xbc, 0xbd, 0xc9, 0xf1, 0x3c,
  0x6a, 0xa6, 0x93, 0xbe, 0x12, 0xe8, 0x03, 0x3e, 0x54, 0xa8, 0x3a, 0x3e,
  0xd9, 0xb1, 0xb9, 0xbd, 0x28, 0x67, 0x2b, 0xbc, 0xf4, 0x21, 0xcb, 0x3c,
  0x33, 0x99, 0x2d, 0xbd, 0x80, 0xa2, 0xb7, 0xbd, 0xb0, 0xd2, 0x4e, 0xbd,
  0xeb, 0x0d, 0xaa, 0xbd, 0xce, 0x78, 0x26, 0x3e, 0xde, 0xaa, 0x89, 0x3d,
  0x32, 0xba, 0x85, 0xbc, 0xb6, 0x26, 0x60, 0xbe, 0x48, 0x80, 0x56, 0xbd,
  0x21, 0xd4, 0xaa, 0x3c, 0x33, 0x74, 0x75, 0xbe, 0x0e, 0x23, 0xdb, 0x3d,
  0xc9, 0x61, 0x1b, 0x3e, 0x8f, 0x2f, 0x84, 0xbc, 0x90, 0xe7, 0x59, 0x3d,
  0x2b, 0x7a, 0x11, 0x3d, 0x8c, 0x00, 0xc8, 0x3c, 0xc0, 0xde, 0xa2, 0xbd,
  0xd7, 0xdb, 0xad, 0xbe, 0x3f, 0x3a, 0xce, 0xbd, 0xef, 0x5d, 0x71, 0x3d,
  0xf2, 0x2d, 0xe7, 0x3d, 0x83, 0xd8, 0xf2, 0xbd, 0x00, 0xc0, 0xb5, 0x3c,
  0x6c, 0xfe, 0xd1, 0xbc, 0xee, 0x52, 0x9c, 0x3d, 0x61, 0xe1, 0xd6, 0xbd,
  0x2a, 0x28, 0x3c, 0x3d, 0x49, 0x5c, 0xb1, 0x3e, 0x73, 0x9b, 0xa1, 0xbd,
  0xa0, 0x6a, 0xff, 0x3d, 0xc0, 0x02, 0xab, 0xbd, 0x90, 0x75, 0xb0, 0xbd,
  0x38, 0x7e, 0x93, 0x3b, 0xc8, 0x19, 0x20, 0x3e, 0x47, 0x05, 0x17, 0xbd,
  0xc0, 0x6d, 0x56, 0xbd, 0xa1, 0x0d, 0x58, 0x3b, 0x3b, 0x77, 0xd8, 0xbc,
  0xb5, 0x6d, 0xc7, 0x3d, 0xb3, 0xc4, 0x60, 0xbc, 0x38, 0x6e, 0x11, 0x3d,
  0xcd, 0xd1, 0x86, 0xbd, 0x80, 0x99, 0xfa, 0x3d, 0x4c, 0xb7, 0x4b, 0x3e,
  0x22, 0x17, 0xdd, 0xbd, 0x47, 0xf1, 0x07, 0x3e, 0xc0, 0xd3, 0x94, 0x3d,
  0xa8, 0xa6, 0x7e, 0xbd, 0x80, 0x07, 0x66, 0x3d, 0x86, 0x90, 0x12, 0x3d,
  0xca, 0xd6, 0x8a, 0x3d, 0xbe, 0x67, 0x2b, 0xbe, 0x4d, 0xf4, 0x4d, 0x3d,
  0x6f, 0x11, 0x4d, 0x3e, 0x0c, 0xcd, 0x6b, 0x3e, 0xc8, 0x0d, 0xcb, 0xba,
  0x92, 0x48, 0x14, 0xba, 0xee, 0xdf, 0x95, 0xba, 0xb5, 0x77, 0xa8, 0x3d,
  0xed, 0x49, 0x3d, 0x3e, 0x88, 0xc2, 0x3e, 0xbe, 0x99, 0xe5, 0x4a, 0xbd,
  0x5d, 0x9f, 0xf9, 0x3c, 0xe4, 0x49, 0x01, 0xbe, 0x66, 0x94, 0x88, 0xbd,
  0x80, 0x60, 0x2e, 0x3e, 0x7f, 0x82, 0xd2, 0x3d, 0xdc, 0xce, 0x0e, 0x3b,
  0xe1, 0xfc, 0xf1, 0x3b, 0x23, 0xd5, 0x80, 0xbd, 0x47, 0xaa, 0x9c, 0x3e,
  0xb2, 0xf8, 0x17, 0x3e, 0x6d, 0xda, 0x00, 0xbf, 0xa7, 0x9f, 0xb4, 0x3e,
  0xa4, 0xc6, 0x3a, 0x3c, 0x19, 0x72, 0x37, 0xbe, 0xc7, 0x48, 0xf2, 0xbd,
  0x0a, 0x64, 0xb2, 0x3e, 0x13, 0xdc, 0x2c, 0xbe, 0xa4, 0xa9, 0x01, 0xbf,
  0xd3, 0xda, 0x50, 0x3e, 0xff, 0xf8, 0x05, 0x3d, 0x68, 0xa9, 0xaf, 0xbd,
  0xa3, 0xc6, 0x09, 0xbe, 0xf9, 0x31, 0xc3, 0xbe, 0xdb, 0xcb, 0x26, 0x3e,
  0x5c, 0x64, 0x9d, 0x3d, 0x40, 0x3d, 0x87, 0xbd, 0x19, 0xf7, 0x24, 0xbe,
  0x40, 0x6c, 0x03, 0xbe, 0x1b, 0x46, 0x52, 0x3e, 0x52, 0xdc, 0x6a, 0xbe,
  0x2c, 0x6c, 0xd2, 0x3b, 0x9d, 0x1b, 0x29, 0x3d, 0x17, 0x00, 0x5b, 0xbe,
  0xb8, 0xd9, 0xb7, 0xbb, 0x6e, 0xb9, 0x9e, 0xbd, 0x6a, 0xd2, 0xb8, 0xbd,
  0xc9, 0x26, 0xa4, 0xbd, 0x80, 0xcd, 0xf4, 0x3d, 0xbf, 0x1e, 0x80, 0xbe,
  0x5d, 0xd1, 0xc3, 0xbd, 0xbe, 0xd2, 0x33, 0xbe, 0x20, 0xff, 0x80, 0xbd,
  0x2f, 0x75, 0x78, 0x3d, 0x26, 0x46, 0xc5, 0xbd, 0xdd, 0xf6, 0x7d, 0xbe,
  0x6a, 0x98, 0x2b, 0xbf, 0xdb, 0xff, 0x5e, 0xbe, 0x19, 0x82, 0x00, 0x3d,
  0x42, 0x87, 0xee, 0xbc, 0x4e, 0x74, 0x39, 0x3d, 0x38, 0x3f, 0x41, 0xbe,
  0x28, 0x3b, 0xaa, 0xbd, 0x1a, 0x34, 0x03, 0xbf, 0xb9, 0x18, 0xff, 0x3c,
  0xff, 0x2c, 0x19, 0xbf, 0xe5, 0x3e, 0xa6, 0xbe, 0xd1, 0xf4, 0x63, 0x3c,
  0x97, 0xd0, 0x86, 0xbd, 0x0c, 0xee, 0x03, 0x3e, 0x39, 0x59, 0x1b, 0xbe,
  0xdc, 0x7b, 0xeb, 0xbe, 0x33, 0x56, 0x64, 0x3e, 0xe8, 0x50, 0x4c, 0xbc,
  0x54, 0x25, 0x33, 0xbf, 0xf7, 0xc0, 0x32, 0x3d, 0x42, 0x93, 0xe0, 0x3d,
  0xfc, 0x92, 0x52, 0xbd, 0xf9, 0xfd, 0xee, 0xbd, 0x59, 0xa6, 0xc9, 0xbe,
  0x91, 0x5b, 0xdf, 0xbc, 0x4c, 0x88, 0x1a, 0xbf, 0x08, 0xc1, 0xcb, 0xbe,
  0xb7, 0x0f, 0x24, 0x3e, 0x9d, 0xf2, 0x5f, 0xbb, 0x1a, 0x25, 0x40, 0xbd,
  0x06, 0x94, 0xdb, 0x3d, 0x9c, 0x9a, 0x15, 0xbe, 0x46, 0x22, 0x89, 0x3e,
  0x54, 0x09, 0x3e, 0xbe, 0x13, 0x3f, 0x38, 0x3e, 0x5b, 0x86, 0x9f, 0xbe,
  0x3d, 0x1c, 0x0a, 0x3e, 0x2f, 0xc1, 0x83, 0xbc, 0xb9, 0xd1, 0x8d, 0x3e,
  0x00, 0xca, 0x92, 0xbe, 0x79, 0x92, 0x51, 0xbd, 0x58, 0x77, 0xea, 0xbe,
  0x1a, 0xe8, 0x83, 0xbd, 0x0d, 0x75, 0xe0, 0x3d, 0x36, 0xd0, 0x0b, 0xbd,
  0x26, 0x78, 0x0d, 0xbe, 0x60, 0x61, 0xbf, 0xbd, 0xb4, 0x4e, 0x86, 0x3d,
  0x08, 0xe6, 0x51, 0x3e, 0x07, 0xa3, 0x5c, 0xbd, 0x14, 0xee, 0xf8, 0x3d,
  0xaa, 0xbf, 0xc7, 0xbe, 0x39, 0xed, 0x28, 0xbe, 0x13, 0xfe, 0x64, 0xbd,
  0x32, 0xb1, 0xaa, 0x3d, 0x5d, 0x4e, 0x02, 0xbd, 0xa3, 0x40, 0x96, 0xbe,
  0x42, 0x0f, 0x82, 0xbe, 0x6c, 0xdf, 0xa9, 0x3e, 0x1d, 0x89, 0x9c, 0x3e,
  0x9f, 0x12, 0x37, 0x3c, 0x0f, 0x9d, 0x12, 0xbe, 0x6e, 0x0a, 0x17, 0x3d,
  0xd0, 0x00, 0xee, 0x3d, 0xdd, 0xe8, 0x81, 0x3e, 0xb5, 0xcd, 0xe8, 0xbd,
  0x14, 0xca, 0x86, 0x3d, 0x20, 0x1b, 0x38, 0xbe, 0x74, 0xa5, 0xc6, 0xbc,
  0xf5, 0x56, 0x4e, 0x3e, 0xaf, 0x0c, 0xba, 0x3e, 0x1b, 0xe6, 0x80, 0x3d,
  0x39, 0x5f, 0x80, 0x3c, 0x0a, 0x2e, 0x4d, 0xbe, 0xa8, 0xd7, 0xc7, 0x3c,
  0xbe, 0x9b, 0xab, 0xbe, 0x0a, 0x00, 0x12, 0xbe, 0x9e, 0xe1, 0xb8, 0xbe,
  0x6b, 0x50, 0x6c, 0xbe, 0x86, 0xa9, 0x0e, 0xbf, 0xf2, 0x0f, 0x1f, 0xbd,
  0x78, 0x55, 0xd9, 0xbc, 0xb3, 0x49, 0x04, 0xbe, 0xdf, 0xc9, 0xa5, 0xbe,
  0x39, 0x23, 0x83, 0xbe, 0x09, 0x41, 0x3c, 0xbe, 0x05, 0xfa, 0x9a, 0xbd,
  0x0f, 0x7d, 0x26, 0xbf, 0xd4, 0x5e, 0xaa, 0xbc, 0x15, 0x93, 0x69, 0xbd,
  0xb7, 0xa1, 0x84, 0xbe, 0x64, 0x7d, 0xe3, 0xbd, 0x4e, 0x3f, 0x0f, 0xbd,
  0xf9, 0x09, 0xcf, 0xbe, 0x3d, 0xcb, 0x87, 0xb8, 0x10, 0x42, 0x7f, 0xbe,
  0x0a, 0x54, 0xa2, 0xbe, 0x55, 0xe4, 0x14, 0xbf, 0x5d, 0xdc, 0x75, 0xbe,
  0xde, 0x8f, 0xa5, 0xbe, 0x60, 0xbb, 0x44, 0xbe, 0x49, 0xb1, 0xae, 0xbe,
  0x13, 0x34, 0x71, 0x3c, 0x60, 0x2e, 0x0c, 0xbe, 0x08, 0xa9, 0x65, 0x3c,
  0xa3, 0xd4, 0x25, 0xbe, 0x47, 0xe6, 0x88, 0xbe, 0xc2, 0xed, 0x6a, 0xbe,
  0x40, 0xd6, 0xd1, 0xbc, 0x85, 0x2b, 0x89, 0xbe, 0x10, 0xe4, 0x22, 0x3d,
  0x26, 0x05, 0x98, 0xbd, 0xa9, 0x24, 0x24, 0xbe, 0x8f, 0xd4, 0xa7, 0xbe,
  0xc2, 0x96, 0xc6, 0xbd, 0x29, 0x22, 0x2b, 0xbe, 0xa9, 0x29, 0x89, 0xbe,
  0xd5, 0xd3, 0xa8, 0xbe, 0xfc, 0x87, 0x0c, 0xbe, 0xa1, 0x10, 0xd2, 0xbc,
  0x6e, 0x4d, 0x2c, 0x3e, 0x48, 0x3c, 0x4c, 0xbe, 0x45, 0xfa, 0x12, 0xbe,
  0xe1, 0xbd, 0x79, 0xbe, 0x72, 0x71, 0x83, 0xbd, 0x4e, 0x34, 0x38, 0xbf,
  0xce, 0xc0, 0xb1, 0x3d, 0xa3, 0x70, 0x1e, 0xbf, 0xb2, 0xfb, 0x23, 0xbf,
  0x8d, 0x4c, 0x15, 0xbf, 0x83, 0x52, 0x99, 0xbe, 0x03, 0xbe, 0x9d, 0xbe,
  0x9e, 0xac, 0xee, 0xbe, 0x5d, 0xfe, 0x88, 0xbe, 0xa2, 0xff, 0x26, 0xbe,
  0xff, 0x79, 0x1a, 0xbf, 0x68, 0x4b, 0xdb, 0x3c, 0xae, 0xa3, 0x8d, 0xbe,
  0x64, 0x67, 0x88, 0xbe, 0xba, 0xcd, 0x95, 0x3e, 0x36, 0xbb, 0xfe, 0xbd,
  0xd5, 0x1e, 0x81, 0xbd, 0x15, 0xe4, 0x35, 0xbe, 0x76, 0x47, 0xa2, 0xba,
  0x8a, 0x89, 0xcb, 0x3e, 0x75, 0xf4, 0x72, 0xbe, 0x41, 0x17, 0xb3, 0xbe,
  0x9d, 0xe7, 0xb5, 0xbe, 0xfa, 0xc5, 0xb4, 0x3d, 0x44, 0xeb, 0xa2, 0xbd,
  0xce, 0x10, 0xbc, 0x3c, 0xe0, 0x9c, 0x9d, 0xbe, 0x95, 0xdb, 0xaf, 0x3c,
  0x36, 0xcc, 0xd4, 0xbe, 0xba, 0xe2, 0x24, 0xbb, 0x8d, 0x90, 0x09, 0xbc,
  0x55, 0x7e, 0x31, 0x3c, 0xe7, 0xe3, 0x82, 0xbe, 0xdd, 0xef, 0xc8, 0x3d,
  0x17, 0x1b, 0xa8, 0xbd, 0x98, 0x11, 0x0d, 0x3e, 0x33, 0xd0, 0xf9, 0xbe,
  0xb9, 0x73, 0x02, 0x3e, 0xbe, 0xfa, 0xb1, 0xbe, 0x5e, 0x8c, 0x9f, 0xbe,
  0xd5, 0xfd, 0x1f, 0xbd, 0x2f, 0xa5, 0xb8, 0x3e, 0xc8, 0x38, 0x57, 0x3d,
  0xdd, 0x7f, 0xea, 0x3a, 0xec, 0x0b, 0xd9, 0xbe, 0x19, 0xe6, 0x2b, 0x3e,
  0x19, 0x75, 0x88, 0x3e, 0x67, 0x5f, 0xd1, 0x3d, 0x97, 0xc8, 0xdc, 0xbd,
  0xfc, 0xbb, 0x2e, 0x3e, 0x02, 0x1a, 0xd7, 0x3d, 0xb2, 0x55, 0x72, 0x3e,
  0x9c, 0x9d, 0x48, 0xbe, 0x0d, 0xe2, 0x04, 0x3e, 0x4f, 0x09, 0x28, 0xbb,
  0x54, 0x40, 0x14, 0xbd, 0x45, 0x59, 0x9f, 0x3e, 0x23, 0xe0, 0xc9, 0x3e,
  0x67, 0xe5, 0xf2, 0x3d, 0x47, 0xb6, 0xb7, 0xbe, 0xa1, 0x41, 0x05, 0xbe,
  0x49, 0x26, 0x94, 0xbd, 0x6a, 0xc2, 0x3f, 0xbe, 0x20, 0x62, 0x5d, 0xbe,
  0x97, 0x30, 0xd0, 0x3e, 0xa4, 0xa9, 0x24, 0xbd, 0x7f, 0x57, 0x84, 0x3e,
  0x5d, 0x84, 0x7e, 0x3d, 0x59, 0x39, 0xc6, 0x3d, 0xdf, 0xbd, 0xbd, 0xbd,
  0x52, 0x60, 0xc8, 0x3c, 0x74, 0x9f, 0xf7, 0xbd, 0xa8, 0x4f, 0x1f, 0x3c,
  0xf8, 0x32, 0x92, 0x3e, 0x49, 0x0c, 0x05, 0xbe, 0x69, 0x4a, 0xdf, 0x3d,
  0x09, 0x61, 0x71, 0x3e, 0x30, 0xee, 0x3c, 0xbe, 0x8c, 0xcb, 0x64, 0xbe,
  0x30, 0x78, 0x19, 0xbe, 0x59, 0x08, 0x7c, 0xbe, 0xe7, 0x4c, 0x56, 0xbc,
  0x8a, 0x82, 0xcc, 0xbd, 0x2f, 0x4e, 0x12, 0x3f, 0xea, 0xd4, 0x8e, 0xbd,
  0x9a, 0x47, 0x6e, 0x3e, 0x92, 0x5c, 0x94, 0xbd, 0x04, 0x39, 0x9a, 0xbe,
  0x17, 0x9d, 0x44, 0xbd, 0x00, 0x97, 0x67, 0x3e, 0x25, 0x4d, 0x8d, 0xbe,
  0xd2, 0x35, 0x2d, 0x3e, 0x0f, 0x56, 0xa3, 0x3c, 0xb8, 0xb7, 0xaf, 0xbc,
  0x73, 0x83, 0x1d, 0x3d, 0xcf, 0x71, 0x04, 0xbe, 0xf0, 0x23, 0xf0, 0xbd,
  0x59, 0x3e, 0x74, 0xbd, 0xd0, 0x46, 0x3e, 0x3e, 0x0c, 0x17, 0x2d, 0x3f,
  0x2a, 0x48, 0xe4, 0x3d, 0xfb, 0x96, 0xbc, 0x3e, 0x83, 0x3b, 0xb7, 0xbd,
  0xbd, 0x26, 0xe6, 0xbd, 0x14, 0xba, 0x47, 0xbe, 0x87, 0xfe, 0x27, 0x3e,
  0x91, 0x9f, 0x13, 0x3e, 0xd0, 0xaf, 0x5e, 0xbe, 0xe3, 0x96, 0x9b, 0x3b,
  0x3d, 0x0b, 0x4b, 0x3e, 0x90, 0x83, 0xa6, 0xbd, 0xa7, 0xdd, 0xf9, 0xbd,
  0xf6, 0xc4, 0xc2, 0x3d, 0xa7, 0xba, 0x72, 0xbe, 0x3b, 0x0e, 0xdd, 0x3e,
  0x20, 0xe6, 0xd4, 0x3e, 0xa5, 0x6c, 0xba, 0xbd, 0x50, 0x02, 0xcc, 0x3e,
  0x6a, 0x53, 0xef, 0x3d, 0x02, 0x95, 0x1f, 0xbe, 0x3e, 0x37, 0x7f, 0xbe,
  0x68, 0x52, 0xfc, 0xbc, 0x91, 0x59, 0xdc, 0xbd, 0x4c, 0x6e, 0x2e, 0xbe,
  0x15, 0x3f, 0x86, 0xbc, 0xab, 0xc7, 0x94, 0x3d, 0x9b, 0xa3, 0x23, 0xbb,
  0xba, 0x4a, 0x09, 0xbd, 0x12, 0x10, 0xd5, 0x3d, 0x14, 0x3b, 0xa1, 0xbe,
  0x1a, 0x35, 0xfb, 0x3e, 0x6d, 0x85, 0x14, 0x3f, 0xd3, 0x08, 0x1a, 0xbe,
  0x44, 0xb3, 0x5e, 0x3e, 0x9c, 0xe3, 0x85, 0xbd, 0x96, 0x94, 0xa9, 0xbc,
  0xd9, 0x7a, 0x05, 0xbe, 0xad, 0x7b, 0x02, 0x3e, 0xa4, 0x9e, 0xa4, 0xbd,
  0x93, 0x9f, 0x0c, 0xbe, 0x4c, 0x28, 0xef, 0x3e, 0xbd, 0xb4, 0x2d, 0x3d,
  0x3d, 0x99, 0x2c, 0xbe, 0x10, 0x6d, 0x03, 0xbe, 0xd7, 0x0a, 0x66, 0xbe,
  0x10, 0x68, 0xff, 0x3c, 0x57, 0x2c, 0xdb, 0x3d, 0x95, 0x28, 0x03, 0x3f,
  0x3d, 0x84, 0xa5, 0xbc, 0xde, 0xd4, 0x89, 0xbe, 0x7f, 0xb3, 0x96, 0x3c,
  0x05, 0x68, 0x33, 0xbe, 0xee, 0x3b, 0xe7, 0x3c, 0x2d, 0xa8, 0xa1, 0x3e,
  0x87, 0xfc, 0x3a, 0xbe, 0xb0, 0xd2, 0x26, 0xbd, 0xf5, 0x58, 0xe1, 0x3d,
  0xe8, 0x21, 0x2c, 0xbe, 0xf1, 0x5c, 0x17, 0xbe, 0x81, 0x40, 0x4a, 0xbd,
  0xbd, 0x43, 0x0f, 0xbd, 0x8d, 0xfd, 0x75, 0xbd, 0x61, 0x60, 0x2e, 0x3e,
  0x7f, 0x27, 0x51, 0x3e, 0x8d, 0xc5, 0xb5, 0xbd, 0x1a, 0x2f, 0x0f, 0xbe,
  0xec, 0x80, 0x13, 0x3d, 0xff, 0x20, 0x87, 0x3d, 0x1d, 0x7c, 0x2f, 0xbe,
  0xb8, 0x21, 0xcc, 0xbd, 0x08, 0x7f, 0xed, 0xbd, 0x3c, 0x31, 0xed, 0x3d,
  0x24, 0xca, 0xa9, 0xbc, 0x92, 0x26, 0x5a, 0xbe, 0x71, 0x13, 0xfc, 0xbe,
  0x32, 0x13, 0x80, 0xbd, 0xa5, 0x37, 0x9e, 0x3e, 0x67, 0xb3, 0x16, 0xbe,
  0xf4, 0xe2, 0x20, 0x3e, 0xfd, 0x5e, 0x9d, 0x3d, 0xdc, 0xe9, 0x6c, 0xbe,
  0x54, 0x14, 0x0f, 0xbe, 0x43, 0xa2, 0x07, 0x3d, 0xa9, 0x6e, 0xb3, 0xbd,
  0x0d, 0x7a, 0xe4, 0x3d, 0xe0, 0x6e, 0x01, 0x3e, 0x5b, 0xc2, 0x8b, 0x3d,
  0x0e, 0xf1, 0x1a, 0xbf, 0x40, 0x29, 0xfe, 0x3e, 0x98, 0x74, 0xd3, 0xbd,
  0x09, 0x6c, 0xaf, 0xbe, 0xd8, 0x96, 0xed, 0xbd, 0xc0, 0x3d, 0xe0, 0xbc,
  0x29, 0x27, 0x90, 0xbe, 0x36, 0xa6, 0x80, 0x3d, 0xd0, 0x5e, 0xae, 0x3e,
  0x86, 0x37, 0x51, 0x3d, 0xae, 0xd2, 0xab, 0x3d, 0x83, 0x63, 0xae, 0x3b,
  0x8f, 0x49, 0xc7, 0xbd, 0x2d, 0x25, 0x2d, 0x3d, 0xd8, 0x90, 0x59, 0xbc,
  0xaa, 0x7e, 0xfd, 0xbd, 0x97, 0x78, 0x5a, 0xbf, 0x02, 0x12, 0x76, 0x3e,
  0xe5, 0x7f, 0x11, 0xbd, 0x1b, 0x3e, 0x49, 0xbe, 0x2d, 0x60, 0xc6, 0xbd,
  0xde, 0xea, 0xdf, 0xbd, 0xbb, 0x9d, 0x79, 0xbe, 0xc5, 0x47, 0xbb, 0x3e,
  0x0e, 0xc7, 0xdc, 0x3e, 0x23, 0x5b, 0x47, 0xbe, 0x41, 0x0e, 0xc4, 0x3e,
  0x3a, 0x36, 0x11, 0xbd, 0x86, 0x88, 0x84, 0xbe, 0xeb, 0xa7, 0xd0, 0x3d,
  0x4a, 0x99, 0x72, 0xbd, 0x88, 0x64, 0x04, 0x3e, 0x4e, 0xb5, 0x9c, 0xbe,
  0x83, 0x1e, 0xa8, 0x3e, 0xee, 0x1f, 0x31, 0x3e, 0x7c, 0x33, 0x7c, 0xbe,
  0xae, 0x51, 0x64, 0xbc, 0x43, 0x48, 0x01, 0xbd, 0x79, 0x58, 0xd6, 0xbd,
  0x0d, 0xc1, 0xdd, 0x3e, 0xda, 0x87, 0x03, 0x3e, 0x0b, 0x59, 0xd9, 0xbe,
  0x45, 0xa5, 0x93, 0x3e, 0x8b, 0xf7, 0x87, 0x3c, 0xb6, 0x8d, 0x9c, 0xbe,
  0x90, 0x1a, 0x0d, 0x3e, 0xef, 0xc5, 0xa6, 0xbc, 0xab, 0x21, 0xeb, 0x3d,
  0xe4, 0x13, 0x53, 0xbe, 0x39, 0x22, 0xcf, 0x3e, 0xbd, 0x7d, 0x04, 0x3d,
  0x38, 0x40, 0x54, 0xbf, 0xd1, 0x8d, 0x34, 0x3d, 0xf8, 0x5b, 0x13, 0xbe,
  0x61, 0x1b, 0x95, 0xbd, 0xf4, 0xf6, 0x95, 0x3e, 0x12, 0xa1, 0xce, 0x3e,
  0x1a, 0x18, 0xb0, 0xbe, 0xc8, 0x77, 0x46, 0x3e, 0x66, 0xd7, 0x2d, 0x3d,
  0xd4, 0xdc, 0xbe, 0xbe, 0x5b, 0x5f, 0x28, 0xbe, 0x1c, 0x55, 0x7b, 0x3d,
  0x68, 0xf8, 0x6c, 0xbd, 0x41, 0x3c, 0x8e, 0xbe, 0x6e, 0xa6, 0xae, 0x3e,
  0x27, 0x70, 0x4a, 0xbc, 0xc9, 0x47, 0x1e, 0xbf, 0x32, 0xb3, 0x30, 0x3d,
  0x9f, 0x37, 0x40, 0x3d, 0x38, 0xd9, 0x00, 0xbf, 0xdb, 0x51, 0x97, 0x3e,
  0xbc, 0x80, 0xb7, 0x3e, 0x76, 0xc0, 0x9f, 0xbe, 0xa3, 0x7c, 0x13, 0x3d,
  0x9a, 0xb3, 0xc8, 0x3e, 0xb9, 0xb2, 0x89, 0xbe, 0xfd, 0xb0, 0xea, 0xbc,
  0x38, 0xc8, 0xac, 0xbe, 0xb4, 0x59, 0xfd, 0xbd, 0xd7, 0x34, 0x71, 0xbd,
  0x2d, 0xf0, 0xe0, 0x3e, 0xf9, 0xbc, 0x35, 0xbe, 0x9e, 0xf9, 0x8f, 0xbe,
  0x7d, 0x2a, 0x1a, 0x3c, 0x7e, 0x27, 0xe2, 0x3c, 0x4a, 0xf0, 0xd7, 0xbd,
  0xc8, 0x83, 0x9d, 0x3e, 0x46, 0xf4, 0x3f, 0x3e, 0xcf, 0x19, 0x90, 0xbe,
  0x00, 0x66, 0x5f, 0xbd, 0xdf, 0x89, 0xa0, 0x3d, 0x30, 0xfb, 0x9b, 0xbd,
  0x37, 0xad, 0xb0, 0xbd, 0x1f, 0x77, 0x4c, 0xbe, 0xf7, 0x84, 0xef, 0x3d,
  0x16, 0xf7, 0x15, 0xbf, 0x39, 0xae, 0xf2, 0x3d, 0x76, 0x31, 0x45, 0xbe,
  0xf6, 0x55, 0x62, 0xbe, 0x42, 0xd4, 0x4e, 0xbe, 0x02, 0xd1, 0x56, 0xbc,
  0xad, 0xc1, 0x5b, 0xbd, 0x55, 0x97, 0x4e, 0xbd, 0x26, 0xc6, 0xc4, 0x3d,
  0xab, 0xfe, 0xe6, 0x3e, 0x51, 0xe3, 0x66, 0xbe, 0x41, 0xe3, 0x15, 0xbe,
  0x84, 0x9c, 0xe1, 0xbd, 0x37, 0xbd, 0x01, 0xbe, 0xce, 0xe3, 0x1e, 0x3e,
  0xb2, 0x7f, 0x34, 0xbd, 0xb1, 0xf8, 0x36, 0x3e, 0x39, 0x60, 0x88, 0xbd,
  0xd1, 0xf5, 0x22, 0xbe, 0xc1, 0x41, 0x73, 0x3e, 0x4a, 0xb7, 0x59, 0xbe,
  0xbb, 0xca, 0x84, 0xbe, 0x76, 0x2c, 0x90, 0xbb, 0x32, 0xf4, 0x56, 0xbe,
  0xc3, 0x0d, 0x0e, 0xbe, 0x49, 0x19, 0xc7, 0x3d, 0xc3, 0xa9, 0x1c, 0xbe,
  0x38, 0x0b, 0xe4, 0x3d, 0x5e, 0xed, 0x95, 0x3d, 0x60, 0xd4, 0xe7, 0xbd,
  0x06, 0xaa, 0x07, 0x3e, 0x13, 0x51, 0x72, 0x3d, 0xb8, 0x01, 0x36, 0xbe,
  0x49, 0x5f, 0x24, 0xbe, 0xaa, 0x19, 0x87, 0x3d, 0xa5, 0x8e, 0xfe, 0xbb,
  0x4f, 0x9e, 0xc5, 0xbd, 0xd5, 0xc9, 0x82, 0xbd, 0xf9, 0x16, 0xd8, 0x3c,
  0x62, 0xad, 0x88, 0x3d, 0xc6, 0x96, 0x0a, 0x3e, 0xe9, 0xd9, 0xba, 0x3e,
  0xec, 0xbc, 0x31, 0xbd, 0x0f, 0x60, 0x8b, 0xbe, 0x54, 0x7a, 0x58, 0xbe,
  0x7b, 0x3b, 0xe0, 0xbd, 0xe0, 0xa0, 0x83, 0xbe, 0xa0, 0x3f, 0x00, 0x3d,
  0xa0, 0x5a, 0x01, 0x3e, 0x31, 0xb2, 0x13, 0x3e, 0x02, 0x40, 0x2d, 0xbe,
  0x9e, 0x82, 0xb7, 0x3e, 0x96, 0xad, 0x1b, 0xbe, 0xe3, 0x0d, 0xd8, 0xbd,
  0x40, 0xc5, 0xd7, 0x3e, 0x53, 0xb3, 0x3d, 0x3d, 0x4e, 0x56, 0x15, 0x3e,
  0x07, 0xa5, 0x36, 0x3e, 0x4b, 0x70, 0xa7, 0xbd, 0xcb, 0x18, 0xfa, 0x3d,
  0x69, 0x6e, 0x5e, 0xbe, 0xf8, 0xa7, 0x7b, 0xbd, 0xfe, 0xbd, 0x47, 0xbe,
  0xe3, 0x23, 0xcb, 0xbc, 0x1d, 0x36, 0x9f, 0x3d, 0xee, 0x82, 0x1b, 0xbe,
  0xce, 0x11, 0x25, 0xbe, 0xea, 0xfe, 0x44, 0xbd, 0xb2, 0x62, 0xa1, 0xbe,
  0x53, 0xc9, 0x86, 0xbe, 0x22, 0xdd, 0x8a, 0x3d, 0x36, 0x86, 0x6b, 0x3d,
  0x88, 0x37, 0xa3, 0x3d, 0x31, 0xb0, 0x2c, 0x3c, 0xc8, 0xac, 0x17, 0xbe,
  0x9c, 0x7f, 0x95, 0x3d, 0x00, 0x25, 0xb7, 0xbd, 0x59, 0x41, 0x05, 0xbe,
  0x72, 0xee, 0x79, 0x3d, 0x0b, 0x3d, 0x8f, 0xbe, 0x88, 0x91, 0x09, 0xbe,
  0xd0, 0x55, 0x32, 0x3e, 0xee, 0x11, 0x1a, 0x3d, 0xa4, 0x48, 0xd0, 0x3d,
  0xbe, 0x3d, 0x51, 0xbe, 0x43, 0x77, 0x87, 0xbe, 0xf0, 0x87, 0xd1, 0x3d,
  0xe2, 0x5d, 0x9b, 0xbd, 0x60, 0xd9, 0x05, 0xbe, 0xa6, 0xaf, 0x25, 0x3d,
  0xf0, 0x52, 0x0c, 0xbe, 0x9b, 0x50, 0x6f, 0xbe, 0xf2, 0xbe, 0x98, 0x3c,
  0xf3, 0xb0, 0x9e, 0xbd, 0xbc, 0xd1, 0x3a, 0xbe, 0x1a, 0xb0, 0x77, 0x3d,
  0x0b, 0x77, 0xb4, 0x3d, 0x95, 0x43, 0x08, 0x3e, 0x4f, 0x1a, 0x65, 0xbe,
  0x0a, 0xfb, 0xdf, 0xbb, 0x05, 0x7f, 0x28, 0xbe, 0x60, 0x22, 0x47, 0xbe,
  0x28, 0xcd, 0x57, 0xbd, 0x8f, 0x69, 0xa3, 0xbe, 0x98, 0xe3, 0x44, 0xbe,
  0x7c, 0xf7, 0x15, 0x3f, 0xb4, 0x23, 0xea, 0xbd, 0x35, 0x64, 0x12, 0xbe,
  0xfc, 0xa9, 0x50, 0xbd, 0x17, 0xd0, 0x8a, 0xbd, 0x2c, 0xbc, 0x55, 0xbb,
  0x90, 0xe2, 0x80, 0x3d, 0xb9, 0xf1, 0x94, 0x3e, 0x19, 0x15, 0xf0, 0xbd,
  0xd7, 0xd4, 0x06, 0xbd, 0x4b, 0x44, 0x42, 0x3d, 0x83, 0x6c, 0xaa, 0xbd,
  0x67, 0x04, 0x57, 0xbe, 0x38, 0xdc, 0x93, 0x3d, 0xa0, 0x0a, 0xc8, 0xbe,
  0xf3, 0x84, 0x71, 0xbe, 0x08, 0x49, 0x95, 0xbd, 0xdd, 0x8f, 0x42, 0xbe,
  0x6a, 0xe6, 0x29, 0xbc, 0x0a, 0x7a, 0x88, 0x3e, 0x6f, 0x1f, 0xa8, 0xbe,
  0x46, 0x58, 0x46, 0x3e, 0xd7, 0x01, 0x0c, 0xbf, 0x2b, 0x4b, 0x15, 0x3e,
  0x0c, 0x1d, 0xf9, 0xbd, 0xd1, 0x57, 0x3d, 0xbc, 0x62, 0x18, 0x2a, 0x3d,
  0x8e, 0x95, 0xae, 0xbc, 0x13, 0xbf, 0x3c, 0xbe, 0x79, 0xfc, 0xb7, 0xbc,
  0x72, 0xe1, 0x31, 0xbe, 0x99, 0x3a, 0x5d, 0x3e, 0x68, 0x9a, 0xa3, 0xbe,
  0xbf, 0xd6, 0x07, 0xbe, 0xc6, 0x05, 0xed, 0xbd, 0xe2, 0xf9, 0x3f, 0x3e,
  0x30, 0x48, 0xc5, 0xbe, 0xb0, 0xf6, 0x21, 0x3c, 0x98, 0x01, 0x8d, 0xbe,
  0x6b, 0x62, 0x3c, 0x3d, 0xd7, 0xce, 0xe4, 0xbd, 0x3a, 0xab, 0xb7, 0x3d,
  0xdb, 0xa9, 0xc9, 0x3b, 0x5e, 0x36, 0xc0, 0xbd, 0x38, 0xd3, 0xb4, 0xbe,
  0xad, 0xb9, 0x7f, 0x3d, 0x56, 0x38, 0xde, 0x3d, 0xad, 0x40, 0x0a, 0x3e,
  0x72, 0x9c, 0x93, 0x3d, 0x44, 0x0f, 0x1c, 0xbc, 0x34, 0x2c, 0x95, 0xbe,
  0x77, 0x18, 0x87, 0x3e, 0xa7, 0x74, 0xc5, 0xbe, 0xf2, 0x5c, 0x14, 0x3b,
  0x5d, 0x98, 0xc0, 0xbe, 0x54, 0xaa, 0xb6, 0xbd, 0xb2, 0xea, 0xcb, 0x3d,
  0x7d, 0x59, 0x63, 0xbe, 0xec, 0xef, 0xd5, 0xbd, 0x93, 0xe6, 0x08, 0xbd,
  0x7a, 0x77, 0x7f, 0xbe, 0xc3, 0x3e, 0x3e, 0xbe, 0x1f, 0x02, 0x85, 0xbe,
  0x90, 0x3d, 0x12, 0x3e, 0x48, 0xa6, 0xa4, 0xbe, 0xdd, 0x18, 0xb6, 0xbe,
  0x96, 0x71, 0xb5, 0xbd, 0xbe, 0x54, 0x0f, 0x3e, 0xb0, 0xb4, 0x94, 0xbe,
  0xde, 0xb1, 0xc9, 0x3d, 0x0f, 0x30, 0xf9, 0xbe, 0x7a, 0x79, 0x57, 0x3e,
  0x8e, 0x86, 0x63, 0x3d, 0xa8, 0xbb, 0x04, 0x3d, 0x00, 0xd2, 0x5f, 0x3e,
  0x44, 0x5f, 0x41, 0xbd, 0xd5, 0xab, 0x0d, 0x3d, 0xf3, 0xe4, 0x4f, 0x3d,
  0x4e, 0x25, 0xef, 0xbd, 0x02, 0x64, 0x73, 0x3e, 0xd3, 0xc5, 0xf2, 0xbd,
  0xb4, 0x42, 0xfd, 0x3d, 0xf6, 0x55, 0x91, 0xbe, 0x2f, 0x1e, 0x2f, 0x3e,
  0xb4, 0x45, 0x44, 0x3e, 0x98, 0x71, 0x4a, 0xbd, 0xd4, 0x82, 0x2f, 0xbe,
  0x0c, 0x83, 0xf1, 0xbd, 0xa0, 0x55, 0xb9, 0xbd, 0x50, 0x77, 0xb1, 0x3e,
  0x57, 0xcd, 0xe7, 0x3d, 0x50, 0xa7, 0x06, 0x3e, 0x39, 0xf8, 0x40, 0xbe,
  0x67, 0x3a, 0x11, 0x3b, 0xe9, 0xd9, 0x9b, 0x3d, 0x2d, 0xc6, 0x3f, 0x3e,
  0xa6, 0x0f, 0x97, 0xbe, 0xbe, 0xed, 0xa1, 0x3d, 0x7a, 0xf5, 0x57, 0xbe,
  0x51, 0x3d, 0x5c, 0xbe, 0x22, 0x0e, 0x3f, 0x3e, 0x3a, 0xb5, 0x6f, 0x3e,
  0xad, 0xcd, 0x56, 0xbc, 0x0a, 0xab, 0x19, 0xbe, 0xa1, 0x7d, 0x87, 0xbe,
  0xe1, 0x12, 0xb5, 0x3d, 0x21, 0x2c, 0x65, 0x3d, 0xa5, 0x59, 0xfa, 0xbd,
  0x03, 0x60, 0x8d, 0xbd, 0x8d, 0xe0, 0xd7, 0x3d, 0xde, 0xfc, 0x99, 0x3d,
  0x70, 0xde, 0x41, 0x3e, 0xe9, 0x9e, 0x9d, 0xbd, 0x61, 0xa6, 0x45, 0x3d,
  0xb6, 0xc6, 0x07, 0x3e, 0xff, 0xa7, 0x62, 0x3e, 0x22, 0x07, 0x2e, 0x3e,
  0x4b, 0x72, 0x79, 0x3c, 0xbb, 0x7b, 0x10, 0xbd, 0xab, 0x3f, 0xce, 0xbe,
  0x38, 0xe2, 0x94, 0xbd, 0x40, 0x35, 0xa3, 0xbd, 0x0a, 0x58, 0x2e, 0xbe,
  0x52, 0x9c, 0x4b, 0xbe, 0xb0, 0xe4, 0x9a, 0xbd, 0x52, 0xe4, 0x5d, 0xbe,
  0x1b, 0xd9, 0x41, 0x3d, 0x24, 0xbc, 0x29, 0x3c, 0x35, 0xcd, 0x5c, 0xbe,
  0x8a, 0x3f, 0x1a, 0x3d, 0x5e, 0x44, 0x6a, 0xbe, 0xd2, 0x71, 0x42, 0xbe,
  0x25, 0x93, 0x9e, 0xbe, 0x9d, 0x8e, 0x4c, 0xbe, 0x85, 0x41, 0x8a, 0xbe,
  0x21, 0xb2, 0x2a, 0x3e, 0x9e, 0xb4, 0x01, 0x3e, 0xbc, 0x64, 0x0d, 0xbe,
  0x0d, 0x5c, 0x92, 0x3d, 0x39, 0xda, 0x8f, 0xbe, 0x99, 0x32, 0xba, 0xbd,
  0xe9, 0x1b, 0x02, 0xbe, 0x42, 0x8c, 0x1c, 0xbe, 0xa2, 0xdd, 0x20, 0xbe,
  0xd3, 0x54, 0xd0, 0xbc, 0xb5, 0xc0, 0x53, 0xbe, 0x46, 0x6b, 0xe9, 0x3c,
  0x03, 0x9a, 0x0f, 0x3e, 0xf8, 0xee, 0x73, 0xbd, 0x8b, 0x2d, 0xe2, 0xbd,
  0x90, 0x64, 0x1f, 0xbe, 0x9f, 0xa5, 0x42, 0xbd, 0xa4, 0xed, 0x34, 0xbd,
  0x6f, 0x8f, 0xc2, 0x3d, 0x1b, 0xea, 0xac, 0x3d, 0x6e, 0x1d, 0x8d, 0xbe,
  0x8a, 0x3b, 0xb5, 0xbd, 0xcf, 0x57, 0x10, 0x3e, 0x77, 0xe9, 0xb2, 0x3d,
  0x5f, 0x2b, 0x76, 0xbe, 0x4b, 0xfa, 0x01, 0xbe, 0xba, 0x16, 0x23, 0x3d,
  0xcc, 0x29, 0x3c, 0xbe, 0x9c, 0xd0, 0x7f, 0xbe, 0x51, 0xd1, 0x78, 0x3b,
  0x70, 0x14, 0xd5, 0xbd, 0x9e, 0x4b, 0xc2, 0xbc, 0x98, 0x64, 0x33, 0xbe,
  0xdb, 0xec, 0x42, 0x3d, 0x09, 0x86, 0x31, 0x3e, 0xa1, 0x89, 0x3d, 0x3e,
  0x95, 0x08, 0xd9, 0xbd, 0xd7, 0x4a, 0x46, 0xbe, 0x66, 0x91, 0xef, 0x3c,
  0xf3, 0xc7, 0x2b, 0xbe, 0xfb, 0xed, 0x26, 0x3e, 0xb2, 0xa2, 0x5a, 0xbe,
  0x6b, 0xad, 0xdc, 0xbd, 0xf2, 0xe5, 0x2b, 0xbd, 0xb6, 0xd2, 0x1a, 0xbe,
  0xb4, 0x50, 0x19, 0xbe, 0x7c, 0xed, 0x30, 0x3e, 0x24, 0x9e, 0xd8, 0xbb,
  0x29, 0x26, 0xb0, 0x3d, 0xdb, 0x30, 0xa9, 0xbd, 0x3c, 0x96, 0x8e, 0x3d,
  0xd5, 0xc1, 0xba, 0xbd, 0xfe, 0xb6, 0x99, 0xbe, 0xb8, 0x88, 0x7c, 0xbc,
  0x2e, 0x87, 0x42, 0x3c, 0xc0, 0x91, 0x6f, 0xbe, 0xbe, 0x52, 0xc7, 0x3d,
  0xa2, 0x7e, 0x06, 0xbe, 0x54, 0x44, 0x34, 0xbe, 0x46, 0x79, 0x8a, 0xbe,
  0xb4, 0x34, 0xf5, 0xbd, 0x05, 0x21, 0x39, 0xbc, 0x2b, 0x59, 0x0f, 0x3e,
  0x9d, 0x63, 0xb9, 0x3d, 0xd6, 0x69, 0xb2, 0xbd, 0x60, 0x60, 0x3f, 0xbe,
  0x4f, 0x6c, 0x87, 0xbd, 0x6e, 0x7d, 0x11, 0x3e, 0x90, 0x37, 0x86, 0xbd,
  0x9a, 0xf6, 0xb0, 0xbd, 0xb7, 0x02, 0x03, 0xbe, 0x46, 0x71, 0x31, 0xbe,
  0x3d, 0xcb, 0x44, 0xbe, 0x7e, 0x14, 0x4a, 0x3d, 0xc2, 0xe9, 0x13, 0xbe,
  0x0f, 0xc6, 0xb5, 0x3d, 0x5f, 0x14, 0xba, 0xbd, 0xf2, 0x6f, 0x81, 0xbe,
  0x74, 0x98, 0x35, 0xbe, 0x28, 0x5b, 0x64, 0xbd, 0x62, 0xa7, 0xad, 0xbd,
  0x2a, 0x9d, 0x65, 0xbe, 0xd8, 0xae, 0xc8, 0xbd, 0x4d, 0x90, 0x3b, 0xbe,
  0xf0, 0x0c, 0xb9, 0xbe, 0x2b, 0x57, 0x3b, 0xbc, 0x59, 0xc1, 0xe7, 0xbd,
  0x80, 0x20, 0xe2, 0xbd, 0x89, 0xea, 0x88, 0xbd, 0x69, 0xd0, 0xc3, 0x3d,
  0xc4, 0x6f, 0x86, 0xbc, 0x01, 0x97, 0x2a, 0xbe, 0xca, 0xa4, 0x04, 0x3e,
  0x5f, 0x4e, 0x79, 0xbd, 0x08, 0xc7, 0x7e, 0x3d, 0xb2, 0x0e, 0x87, 0xbc,
  0x61, 0xfc, 0x1f, 0xbd, 0x6d, 0x5f, 0x02, 0x3e, 0x4f, 0x47, 0x6a, 0xbe,
  0x5e, 0x7c, 0x86, 0xbe, 0x29, 0xb8, 0xe9, 0xbe, 0xef, 0x58, 0xbb, 0xbd,
  0xa3, 0xc0, 0x6f, 0xbe, 0x91, 0x4f, 0xad, 0xbd, 0x71, 0xe8, 0xab, 0xbd,
  0x7e, 0xef, 0x47, 0x3c, 0x9f, 0xf4, 0xd9, 0xbd, 0x89, 0x72, 0x8b, 0xbc,
  0x4e, 0xf4, 0xea, 0x3e, 0x04, 0xe5, 0x34, 0xbb, 0x88, 0x46, 0xdc, 0x3d,
  0x05, 0x76, 0x26, 0xbe, 0x08, 0x79, 0x69, 0xbe, 0xaa, 0x29, 0x54, 0xbe,
  0xbf, 0xe3, 0x4a, 0xbe, 0x14, 0x9a, 0xc5, 0xbc, 0x6b, 0xef, 0xb2, 0xbe,
  0x09, 0x9e, 0xc3, 0xbd, 0x8d, 0x92, 0xf5, 0x3d, 0xdf, 0x43, 0x03, 0x3e,
  0x18, 0xf1, 0x24, 0x3f, 0x1c, 0x8f, 0x0d, 0x3e, 0x94, 0x5d, 0xf3, 0xbd,
  0xb1, 0x11, 0x14, 0xbe, 0x5e, 0x97, 0x23, 0x3e, 0x67, 0xc8, 0xac, 0xbe,
  0x16, 0x7d, 0x06, 0x3e, 0x92, 0x01, 0xa1, 0xbe, 0xed, 0xcd, 0x1f, 0xbd,
  0xc3, 0x52, 0x25, 0xbe, 0x89, 0x4a, 0x81, 0xbd, 0x8b, 0xdc, 0x0c, 0xbe,
  0xb3, 0x5e, 0xb2, 0xbe, 0xe9, 0x0e, 0xb2, 0xbc, 0xfd, 0x0b, 0x9d, 0x3d,
  0x76, 0xa5, 0x1b, 0xbd, 0xcc, 0x2b, 0x47, 0x3f, 0xad, 0x8d, 0xb0, 0x3d,
  0x78, 0xd6, 0xf4, 0xbb, 0xe9, 0xb1, 0xbf, 0xbb, 0x36, 0xa4, 0x56, 0x3e,
  0x05, 0xc2, 0xf9, 0xbd, 0x6d, 0x68, 0x55, 0xbc, 0xd5, 0xe7, 0x91, 0xbe,
  0x16, 0x80, 0xa8, 0xbd, 0xaf, 0xf1, 0x08, 0x3e, 0xc0, 0x69, 0x89, 0xbc,
  0x62, 0xff, 0xcd, 0x3c, 0xd8, 0xe0, 0xf2, 0xbe, 0xd9, 0x3d, 0x45, 0xbe,
  0xc9, 0xd8, 0x06, 0x3d, 0x3c, 0xd1, 0x05, 0xbe, 0x4c, 0x37, 0x99, 0x3f,
  0x0f, 0x9d, 0x1d, 0x3e, 0x03, 0x68, 0x16, 0x3d, 0x20, 0x9e, 0x78, 0xbd,
  0x9f, 0x15, 0xf4, 0x3d, 0xda, 0x08, 0x96, 0xbd, 0x62, 0x10, 0xf3, 0xbd,
  0xc5, 0x24, 0x54, 0xbc, 0xa6, 0x08, 0x2f, 0xbe, 0xff, 0xf3, 0x5b, 0xbd,
  0x5b, 0x79, 0x7f, 0xbd, 0xf5, 0xbd, 0x46, 0xbe, 0xd5, 0xe3, 0x64, 0xbe,
  0xa7, 0x78, 0x73, 0xbe, 0xb1, 0x17, 0x7a, 0xbe, 0xaa, 0xe4, 0x1a, 0xbc,
  0xbb, 0x3c, 0xb5, 0x3e, 0xef, 0x3c, 0xe1, 0x3d, 0xed, 0x88, 0x35, 0xbd,
  0x7f, 0xd7, 0xca, 0xbd, 0x9f, 0xa8, 0xaf, 0x39, 0x13, 0x3b, 0x10, 0xbe,
  0x63, 0xbe, 0x48, 0x3e, 0x9f, 0x74, 0xd6, 0xbd, 0x9f, 0xb0, 0x2c, 0xbe,
  0x26, 0xef, 0x97, 0x3d, 0x80, 0x70, 0x89, 0xbb, 0xc5, 0x01, 0xca, 0x3d,
  0x14, 0xa3, 0xb2, 0xbe, 0x6b, 0xda, 0xf7, 0xbd, 0x7a, 0xd2, 0x7d, 0xbe,
  0x5c, 0x9e, 0x9c, 0xbd, 0x3e, 0x56, 0xd3, 0x3e, 0xe0, 0x2b, 0x41, 0xbc,
  0x3f, 0xa9, 0x00, 0x3d, 0x47, 0x86, 0xb4, 0xbd, 0xda, 0xe6, 0x7d, 0x3e,
  0x49, 0x15, 0x2e, 0xbe, 0x69, 0xd9, 0xf7, 0xbd, 0x15, 0x38, 0x14, 0xbd,
  0x7a, 0x78, 0x12, 0x3e, 0xfc, 0xa9, 0x27, 0xbe, 0x90, 0xb3, 0xaa, 0xbe,
  0x3d, 0xfa, 0xdc, 0xbc, 0x1f, 0x57, 0x8d, 0xbe, 0x83, 0xff, 0x4b, 0xbe,
  0x49, 0xee, 0x0a, 0xbe, 0xcb, 0x9e, 0x7c, 0xbe, 0xf0, 0x5d, 0x88, 0x3e,
  0xf1, 0xfa, 0x84, 0x3e, 0xcc, 0xa5, 0x94, 0xbd, 0x20, 0x1d, 0x1c, 0xbc,
  0xcd, 0x75, 0x90, 0x3b, 0xc0, 0xf3, 0x98, 0xbe, 0x1f, 0x21, 0x1d, 0xbe,
  0x05, 0x9c, 0x84, 0xbe, 0xb2, 0x55, 0x5a, 0xbe, 0x27, 0xec, 0xad, 0xbb,
  0x77, 0xdf, 0x88, 0xbe, 0xb1, 0x53, 0xb5, 0x3e, 0xd8, 0x91, 0x86, 0x3e,
  0x15, 0x7d, 0xb6, 0xbe, 0xa3, 0x8e, 0x85, 0x3e, 0x89, 0xe9, 0xae, 0x3b,
  0xf8, 0x80, 0x60, 0xbe, 0x6b, 0xa4, 0xf8, 0xbd, 0x17, 0xbf, 0x47, 0x3e,
  0x3f, 0x97, 0x30, 0x3b, 0xc8, 0x14, 0x35, 0xbf, 0x1b, 0xa7, 0x42, 0x3d,
  0x06, 0x25, 0x25, 0xbe, 0xab, 0x1f, 0x95, 0x3d, 0xef, 0xa3, 0x5e, 0xbe,
  0xa1, 0x65, 0x64, 0xbe, 0xc2, 0xb7, 0x9a, 0x3e, 0xfa, 0x5c, 0xc6, 0x3d,
  0x42, 0x21, 0x86, 0x3d, 0x62, 0x2d, 0x6c, 0xbd, 0x42, 0x22, 0x0f, 0xbd,
  0xe8, 0x38, 0x43, 0x3e, 0x17, 0xc3, 0x68, 0x3c, 0xe6, 0xce, 0x83, 0x3d,
  0x58, 0x6d, 0x72, 0x3e, 0x50, 0xe4, 0x4f, 0x3d, 0x09, 0xad, 0x52, 0x3e,
  0x60, 0xea, 0x9d, 0x3e, 0x33, 0x53, 0x70, 0x3c, 0x0e, 0x1b, 0x24, 0x3d,
  0xaa, 0xcc, 0xc6, 0xbc, 0x6b, 0x95, 0x06, 0xbe, 0x2c, 0x6e, 0x62, 0x3e,
  0x32, 0x0b, 0x2a, 0xbe, 0x5f, 0xe3, 0x11, 0xbe, 0x07, 0x08, 0x44, 0x3e,
  0x6d, 0xaf, 0xca, 0xbd, 0x56, 0xb6, 0x94, 0xbd, 0xf7, 0xc9, 0x12, 0xbe,
  0x88, 0xbb, 0x47, 0x3d, 0x80, 0xee, 0x41, 0xbe, 0xea, 0x7a, 0xec, 0x3d,
  0xdb, 0x8f, 0x30, 0x3e, 0x3d, 0xd9, 0x9a, 0xbc, 0x10, 0xc1, 0x0c, 0xbd,
  0x7a, 0x07, 0x81, 0xbe, 0x35, 0xb0, 0xfc, 0x3d, 0x09, 0x7a, 0x1f, 0xbd,
  0xf9, 0xea, 0x36, 0xbe, 0x7f, 0x74, 0x9d, 0xbe, 0x3c, 0x87, 0x22, 0xbe,
  0xf9, 0x92, 0x06, 0x3e, 0x99, 0x4a, 0xa0, 0xbe, 0xc6, 0xc6, 0x10, 0xbf,
  0x6f, 0xa1, 0x84, 0xbe, 0xce, 0xb7, 0xa7, 0xbc, 0x69, 0xde, 0x5e, 0xbf,
  0xe4, 0x7f, 0x0f, 0x3e, 0xfb, 0x0a, 0x16, 0x3e, 0xdd, 0x98, 0x61, 0xbc,
  0x62, 0x42, 0x35, 0x3c, 0xac, 0x9e, 0x56, 0xbe, 0x6c, 0xa2, 0x0a, 0x3d,
  0xb6, 0x3d, 0x07, 0xbf, 0x42, 0x0d, 0xf5, 0xbe, 0xcd, 0x4e, 0x58, 0xbd,
  0x03, 0x3f, 0x16, 0xbe, 0xd9, 0xc9, 0xb5, 0x3d, 0xca, 0x3c, 0x91, 0xbd,
  0x85, 0x2f, 0x10, 0xbf, 0xde, 0xb2, 0x1d, 0xbd, 0x63, 0xde, 0x83, 0x3d,
  0x22, 0x95, 0xbe, 0xbe, 0xe7, 0x35, 0xec, 0x3c, 0xe4, 0x18, 0xdd, 0xbb,
  0x29, 0x74, 0x87, 0xbd, 0x86, 0xe5, 0x9e, 0x3d, 0x9d, 0xb6, 0xb8, 0xbd,
  0x8c, 0x69, 0x83, 0xbe, 0x9f, 0x27, 0xac, 0xbe, 0x6a, 0xaa, 0xf4, 0xbe,
  0xe5, 0x15, 0x0f, 0xbe, 0x77, 0x3a, 0x35, 0xbe, 0x33, 0xb1, 0xa4, 0x3d,
  0xd1, 0x17, 0x83, 0xbe, 0x45, 0xea, 0xc2, 0xbe, 0xe1, 0xc7, 0x45, 0x3d,
  0x16, 0x57, 0x38, 0x3e, 0xc6, 0xde, 0x32, 0xbe, 0x4d, 0xaa, 0xc3, 0x3d,
  0x1a, 0xb1, 0xa3, 0xbd, 0x05, 0x30, 0x3e, 0x3c, 0x96, 0x4c, 0x64, 0xbd,
  0xa2, 0x28, 0x80, 0xbd, 0xf6, 0x7c, 0x21, 0x3d, 0xc3, 0x72, 0xb9, 0xbe,
  0xd2, 0x90, 0x99, 0xbe, 0xce, 0x3c, 0x67, 0xbe, 0xdd, 0x30, 0x84, 0xbd,
  0x21, 0x99, 0xa7, 0xbc, 0xa7, 0xed, 0x23, 0xbe, 0x13, 0x00, 0x69, 0xbe,
  0x88, 0xc0, 0x27, 0xbc, 0xe1, 0xe5, 0x27, 0x3d, 0xc3, 0x2e, 0x08, 0x3d,
  0xdb, 0x10, 0x11, 0xbe, 0x61, 0x40, 0x03, 0xbd, 0x00, 0x71, 0x14, 0x3a,
  0x77, 0x6e, 0xfb, 0xbd, 0x33, 0x77, 0xe2, 0xbd, 0x9a, 0xe3, 0x53, 0x3e,
  0x71, 0xce, 0x41, 0xbd, 0x45, 0xef, 0x54, 0xbd, 0x4a, 0xfe, 0xff, 0xff,
  0x10, 0x00, 0x00, 0x00, 0x05, 0x00, 0x00, 0x00, 0x14, 0x00, 0x00, 0x00,
  0x2c, 0x00, 0x00, 0x00, 0x02, 0x00, 0x00, 0x00, 0x10, 0x00, 0x00, 0x00,
  0x70, 0x00, 0x00, 0x00, 0x17, 0x00, 0x00, 0x00, 0x73, 0x65, 0x71, 0x75,
  0x65, 0x6e, 0x74, 0x69, 0x61, 0x6c, 0x2f, 0x64, 0x65, 0x6e, 0x73, 0x65,
  0x2f, 0x4d, 0x61, 0x74, 0x4d, 0x75, 0x6c, 0x00, 0x38, 0xfe, 0xff, 0xff,
  0x2e, 0xff, 0xff, 0xff, 0x04, 0x00, 0x00, 0x00, 0x08, 0x00, 0x00, 0x00,
  0xff, 0xff, 0xff, 0xff, 0x70, 0x00, 0x00, 0x00, 0x00, 0x00, 0x0e, 0x00,
  0x18, 0x00, 0x08, 0x00, 0x07, 0x00, 0x0c, 0x00, 0x10, 0x00, 0x14, 0x00,
  0x0e, 0x00, 0x00, 0x00, 0x00, 0x00, 0x00, 0x02, 0x10, 0x00, 0x00, 0x00,
  0x04, 0x00, 0x00, 0x00, 0x10, 0x00, 0x00, 0x00, 0x2c, 0x00, 0x00, 0x00,
  0x01, 0x00, 0x00, 0x00, 0x02, 0x00, 0x00, 0x00, 0x18, 0x00, 0x00, 0x00,
  0x73, 0x65, 0x71, 0x75, 0x65, 0x6e, 0x74, 0x69, 0x61, 0x6c, 0x2f, 0x66,
  0x6c, 0x61, 0x74, 0x74, 0x65, 0x6e, 0x2f, 0x43, 0x6f, 0x6e, 0x73, 0x74,
  0x00, 0x00, 0x00, 0x00, 0xa0, 0xfe, 0xff, 0xff, 0x96, 0xff, 0xff, 0xff,
  0x04, 0x00, 0x00, 0x00, 0x0c, 0x00, 0x00, 0x00, 0x34, 0x94, 0xe1, 0xbf,
  0x20, 0x3d, 0x6a, 0xc0, 0xe1, 0x4c, 0x7e, 0x40, 0x0a, 0xff, 0xff, 0xff,
  0x10, 0x00, 0x00, 0x00, 0x03, 0x00, 0x00, 0x00, 0x10, 0x00, 0x00, 0x00,
  0x3c, 0x00, 0x00, 0x00, 0x01, 0x00, 0x00, 0x00, 0x03, 0x00, 0x00, 0x00,
  0x29, 0x00, 0x00, 0x00, 0x73, 0x65, 0x71, 0x75, 0x65, 0x6e, 0x74, 0x69,
  0x61, 0x6c, 0x2f, 0x64, 0x65, 0x6e, 0x73, 0x65, 0x5f, 0x31, 0x2f, 0x42,
  0x69, 0x61, 0x73, 0x41, 0x64, 0x64, 0x2f, 0x52, 0x65, 0x61, 0x64, 0x56,
  0x61, 0x72, 0x69, 0x61, 0x62, 0x6c, 0x65, 0x4f, 0x70, 0x00, 0x00, 0x00,
  0x60, 0xff, 0xff, 0xff, 0x00, 0x00, 0x06, 0x00, 0x08, 0x00, 0x04, 0x00,
  0x06, 0x00, 0x00, 0x00, 0x04, 0x00, 0x00, 0x00, 0x40, 0x00, 0x00, 0x00,
  0x28, 0xf3, 0x25, 0xbe, 0x7d, 0x19, 0xb1, 0x3f, 0xa1, 0x55, 0x42, 0xbe,
  0x80, 0xbb, 0xab, 0x3f, 0xf3, 0x6c, 0xfa, 0xbe, 0x43, 0x46, 0x3a, 0x3f,
  0xbc, 0x86, 0x14, 0xc0, 0x27, 0xea, 0xa0, 0xbf, 0x88, 0x41, 0x7b, 0xbf,
  0x9e, 0xf6, 0x51, 0x3f, 0xeb, 0x31, 0x62, 0xbe, 0x0a, 0xaa, 0xa7, 0xbe,
  0xaf, 0xf1, 0xd3, 0xbe, 0xe7, 0x0c, 0x87, 0xbe, 0xda, 0x1a, 0x7b, 0x3f,
  0x68, 0x19, 0x83, 0xbf, 0xae, 0xff, 0xff, 0xff, 0x10, 0x00, 0x00, 0x00,
  0x02, 0x00, 0x00, 0x00, 0x10, 0x00, 0x00, 0x00, 0x3c, 0x00, 0x00, 0x00,
  0x01, 0x00, 0x00, 0x00, 0x10, 0x00, 0x00, 0x00, 0x27, 0x00, 0x00, 0x00,
  0x73, 0x65, 0x71, 0x75, 0x65, 0x6e, 0x74, 0x69, 0x61, 0x6c, 0x2f, 0x64,
  0x65, 0x6e, 0x73, 0x65, 0x2f, 0x42, 0x69, 0x61, 0x73, 0x41, 0x64, 0x64,
  0x2f, 0x52, 0x65, 0x61, 0x64, 0x56, 0x61, 0x72, 0x69, 0x61, 0x62, 0x6c,
  0x65, 0x4f, 0x70, 0x00, 0x04, 0x00, 0x06, 0x00, 0x04, 0x00, 0x00, 0x00,
  0x00, 0x00, 0x0e, 0x00, 0x14, 0x00, 0x04, 0x00, 0x00, 0x00, 0x08, 0x00,
  0x0c, 0x00, 0x10, 0x00, 0x0e, 0x00, 0x00, 0x00, 0x10, 0x00, 0x00, 0x00,
  0x01, 0x00, 0x00, 0x00, 0x1c, 0x00, 0x00, 0x00, 0x2c, 0x00, 0x00, 0x00,
  0x04, 0x00, 0x00, 0x00, 0x01, 0x00, 0x00, 0x00, 0x40, 0x00, 0x00, 0x00,
  0x03, 0x00, 0x00, 0x00, 0x01, 0x00, 0x00, 0x00, 0x0c, 0x00, 0x00, 0x00,
  0x63, 0x6f, 0x6e, 0x76, 0x32, 0x64, 0x5f, 0x69, 0x6e, 0x70, 0x75, 0x74,
  0x00, 0x00, 0x00, 0x00, 0xfc, 0xff, 0xff, 0xff, 0x04, 0x00, 0x04, 0x00,
  0x04, 0x00, 0x00, 0x00
};
unsigned int _content_mbed_lab7_model_model_tflite_len = 12316;