#include "magic_wand_model_data.h"

// We need to keep the data array aligned on some architectures.
#ifdef __has_attribute
#define HAVE_ATTRIBUTE(x) __has_attribute(x)
#else
#define HAVE_ATTRIBUTE(x) 0
#endif
#if HAVE_ATTRIBUTE(aligned) || (defined(__GNUC__) && !defined(__clang__))
#define DATA_ALIGN_ATTRIBUTE __attribute__((aligned(4)))
#else
#define DATA_ALIGN_ATTRIBUTE
#endif

const unsigned char g_magic_wand_model_data[] DATA_ALIGN_ATTRIBUTE = {
  0x08, 0x00, 0x00, 0x00, 0x54, 0x46, 0x4c, 0x33, 0x62, 0xff, 0xff, 0xff,
  0x03, 0x00, 0x00, 0x00, 0x10, 0x00, 0x00, 0x00, 0x24, 0x00, 0x00, 0x00,
  0x78, 0x00, 0x00, 0x00, 0x24, 0x00, 0x00, 0x00, 0x05, 0x00, 0x00, 0x00,
  0x78, 0x05, 0x00, 0x00, 0xb0, 0x04, 0x00, 0x00, 0xe0, 0x02, 0x00, 0x00,
  0x60, 0x02, 0x00, 0x00, 0x54, 0x01, 0x00, 0x00, 0x01, 0x00, 0x00, 0x00,
  0x78, 0x00, 0x00, 0x00, 0x13, 0x00, 0x00, 0x00, 0xd4, 0x2f, 0x00, 0x00,
  0xd0, 0x2f, 0x00, 0x00, 0xdc, 0x2e, 0x00, 0x00, 0x68, 0x2e, 0x00, 0x00,
  0xfc, 0x2d, 0x00, 0x00, 0xac, 0x11, 0x00, 0x00, 0x98, 0x10, 0x00, 0x00,
  0xbc, 0x0e, 0x00, 0x00, 0x60, 0x06, 0x00, 0x00, 0xfc, 0x05, 0x00, 0x00,
  0x78, 0x05, 0x00, 0x00, 0xa8, 0x2f, 0x00, 0x00, 0xa4, 0x2f, 0x00, 0x00,
  0xa0, 0x2f, 0x00, 0x00, 0x9c, 0x2f, 0x00, 0x00, 0x98, 0x2f, 0x00, 0x00,
  0x94, 0x2f, 0x00, 0x00, 0x90, 0x2f, 0x00, 0x00, 0x8c, 0x2f, 0x00, 0x00,
  0x0f, 0x00, 0x00, 0x00, 0x4d, 0x4c, 0x49, 0x52, 0x20, 0x43, 0x6f, 0x6e,
  0x76, 0x65, 0x72, 0x74, 0x65, 0x64, 0x2e, 0x00, 0x00, 0x00, 0x0e, 0x00,
  0x18, 0x00, 0x04, 0x00, 0x08, 0x00, 0x0c, 0x00, 0x10, 0x00, 0x14, 0x00,
  0x0e, 0x00, 0x00, 0x00, 0x14, 0x00, 0x00, 0x00, 0x5c, 0x00, 0x00, 0x00,
  0x60, 0x00, 0x00, 0x00, 0x64, 0x00, 0x00, 0x00, 0x84, 0x00, 0x00, 0x00,
  0x12, 0x00, 0x00, 0x00, 0x04, 0x2f, 0x00, 0x00, 0xa0, 0x2e, 0x00, 0x00,
  0xf8, 0x2d, 0x00, 0x00, 0x98, 0x2d, 0x00, 0x00, 0x30, 0x2d, 0x00, 0x00,
  0xdc, 0x10, 0x00, 0x00, 0xc0, 0x0f, 0x00, 0x00, 0xe4, 0x0d, 0x00, 0x00,
  0xa0, 0x05, 0x00, 0x00, 0x3c, 0x05, 0x00, 0x00, 0xb0, 0x04, 0x00, 0x00,
  0xe8, 0x03, 0x00, 0x00, 0x38, 0x03, 0x00, 0x00, 0xa4, 0x02, 0x00, 0x00,
  0x10, 0x02, 0x00, 0x00, 0x90, 0x01, 0x00, 0x00, 0xfc, 0x00, 0x00, 0x00,
  0x80, 0x00, 0x00, 0x00, 0x01, 0x00, 0x00, 0x00, 0x00, 0x00, 0x00, 0x00,
  0x01, 0x00, 0x00, 0x00, 0x11, 0x00, 0x00, 0x00, 0x08, 0x00, 0x00, 0x00,
  0x1c, 0x04, 0x00, 0x00, 0x58, 0x03, 0x00, 0x00, 0xc8, 0x02, 0x00, 0x00,
  0x24, 0x02, 0x00, 0x00, 0xac, 0x01, 0x00, 0x00, 0x10, 0x01, 0x00, 0x00,
  0x94, 0x00, 0x00, 0x00, 0x10, 0x00, 0x00, 0x00, 0x04, 0x00, 0x00, 0x00,
  0x6d, 0x61, 0x69, 0x6e, 0x00, 0x00, 0x00, 0x00, 0x8e, 0xff, 0xff, 0xff,
  0x00, 0x00, 0x00, 0x09, 0x04, 0x00, 0x00, 0x00, 0x1c, 0x00, 0x00, 0x00,
  0x10, 0x00, 0x00, 0x00, 0x04, 0x00, 0x00, 0x00, 0x4e, 0xd2, 0xff, 0xff,
  0x00, 0x00, 0x80, 0x3f, 0x01, 0x00, 0x00, 0x00, 0x11, 0x00, 0x00, 0x00,
  0x01, 0x00, 0x00, 0x00, 0x10, 0x00, 0x00, 0x00, 0xf6, 0xfb, 0xff, 0xff,
  0x00, 0x00, 0x00, 0x19, 0x01, 0x00, 0x00, 0x00, 0xce, 0xd1, 0xff, 0xff,
  0x10, 0x00, 0x00, 0x00, 0x12, 0x00, 0x00, 0x00, 0x14, 0x00, 0x00, 0x00,
  0x20, 0x00, 0x00, 0x00, 0x02, 0x00, 0x00, 0x00, 0x01, 0x00, 0x00, 0x00,
  0x03, 0x00, 0x00, 0x00, 0x08, 0x00, 0x00, 0x00, 0x49, 0x64, 0x65, 0x6e,
  0x74, 0x69, 0x74, 0x79, 0x00, 0x00, 0x00, 0x00, 0x08, 0xd2, 0xff, 0xff,
  0x00, 0x00, 0x0e, 0x00, 0x18, 0x00, 0x08, 0x00, 0x0c, 0x00, 0x10, 0x00,
  0x07, 0x00, 0x14, 0x00, 0x0e, 0x00, 0x00, 0x00, 0x00, 0x00, 0x00, 0x08,
  0x03, 0x00, 0x00, 0x00, 0x18, 0x00, 0x00, 0x00, 0x0c, 0x00, 0x00, 0x00,
  0x04, 0x00, 0x00, 0x00, 0xdc, 0xd1, 0xff, 0xff, 0x01, 0x00, 0x00, 0x00,
  0x10, 0x00, 0x00, 0x00, 0x03, 0x00, 0x00, 0x00, 0x0f, 0x00, 0x00, 0x00,
  0x05, 0x00, 0x00, 0x00, 0x02, 0x00, 0x00, 0x00, 0x46, 0xd2, 0xff, 0xff,
  0x10, 0x00, 0x00, 0x00, 0x11, 0x00, 0x00, 0x00, 0x14, 0x00, 0x00, 0x00,
  0x30, 0x00, 0x00, 0x00, 0x02, 0x00, 0x00, 0x00, 0x01, 0x00, 0x00, 0x00,
  0x03, 0x00, 0x00, 0x00, 0x1a, 0x00, 0x00, 0x00, 0x73, 0x65, 0x71, 0x75,
  0x65, 0x6e, 0x74, 0x69, 0x61, 0x6c, 0x2f, 0x64, 0x65, 0x6e, 0x73, 0x65,
  0x5f, 0x31, 0x2f, 0x42, 0x69, 0x61, 0x73, 0x41, 0x64, 0x64, 0x00, 0x00,
  0x38, 0xd2, 0xff, 0xff, 0xd6, 0xfd, 0xff, 0xff, 0x00, 0x00, 0x00, 0x08,
  0x03, 0x00, 0x00, 0x00, 0x24, 0x00, 0x00, 0x00, 0x18, 0x00, 0x00, 0x00,
  0x0c, 0x00, 0x00, 0x00, 0x00, 0x00, 0x06, 0x00, 0x08, 0x00, 0x07, 0x00,
  0x06, 0x00, 0x00, 0x00, 0x00, 0x00, 0x00, 0x01, 0x01, 0x00, 0x00, 0x00,
  0x0f, 0x00, 0x00, 0x00, 0x03, 0x00, 0x00, 0x00, 0x0e, 0x00, 0x00, 0x00,
  0x04, 0x00, 0x00, 0x00, 0x01, 0x00, 0x00, 0x00, 0xfe, 0xfc, 0xff, 0xff,
  0x00, 0x00, 0x00, 0x09, 0x01, 0x00, 0x00, 0x00, 0xd6, 0xd2, 0xff, 0xff,
  0x10, 0x00, 0x00, 0x00, 0x10, 0x00, 0x00, 0x00, 0x14, 0x00, 0x00, 0x00,
  0x2c, 0x00, 0x00, 0x00, 0x02, 0x00, 0x00, 0x00, 0x01, 0x00, 0x00, 0x00,
  0x10, 0x00, 0x00, 0x00, 0x15, 0x00, 0x00, 0x00, 0x73, 0x65, 0x71, 0x75,
  0x65, 0x6e, 0x74, 0x69, 0x61, 0x6c, 0x2f, 0x64, 0x65, 0x6e, 0x73, 0x65,
  0x2f, 0x52, 0x65, 0x6c, 0x75, 0x00, 0x00, 0x00, 0x1c, 0xd3, 0xff, 0xff,
  0x00, 0x00, 0x0a, 0x00, 0x10, 0x00, 0x04, 0x00, 0x08, 0x00, 0x0c, 0x00,
  0x0a, 0x00, 0x00, 0x00, 0x02, 0x00, 0x00, 0x00, 0x10, 0x00, 0x00, 0x00,
  0x04, 0x00, 0x00, 0x00, 0x01, 0x00, 0x00, 0x00, 0x0e, 0x00, 0x00, 0x00,
  0x02, 0x00, 0x00, 0x00, 0x0d, 0x00, 0x00, 0x00, 0x03, 0x00, 0x00, 0x00,
  0x7a, 0xfd, 0xff, 0xff, 0x00, 0x00, 0x00, 0x16, 0x01, 0x00, 0x00, 0x00,
  0x52, 0xd3, 0xff, 0xff, 0x10, 0x00, 0x00, 0x00, 0x0f, 0x00, 0x00, 0x00,
  0x14, 0x00, 0x00, 0x00, 0x30, 0x00, 0x00, 0x00, 0x02, 0x00, 0x00, 0x00,
  0x01, 0x00, 0x00, 0x00, 0x70, 0x00, 0x00, 0x00, 0x1a, 0x00, 0x00, 0x00,
  0x73, 0x65, 0x71, 0x75, 0x65, 0x6e, 0x74, 0x69, 0x61, 0x6c, 0x2f, 0x66,
  0x6c, 0x61, 0x74, 0x74, 0x65, 0x6e, 0x2f, 0x52, 0x65, 0x73, 0x68, 0x61,
  0x70, 0x65, 0x00, 0x00, 0x44, 0xd3, 0xff, 0xff, 0xe2, 0xfe, 0xff, 0xff,
  0x00, 0x00, 0x00, 0x05, 0x01, 0x00, 0x00, 0x00, 0x38, 0x00, 0x00, 0x00,
  0x2c, 0x00, 0x00, 0x00, 0x14, 0x00, 0x00, 0x00, 0x00, 0x00, 0x0e, 0x00,
  0x14, 0x00, 0x00, 0x00, 0x10, 0x00, 0x0c, 0x00, 0x08, 0x00, 0x04, 0x00,
  0x0e, 0x00, 0x00, 0x00, 0x03, 0x00, 0x00, 0x00, 0x01, 0x00, 0x00, 0x00,
  0x03, 0x00, 0x00, 0x00, 0x01, 0x00, 0x00, 0x00, 0x01, 0x00, 0x00, 0x00,
  0x0d, 0x00, 0x00, 0x00, 0x01, 0x00, 0x00, 0x00, 0x0c, 0x00, 0x00, 0x00,
  0xe2, 0xd3, 0xff, 0xff, 0x10, 0x00, 0x00, 0x00, 0x0e, 0x00, 0x00, 0x00,
  0x1c, 0x00, 0x00, 0x00, 0x40, 0x00, 0x00, 0x00, 0x04, 0x00, 0x00, 0x00,
  0x01, 0x00, 0x00, 0x00, 0x07, 0x00, 0x00, 0x00, 0x01, 0x00, 0x00, 0x00,
  0x10, 0x00, 0x00, 0x00, 0x22, 0x00, 0x00, 0x00, 0x73, 0x65, 0x71, 0x75,
  0x65, 0x6e, 0x74, 0x69, 0x61, 0x6c, 0x2f, 0x6d, 0x61, 0x78, 0x5f, 0x70,
  0x6f, 0x6f, 0x6c, 0x69, 0x6e, 0x67, 0x32, 0x64, 0x5f, 0x31, 0x2f, 0x4d,
  0x61, 0x78, 0x50, 0x6f, 0x6f, 0x6c, 0x00, 0x00, 0xe4, 0xd3, 0xff, 0xff,
  0xc2, 0xfe, 0xff, 0xff, 0x00, 0x00, 0x00, 0x01, 0x24, 0x00, 0x00, 0x00,
  0x18, 0x00, 0x00, 0x00, 0x04, 0x00, 0x00, 0x00, 0xb4, 0xfe, 0xff, 0xff,
  0x01, 0x00, 0x00, 0x00, 0x01, 0x00, 0x00, 0x00, 0x00, 0x00, 0x00, 0x01,
  0x01, 0x00, 0x00, 0x00, 0x0c, 0x00, 0x00, 0x00, 0x03, 0x00, 0x00, 0x00,
  0x0b, 0x00, 0x00, 0x00, 0x07, 0x00, 0x00, 0x00, 0x09, 0x00, 0x00, 0x00,
  0x72, 0xd4, 0xff, 0xff, 0x10, 0x00, 0x00, 0x00, 0x0d, 0x00, 0x00, 0x00,
  0x1c, 0x00, 0x00, 0x00, 0x2c, 0x00, 0x00, 0x00, 0x04, 0x00, 0x00, 0x00,
  0x01, 0x00, 0x00, 0x00, 0x15, 0x00, 0x00, 0x00, 0x01, 0x00, 0x00, 0x00,
  0x10, 0x00, 0x00, 0x00, 0x0c, 0x00, 0x00, 0x00, 0x74, 0x66, 0x6c, 0x2e,
  0x63, 0x6f, 0x6e, 0x76, 0x5f, 0x32, 0x64, 0x31, 0x00, 0x00, 0x00, 0x00,
  0xb8, 0xd4, 0xff, 0xff, 0x00, 0x00, 0x0e, 0x00, 0x1a, 0x00, 0x08, 0x00,
  0x0c, 0x00, 0x10, 0x00, 0x07, 0x00, 0x14, 0x00, 0x0e, 0x00, 0x00, 0x00,
  0x00, 0x00, 0x00, 0x05, 0x01, 0x00, 0x00, 0x00, 0x3c, 0x00, 0x00, 0x00,
  0x30, 0x00, 0x00, 0x00, 0x14, 0x00, 0x00, 0x00, 0x00, 0x00, 0x0e, 0x00,
  0x18, 0x00, 0x17, 0x00, 0x10, 0x00, 0x0c, 0x00, 0x08, 0x00, 0x04, 0x00,
  0x0e, 0x00, 0x00, 0x00, 0x03, 0x00, 0x00, 0x00, 0x03, 0x00, 0x00, 0x00,
  0x03, 0x00, 0x00, 0x00, 0x03, 0x00, 0x00, 0x00, 0x00, 0x00, 0x00, 0x01,
  0x01, 0x00, 0x00, 0x00, 0x0b, 0x00, 0x00, 0x00, 0x01, 0x00, 0x00, 0x00,
  0x0a, 0x00, 0x00, 0x00, 0x46, 0xff, 0xff, 0xff, 0x00, 0x00, 0x00, 0x11,
  0x01, 0x00, 0x00, 0x00, 0x1e, 0xd5, 0xff, 0xff, 0x10, 0x00, 0x00, 0x00,
  0x0c, 0x00, 0x00, 0x00, 0x1c, 0x00, 0x00, 0x00, 0x40, 0x00, 0x00, 0x00,
  0x04, 0x00, 0x00, 0x00, 0x01, 0x00, 0x00, 0x00, 0x15, 0x00, 0x00, 0x00,
  0x01, 0x00, 0x00, 0x00, 0x08, 0x00, 0x00, 0x00, 0x20, 0x00, 0x00, 0x00,
  0x73, 0x65, 0x71, 0x75, 0x65, 0x6e, 0x74, 0x69, 0x61, 0x6c, 0x2f, 0x6d,
  0x61, 0x78, 0x5f, 0x70, 0x6f, 0x6f, 0x6c, 0x69, 0x6e, 0x67, 0x32, 0x64,
  0x2f, 0x4d, 0x61, 0x78, 0x50, 0x6f, 0x6f, 0x6c, 0x00, 0x00, 0x00, 0x00,
  0x78, 0xd5, 0xff, 0xff, 0x00, 0x00, 0x0e, 0x00, 0x14, 0x00, 0x00, 0x00,
  0x08, 0x00, 0x0c, 0x00, 0x07, 0x00, 0x10, 0x00, 0x0e, 0x00, 0x00, 0x00,
  0x00, 0x00, 0x00, 0x01, 0x30, 0x00, 0x00, 0x00, 0x24, 0x00, 0x00, 0x00,
  0x10, 0x00, 0x00, 0x00, 0x0c, 0x00, 0x10, 0x00, 0x00, 0x00, 0x04, 0x00,
  0x08, 0x00, 0x0f, 0x00, 0x0c, 0x00, 0x00, 0x00, 0x01, 0x00, 0x00, 0x00,
  0x01, 0x00, 0x00, 0x00, 0x00, 0x00, 0x00, 0x01, 0x01, 0x00, 0x00, 0x00,
  0x0a, 0x00, 0x00, 0x00, 0x03, 0x00, 0x00, 0x00, 0x00, 0x00, 0x00, 0x00,
  0x06, 0x00, 0x00, 0x00, 0x08, 0x00, 0x00, 0x00, 0x00, 0x00, 0x0a, 0x00,
  0x0c, 0x00, 0x07, 0x00, 0x00, 0x00, 0x08, 0x00, 0x0a, 0x00, 0x00, 0x00,
  0x00, 0x00, 0x00, 0x03, 0x01, 0x00, 0x00, 0x00, 0xe2, 0xd5, 0xff, 0xff,
  0x10, 0x00, 0x00, 0x00, 0x0b, 0x00, 0x00, 0x00, 0x1c, 0x00, 0x00, 0x00,
  0x28, 0x00, 0x00, 0x00, 0x04, 0x00, 0x00, 0x00, 0x01, 0x00, 0x00, 0x00,
  0x40, 0x00, 0x00, 0x00, 0x03, 0x00, 0x00, 0x00, 0x08, 0x00, 0x00, 0x00,
  0x0b, 0x00, 0x00, 0x00, 0x74, 0x66, 0x6c, 0x2e, 0x63, 0x6f, 0x6e, 0x76,
  0x5f, 0x32, 0x64, 0x00, 0xcc, 0xd5, 0xff, 0xff, 0xc2, 0xd6, 0xff, 0xff,
  0x04, 0x00, 0x00, 0x00, 0x40, 0x00, 0x00, 0x00, 0xbf, 0x46, 0xef, 0x3f,
  0xf7, 0x99, 0x52, 0xbf, 0x1d, 0x8b, 0x00, 0xc0, 0xc5, 0xae, 0x52, 0xbe,
  0x47, 0x13, 0x9b, 0xbf, 0x7e, 0x31, 0xad, 0xbe, 0x12, 0x57, 0xf5, 0xbf,
  0x7f, 0x28, 0x07, 0xbf, 0x41, 0xdb, 0x85, 0xbf, 0xf8, 0xb0, 0x01, 0xbf,
  0xb8, 0x2f, 0x87, 0xbe, 0x0f, 0x93, 0xdc, 0xbf, 0x66, 0x9a, 0x0d, 0x3f,
  0x20, 0x49, 0x20, 0xbe, 0xf8, 0x00, 0xb2, 0xbf, 0x69, 0xee, 0x28, 0x40,
  0x6a, 0xd6, 0xff, 0xff, 0x10, 0x00, 0x00, 0x00, 0x0a, 0x00, 0x00, 0x00,
  0x10, 0x00, 0x00, 0x00, 0x20, 0x00, 0x00, 0x00, 0x01, 0x00, 0x00, 0x00,
  0x10, 0x00, 0x00, 0x00, 0x0d, 0x00, 0x00, 0x00, 0x73, 0x74, 0x64, 0x2e,
  0x63, 0x6f, 0x6e, 0x73, 0x74, 0x61, 0x6e, 0x74, 0x31, 0x00, 0x00, 0x00,
  0x4c, 0xd6, 0xff, 0xff, 0x42, 0xd7, 0xff, 0xff, 0x04, 0x00, 0x00, 0x00,
  0x20, 0x00, 0x00, 0x00, 0x72, 0x35, 0x9a, 0xbf, 0x78, 0x6b, 0xb5, 0xbf,
  0x22, 0x76, 0x1c, 0xc0, 0x3d, 0x04, 0x60, 0xbf, 0x14, 0x54, 0x05, 0xc0,
  0xec, 0x6c, 0x3d, 0xc0, 0xf3, 0x09, 0x05, 0xc0, 0x35, 0xd5, 0x3a, 0xbd,
  0xca, 0xd6, 0xff, 0xff, 0x10, 0x00, 0x00, 0x00, 0x09, 0x00, 0x00, 0x00,
  0x10, 0x00, 0x00, 0x00, 0x20, 0x00, 0x00, 0x00, 0x01, 0x00, 0x00, 0x00,
  0x08, 0x00, 0x00, 0x00, 0x0c, 0x00, 0x00, 0x00, 0x73, 0x74, 0x64, 0x2e,
  0x63, 0x6f, 0x6e, 0x73, 0x74, 0x61, 0x6e, 0x74, 0x00, 0x00, 0x00, 0x00,
  0xac, 0xd6, 0xff, 0xff, 0xa2, 0xd7, 0xff, 0xff, 0x04, 0x00, 0x00, 0x00,
  0x00, 0x08, 0x00, 0x00, 0xad, 0xf2, 0x2b, 0x3d, 0xbc, 0x54, 0x98, 0xbe,
  0xe8, 0x40, 0xd3, 0xbd, 0x52, 0xef, 0x41, 0xbe, 0x4f, 0x85, 0x36, 0xbe,
  0x6d, 0x33, 0x89, 0xbc, 0x84, 0xcb, 0x53, 0xbe, 0xad, 0x69, 0x8c, 0xbe,
  0x50, 0xb8, 0x37, 0xbc, 0x9f, 0xe6, 0x0f, 0xbe, 0x6f, 0x33, 0x85, 0xbd,
  0xdc, 0x6d, 0x83, 0xbe, 0x7f, 0x7c, 0x77, 0xbd, 0x71, 0x79, 0x95, 0xbe,
  0x5d, 0xbe, 0x0f, 0xbd, 0x44, 0x5a, 0x4c, 0xbe, 0x74, 0xae, 0x70, 0xbe,
  0x1d, 0x90, 0x33, 0xbe, 0xf5, 0xf2, 0x7c, 0xbe, 0x31, 0x1c, 0xd0, 0xbd,
  0xa8, 0x13, 0xdd, 0xbd, 0xfb, 0x07, 0xb6, 0xbe, 0x04, 0xbf, 0x55, 0xbe,
  0x77, 0xcb, 0x26, 0x3d, 0xb4, 0x50, 0x24, 0x3e, 0xf3, 0x26, 0x92, 0xbe,
  0x71, 0x20, 0x47, 0xbe, 0x45, 0x58, 0x98, 0xbe, 0x36, 0x38, 0xa7, 0x3d,
  0x88, 0x3c, 0x52, 0xbe, 0xf3, 0x2c, 0x46, 0xbe, 0x22, 0x82, 0x16, 0xbe,
  0x90, 0x60, 0xaa, 0x3d, 0x2e, 0x78, 0x70, 0x3e, 0xa8, 0xe6, 0x0a, 0xbe,
  0x96, 0x79, 0x57, 0xbe, 0x82, 0xd4, 0x85, 0xbe, 0xd8, 0x24, 0x81, 0xbe,
  0x53, 0xc5, 0x96, 0xbd, 0x8c, 0xa9, 0xc4, 0x3c, 0x6d, 0xfe, 0x98, 0xbe,
  0x87, 0x8f, 0x2c, 0x3e, 0x33, 0x83, 0xaf, 0xbd, 0x95, 0x7e, 0x2f, 0xbf,
  0x5c, 0x6d, 0x16, 0xbf, 0xe1, 0x0f, 0x09, 0xbe, 0xdf, 0x54, 0xc7, 0x3e,
  0x0d, 0xf9, 0x40, 0xbd, 0x12, 0x10, 0x83, 0xbe, 0xf0, 0x1a, 0x86, 0xbd,
  0xb4, 0x6a, 0xa9, 0x3c, 0xc0, 0xdf, 0x60, 0xbc, 0x7e, 0x10, 0xd5, 0xbd,
  0x5e, 0x67, 0xe0, 0x3c, 0x2c, 0x4a, 0xdb, 0xbe, 0x0f, 0x7c, 0xc2, 0xbc,
  0x17, 0xa1, 0xe0, 0x3d, 0x4f, 0x5b, 0xce, 0xbd, 0x38, 0x03, 0x50, 0x3c,
  0x5c, 0xc3, 0x85, 0x3e, 0x97, 0x27, 0x2a, 0x3e, 0x5b, 0xf4, 0x8a, 0xbd,
  0xb0, 0x81, 0x21, 0x3d, 0x5e, 0x0d, 0x0c, 0x3d, 0xa3, 0x5f, 0xa6, 0xbd,
  0x86, 0x2e, 0xf8, 0xbd, 0x9f, 0xf8, 0x47, 0xbe, 0x63, 0x73, 0x9b, 0xbe,
  0x33, 0xc1, 0x24, 0xbe, 0x4c, 0xa8, 0x4e, 0xbe, 0x09, 0xf7, 0x99, 0x3e,
  0xa9, 0x33, 0x66, 0xbd, 0xc8, 0x86, 0xb1, 0xbd, 0xc8, 0xfa, 0x7e, 0xbe,
  0xef, 0x63, 0x6f, 0xbe, 0x18, 0xa9, 0x10, 0xbe, 0x28, 0xba, 0x51, 0xbe,
  0xf6, 0x1c, 0x42, 0xbe, 0x89, 0x12, 0x1a, 0xbe, 0x8d, 0x7d, 0xbb, 0xbc,
  0x34, 0x2f, 0x5d, 0xbc, 0x9c, 0xf8, 0x0a, 0x3d, 0x13, 0xfa, 0xc7, 0xbd,
  0x69, 0xad, 0x69, 0x3e, 0xad, 0x63, 0x1f, 0xbe, 0xc0, 0x7c, 0x21, 0xbe,
  0xd9, 0x6a, 0x00, 0xbe, 0xe5, 0xb3, 0xb2, 0x3d, 0x45, 0xed, 0x6a, 0x3d,
  0x52, 0xf4, 0xd9, 0x3d, 0x7d, 0xc6, 0x8d, 0x3e, 0x66, 0xb1, 0x92, 0x3e,
  0x41, 0x8a, 0xbb, 0x3e, 0x37, 0xe5, 0xad, 0x3e, 0x0f, 0xd5, 0x7e, 0xbd,
  0xdc, 0x6c, 0xde, 0xbd, 0x87, 0xe8, 0x4f, 0xbe, 0xc1, 0xee, 0x84, 0x3e,
  0x12, 0xa7, 0x0b, 0xbe, 0x0d, 0x03, 0x88, 0x3e, 0x07, 0x8a, 0xb9, 0xbe,
  0xf2, 0xa0, 0x94, 0xbe, 0x4f, 0x2c, 0x18, 0x3d, 0xf7, 0xf4, 0xdb, 0x3e,
  0xbb, 0x72, 0x8c, 0xbe, 0x9a, 0xa3, 0xea, 0xbd, 0xf4, 0x6c, 0x05, 0xbe,
  0x52, 0x4c, 0xa1, 0x3e, 0x28, 0x62, 0x62, 0xbe, 0xcc, 0x39, 0x88, 0xbe,
  0x1a, 0xf7, 0x7c, 0x3e, 0x0d, 0xb7, 0x26, 0x3e, 0xac, 0x71, 0x5a, 0xbe,
  0x7f, 0x0f, 0xfb, 0xbd, 0x2c, 0xf8, 0x02, 0xbd, 0x2e, 0x64, 0xa5, 0xbe,
  0xc2, 0x92, 0x22, 0xbc, 0x6c, 0xc6, 0xa0, 0xbd, 0x77, 0xb1, 0x0d, 0x3e,
  0x43, 0xa8, 0x69, 0x3e, 0xfb, 0x26, 0xab, 0xbd, 0x8c, 0xb5, 0x31, 0x3e,
  0xf6, 0x69, 0x22, 0xbd, 0x7e, 0x6e, 0xe1, 0x3d, 0xcf, 0x52, 0x56, 0x3e,
  0xfa, 0x89, 0xfd, 0xbd, 0x32, 0x2d, 0xa1, 0x3d, 0x29, 0x77, 0x74, 0xbd,
  0xa2, 0x40, 0x90, 0x3c, 0xd9, 0xfc, 0x50, 0xbd, 0x98, 0x2d, 0xa9, 0xbe,
  0x91, 0xdc, 0x40, 0xbf, 0x78, 0x08, 0xd0, 0xbe, 0x19, 0x59, 0x5f, 0xbe,
  0x7f, 0x47, 0x7e, 0x3e, 0x73, 0x14, 0xf8, 0xbd, 0x42, 0xf0, 0xe5, 0xbe,
  0x0a, 0x0e, 0xe3, 0x3e, 0x26, 0xda, 0xba, 0xbd, 0x0e, 0x06, 0xc3, 0x3d,
  0x81, 0xb9, 0x0f, 0xbf, 0xfa, 0xf5, 0x43, 0xbe, 0xa5, 0x7f, 0xaa, 0x3d,
  0x1d, 0x2b, 0x2e, 0x3d, 0xd4, 0x5e, 0x82, 0xbe, 0xd9, 0xf0, 0xc0, 0xbe,
  0x0a, 0xed, 0xdc, 0x3d, 0xca, 0x88, 0x8c, 0xbd, 0xb7, 0xb6, 0xf5, 0x3c,
  0xc2, 0x38, 0x34, 0x3c, 0xb8, 0xd2, 0x17, 0xbf, 0xe6, 0xac, 0x0c, 0x3e,
  0x49, 0x7d, 0x7c, 0xbd, 0x25, 0xc0, 0x59, 0xbd, 0x8f, 0xbf, 0x1c, 0xbd,
  0xfc, 0xf4, 0xc8, 0x3e, 0x17, 0xfc, 0x81, 0x3c, 0xbb, 0xd4, 0x0e, 0xbd,
  0xb0, 0x7d, 0xda, 0x3d, 0x3a, 0x27, 0x15, 0xbe, 0xf0, 0x94, 0xfc, 0xbd,
  0x9a, 0x90, 0x92, 0xbe, 0x71, 0xa8, 0xbc, 0xbe, 0x26, 0x4a, 0xb9, 0xbe,
  0x1f, 0x81, 0x18, 0xbe, 0x86, 0x77, 0x95, 0xbe, 0xbe, 0x5b, 0x12, 0xbd,
  0x73, 0x60, 0x36, 0xbd, 0x50, 0xf9, 0xda, 0x3c, 0xc0, 0x94, 0x11, 0x3f,
  0xad, 0x00, 0x8a, 0xbc, 0x40, 0xb6, 0x39, 0xbe, 0x4c, 0xef, 0x01, 0xbe,
  0xa8, 0x7b, 0xf1, 0xbb, 0xde, 0x1a, 0x5c, 0xbe, 0xc5, 0x27, 0x10, 0x3d,
  0xde, 0xc4, 0x49, 0xbd, 0x3d, 0x64, 0xc8, 0xbd, 0x73, 0x98, 0xce, 0x3d,
  0xe7, 0xd0, 0xf2, 0xbd, 0x12, 0xa4, 0x0b, 0xbe, 0x6c, 0xb1, 0x80, 0xbd,
  0xd4, 0xb3, 0xc9, 0x3e, 0xa7, 0x47, 0x19, 0xbc, 0x82, 0x1e, 0x00, 0x3e,
  0xff, 0xcf, 0x53, 0xbe, 0xcb, 0x47, 0x55, 0xbd, 0xb7, 0x68, 0xdb, 0xbe,
  0x76, 0x26, 0x37, 0x3d, 0x59, 0xc4, 0x14, 0xbe, 0x2e, 0x21, 0xc8, 0xbe,
  0x6e, 0x9e, 0xad, 0xbd, 0xea, 0x01, 0x81, 0xbd, 0x22, 0xdd, 0x16, 0x3e,
  0xa5, 0x31, 0x2e, 0x3f, 0xd6, 0xe2, 0x00, 0x3c, 0x75, 0x8d, 0xf8, 0x3d,
  0x82, 0x54, 0x0e, 0x3e, 0xb6, 0x97, 0x9a, 0xbd, 0x6a, 0xc3, 0x92, 0xbe,
  0xc7, 0x9e, 0xe9, 0xbd, 0xf4, 0x37, 0xe1, 0xbd, 0x80, 0xe8, 0x00, 0xbe,
  0xe8, 0x2d, 0xac, 0xbd, 0x3c, 0x15, 0x2d, 0xbd, 0x78, 0xcf, 0x80, 0xbd,
  0x86, 0x74, 0xa9, 0xbc, 0xd9, 0x59, 0x16, 0xbf, 0x88, 0x8b, 0x30, 0xbe,
  0x3d, 0x85, 0xf0, 0xbc, 0xc1, 0x47, 0x19, 0xbe, 0xdc, 0xf2, 0x5c, 0xbe,
  0x94, 0xd2, 0xb1, 0xbd, 0xa3, 0xab, 0xca, 0xbd, 0xc1, 0x85, 0x18, 0x3e,
  0x0f, 0x7c, 0x76, 0xbe, 0x18, 0xa6, 0xea, 0xbd, 0xa3, 0x60, 0x71, 0xbd,
  0x9c, 0x70, 0x33, 0xbe, 0xb3, 0xfa, 0x42, 0xbe, 0x8e, 0xc9, 0xc9, 0xbd,
  0x04, 0xe6, 0x2a, 0xbe, 0x8e, 0x0f, 0x95, 0x3e, 0x04, 0x8d, 0x0c, 0x3e,
  0x97, 0x22, 0xb8, 0x3d, 0xe9, 0xc6, 0xb2, 0xbe, 0x4e, 0x33, 0x83, 0xbe,
  0xd3, 0x9f, 0xfc, 0xbd, 0xa4, 0x21, 0x3c, 0xbe, 0x66, 0x2c, 0x96, 0xbe,
  0x4e, 0xe3, 0xcc, 0xbe, 0xa5, 0xec, 0x7b, 0xbd, 0x78, 0x52, 0x70, 0x3d,
  0xfd, 0x90, 0xaf, 0xbe, 0x9a, 0xe4, 0x07, 0xbe, 0x27, 0xd5, 0x27, 0xbe,
  0xa3, 0x13, 0x16, 0xbe, 0x53, 0x98, 0x9f, 0xbe, 0xcb, 0x8a, 0xc1, 0xbd,
  0xfc, 0xf7, 0xa5, 0xbd, 0x5a, 0x29, 0xbe, 0xbc, 0x4f, 0xb4, 0xc8, 0x3e,
  0xa4, 0x86, 0x9d, 0xbd, 0x73, 0x20, 0x99, 0xbe, 0x92, 0x4e, 0x45, 0xbe,
  0x23, 0x10, 0x47, 0xbe, 0x4a, 0xc1, 0x59, 0x3e, 0x13, 0x42, 0x7d, 0xbd,
  0xa9, 0x63, 0xfb, 0xbd, 0x35, 0x90, 0x88, 0x3e, 0x9e, 0xc1, 0xd5, 0xbc,
  0x77, 0xde, 0x28, 0x3e, 0xf8, 0xb7, 0x2c, 0xbe, 0x87, 0x9a, 0x73, 0x3d,
  0x7e, 0x05, 0xc7, 0x3e, 0xfd, 0xc7, 0xca, 0x3d, 0xb3, 0x07, 0xf0, 0xbd,
  0x11, 0xa2, 0x61, 0x3e, 0xe9, 0xe1, 0xd0, 0xbd, 0x1b, 0x13, 0x05, 0xbe,
  0x14, 0xdc, 0xe3, 0xbe, 0x1b, 0x7e, 0x54, 0xbe, 0x12, 0x52, 0x59, 0xbe,
  0xd4, 0xc3, 0x4f, 0x3e, 0x94, 0xdf, 0xde, 0xbe, 0x3c, 0x7f, 0xc0, 0xbd,
  0xe8, 0x67, 0xda, 0xbc, 0x53, 0xb4, 0x12, 0x3e, 0x90, 0xb0, 0xbb, 0xbe,
  0x8c, 0x77, 0x30, 0xbe, 0xa5, 0x83, 0x0c, 0x3f, 0x15, 0xf6, 0x7a, 0x3d,
  0xf4, 0xa6, 0x59, 0xbe, 0x3b, 0x8d, 0xcf, 0xbd, 0x3f, 0x08, 0xc1, 0x3c,
  0x02, 0x34, 0x9d, 0x3e, 0x58, 0x4d, 0xfc, 0xbc, 0x6d, 0x5a, 0xf5, 0xbd,
  0x83, 0x9e, 0xd5, 0xbd, 0x8c, 0xdf, 0xa8, 0x3d, 0xc7, 0xa3, 0xb2, 0xbd,
  0x0c, 0x40, 0x55, 0x3e, 0x25, 0x38, 0x0d, 0xbe, 0x08, 0x6b, 0x8d, 0xbd,
  0xa6, 0x48, 0x8e, 0x3d, 0x31, 0xaf, 0x0f, 0xbe, 0x4b, 0x8b, 0x2c, 0xbd,
  0x9a, 0x8d, 0x1e, 0xbe, 0xe4, 0x6c, 0x8b, 0xbe, 0x59, 0xa8, 0x56, 0x3d,
  0x19, 0xb0, 0x04, 0xbd, 0xd8, 0xa4, 0x32, 0x3e, 0xa7, 0xa3, 0x21, 0xbe,
  0xbc, 0xce, 0x43, 0xbe, 0xf0, 0x84, 0xee, 0x3e, 0xdc, 0x30, 0x56, 0xbe,
  0xbc, 0x74, 0x06, 0xbf, 0xde, 0x4a, 0xef, 0x3e, 0x5a, 0xf7, 0x62, 0xbd,
  0xe0, 0x84, 0x14, 0x3e, 0x9b, 0x74, 0xc8, 0xbe, 0x75, 0xeb, 0x24, 0xbe,
  0x55, 0x3e, 0x90, 0xbd, 0x02, 0x31, 0xdb, 0x3d, 0x5e, 0x40, 0xca, 0xbe,
  0x4e, 0xd7, 0xed, 0xbb, 0x85, 0xa7, 0xb5, 0x3d, 0x9f, 0x21, 0x7f, 0x3e,
  0x00, 0xa7, 0x4e, 0xbe, 0x5b, 0x0d, 0x22, 0xbe, 0xc0, 0x79, 0x6d, 0x3d,
  0xec, 0xc2, 0x4f, 0x3b, 0x7d, 0x6a, 0xa5, 0xbe, 0x91, 0xfb, 0x79, 0x3d,
  0x80, 0xed, 0x84, 0xbc, 0xac, 0xaf, 0x4f, 0x3e, 0xa7, 0x6b, 0xb4, 0xbd,
  0x6a, 0x40, 0xc4, 0xbd, 0x7a, 0x45, 0xc1, 0x3e, 0xf8, 0xf2, 0x06, 0xbd,
  0x56, 0x3b, 0xa3, 0xbd, 0xca, 0x0b, 0x0e, 0xbe, 0x3f, 0x84, 0x97, 0xbd,
  0x5f, 0xd7, 0x54, 0x3e, 0x62, 0xcc, 0x6a, 0xbe, 0x08, 0xf2, 0xa9, 0xbd,
  0x3e, 0x0d, 0xd3, 0x3e, 0xdb, 0xfe, 0x2f, 0xbd, 0x36, 0xe7, 0x13, 0xbe,
  0x1e, 0x47, 0x1c, 0xbf, 0x00, 0xfe, 0x5b, 0xbd, 0xe1, 0xfc, 0x43, 0x3e,
  0xfd, 0x4f, 0x1e, 0xbe, 0xf3, 0x7d, 0x18, 0xbd, 0x6f, 0x4f, 0x01, 0xbf,
  0x19, 0xca, 0x60, 0xbd, 0xf5, 0x7e, 0x04, 0x3d, 0x6f, 0xad, 0x6c, 0xbe,
  0x69, 0x3a, 0xfc, 0x3b, 0x7f, 0x1f, 0x6b, 0xbe, 0x99, 0x81, 0x47, 0xbd,
  0x35, 0x5f, 0xa9, 0xbd, 0xf9, 0xa2, 0x99, 0xbe, 0x45, 0x4e, 0xa4, 0x3e,
  0x88, 0xea, 0x6e, 0x3d, 0x98, 0x2b, 0x82, 0xbd, 0xfd, 0xd3, 0x8b, 0x3d,
  0x28, 0xd7, 0xaf, 0xbe, 0x35, 0x8c, 0x8c, 0xbd, 0x9b, 0xd0, 0x8b, 0xbd,
  0x08, 0x02, 0xff, 0x3e, 0x0e, 0xde, 0x74, 0xbd, 0x7b, 0x5c, 0x51, 0xbd,
  0x63, 0xa3, 0x0e, 0x3f, 0x0c, 0x02, 0x95, 0x3d, 0x84, 0x8f, 0xb3, 0xbe,
  0x00, 0x76, 0x39, 0xbd, 0xa0, 0x31, 0xe8, 0xbd, 0x5e, 0xc5, 0x9e, 0x3e,
  0x30, 0x70, 0x33, 0xbe, 0xb9, 0x2b, 0x2b, 0xbe, 0x0d, 0x26, 0x01, 0xbe,
  0x9f, 0x5b, 0xf5, 0xbc, 0xc0, 0x91, 0x59, 0xbd, 0x97, 0xe2, 0xab, 0xbe,
  0x47, 0x38, 0x94, 0xbd, 0x85, 0xb3, 0x88, 0x3e, 0x0d, 0xa7, 0x46, 0x3e,
  0xb1, 0x2e, 0x3e, 0xbc, 0x43, 0x78, 0xfa, 0xbe, 0x7a, 0xf4, 0x78, 0xbc,
  0x90, 0xbd, 0x4e, 0x3e, 0xba, 0x73, 0xc5, 0xbc, 0x1d, 0xf0, 0x44, 0x3d,
  0x72, 0x25, 0x0c, 0xbf, 0x03, 0x87, 0x0d, 0xbd, 0x83, 0x4b, 0xec, 0x3c,
  0xcf, 0x3b, 0x90, 0xbe, 0xfc, 0x6a, 0xb9, 0xbd, 0x9c, 0xf9, 0x38, 0x3e,
  0x1e, 0x7a, 0xb0, 0x3d, 0x9e, 0x29, 0x3f, 0xbc, 0xc1, 0x47, 0x61, 0xbe,
  0xe8, 0xd1, 0x2f, 0xbe, 0x3d, 0x66, 0x10, 0x3e, 0x10, 0x63, 0xe3, 0xbd,
  0x03, 0xca, 0x77, 0xbd, 0x0d, 0xcd, 0xbc, 0x3c, 0x82, 0xd4, 0x42, 0xbd,
  0xd2, 0xb9, 0xe8, 0xbd, 0xf0, 0x7f, 0x0a, 0xbe, 0x88, 0xe7, 0xb2, 0x3e,
  0x59, 0x0f, 0x47, 0x3d, 0xfc, 0xbc, 0x86, 0x3e, 0x21, 0x04, 0x89, 0x3d,
  0x83, 0x3a, 0x25, 0xbe, 0xea, 0x80, 0x9c, 0x3d, 0xa0, 0x74, 0x20, 0x3e,
  0xe2, 0xcc, 0x02, 0x3d, 0xa0, 0xf3, 0x9e, 0x3c, 0x06, 0xa8, 0xa3, 0xbd,
  0x10, 0x1c, 0x00, 0xbe, 0x77, 0x63, 0x9f, 0x3d, 0xb6, 0x25, 0x05, 0x3e,
  0x31, 0x5b, 0x8c, 0x3b, 0x61, 0xe4, 0xc5, 0xbd, 0x57, 0x63, 0x88, 0x3d,
  0x66, 0x87, 0xad, 0xbd, 0x6e, 0xb6, 0x23, 0xbd, 0x5b, 0x7b, 0xce, 0x3d,
  0x6f, 0x6a, 0x88, 0xbc, 0xac, 0x3f, 0xd0, 0x3b, 0x23, 0x19, 0xb8, 0x3d,
  0xa3, 0xa2, 0xe0, 0x3d, 0xdd, 0x87, 0x96, 0xbd, 0xac, 0xdf, 0xf8, 0xbc,
  0x59, 0x55, 0x28, 0xbe, 0x62, 0x12, 0x99, 0x3c, 0xea, 0x2e, 0x1f, 0x3f,
  0x82, 0x38, 0x24, 0xbd, 0x06, 0x11, 0xc9, 0xbd, 0xc8, 0x99, 0x7d, 0x3c,
  0xf9, 0x9a, 0x46, 0x3c, 0xdb, 0x0f, 0x13, 0xbe, 0xb2, 0xb7, 0xf5, 0xbd,
  0xd6, 0x90, 0xf9, 0x3c, 0xa9, 0x02, 0x23, 0xbe, 0x0c, 0xf7, 0xa7, 0x3c,
  0x80, 0x02, 0x29, 0x3c, 0x2e, 0xdc, 0x8f, 0x3d, 0x17, 0x28, 0xc1, 0xbd,
  0xd4, 0xf5, 0x20, 0xbe, 0x0f, 0x03, 0xfe, 0xbd, 0xda, 0x13, 0x1f, 0x3c,
  0x91, 0x9d, 0x4d, 0xbd, 0x3c, 0xef, 0xfc, 0x3c, 0x00, 0x48, 0xb0, 0xbd,
  0xb9, 0x53, 0x4a, 0xbd, 0xa5, 0xd4, 0x6c, 0xbc, 0x1a, 0x90, 0x17, 0xbd,
  0xf3, 0xeb, 0xb4, 0xbd, 0xa9, 0x19, 0x19, 0x3d, 0x56, 0x15, 0x20, 0xbb,
  0xfc, 0x31, 0xa7, 0x3c, 0xaa, 0x1e, 0x5e, 0xbc, 0x6d, 0xf2, 0xf7, 0xbd,
  0x77, 0x16, 0x7b, 0x3c, 0x30, 0x11, 0x78, 0xbc, 0x8e, 0xfa, 0xa3, 0x3d,
  0x4c, 0xa8, 0x9a, 0x3e, 0xd0, 0xaa, 0xa5, 0xbd, 0xf4, 0x71, 0x95, 0x3d,
  0xa5, 0xa4, 0x1a, 0x3d, 0xe0, 0xf5, 0x3a, 0x3e, 0xc3, 0x2e, 0xc5, 0x3e,
  0xdd, 0x41, 0x07, 0xbe, 0x0e, 0x88, 0xa2, 0xbd, 0xb0, 0x55, 0xef, 0x3d,
  0x72, 0x57, 0x19, 0x3e, 0x3f, 0xfb, 0x82, 0xbe, 0x5e, 0xec, 0xb9, 0x3d,
  0x2d, 0xc4, 0xb5, 0x3d, 0x4f, 0x8b, 0xff, 0x3d, 0x18, 0xd6, 0x50, 0xbe,
  0x9f, 0x37, 0x16, 0xbe, 0x62, 0x00, 0x17, 0xbd, 0xb1, 0xb1, 0x7c, 0xbd,
  0xee, 0x64, 0xcb, 0xbe, 0x52, 0x84, 0xff, 0xbd, 0x07, 0x84, 0x22, 0xbe,
  0x2c, 0x26, 0x56, 0x3e, 0xe5, 0x1c, 0x64, 0xbd, 0x06, 0xe1, 0xcc, 0xbd,
  0xc9, 0x48, 0x4a, 0xbe, 0x6c, 0xb3, 0x4c, 0xbe, 0x9e, 0x02, 0x6c, 0xbe,
  0x32, 0x75, 0x32, 0xbe, 0xcb, 0x81, 0x17, 0xbe, 0xa9, 0x08, 0x25, 0x3e,
  0x36, 0x9f, 0xdb, 0x3d, 0x74, 0x0f, 0xb9, 0xbd, 0xeb, 0x03, 0x04, 0xbe,
  0xd6, 0x7f, 0xf0, 0xbd, 0x63, 0x0f, 0xa5, 0xbd, 0x0a, 0x01, 0xc3, 0xbd,
  0xf2, 0x4c, 0xcc, 0xbd, 0x52, 0xb2, 0xb6, 0xbc, 0x17, 0x72, 0xe1, 0x3d,
  0x70, 0x63, 0x5c, 0xbd, 0x9c, 0x98, 0x4d, 0xbe, 0xc6, 0x69, 0xea, 0xbd,
  0xe7, 0x12, 0x0d, 0xbe, 0x5c, 0xa6, 0x79, 0xbd, 0x9b, 0xb3, 0xcd, 0xbd,
  0x95, 0x5a, 0x6e, 0xbe, 0xb6, 0x04, 0xca, 0xbd, 0x87, 0xe8, 0x99, 0x3c,
  0xac, 0x4c, 0xbf, 0x3c, 0x98, 0x07, 0xaa, 0xbc, 0x40, 0x75, 0x04, 0xbd,
  0x5a, 0xe7, 0x85, 0xbd, 0x71, 0xe3, 0xc3, 0xbd, 0x03, 0x8a, 0x6e, 0xbd,
  0xe0, 0xf4, 0x06, 0xbe, 0x14, 0xc3, 0x0d, 0xbd, 0xbb, 0xdd, 0x01, 0x3e,
  0x6d, 0x5a, 0x98, 0x3d, 0xe1, 0x66, 0xfc, 0x3e, 0xe8, 0xc1, 0x6e, 0x3c,
  0xc6, 0x71, 0x80, 0x3e, 0x65, 0xd2, 0x35, 0xbc, 0x84, 0x94, 0x43, 0xbe,
  0x0a, 0xdf, 0xff, 0xff, 0x10, 0x00, 0x00, 0x00, 0x08, 0x00, 0x00, 0x00,
  0x1c, 0x00, 0x00, 0x00, 0x38, 0x00, 0x00, 0x00, 0x04, 0x00, 0x00, 0x00,
  0x10, 0x00, 0x00, 0x00, 0x04, 0x00, 0x00, 0x00, 0x01, 0x00, 0x00, 0x00,
  0x08, 0x00, 0x00, 0x00, 0x1a, 0x00, 0x00, 0x00, 0x73, 0x65, 0x71, 0x75,
  0x65, 0x6e, 0x74, 0x69, 0x61, 0x6c, 0x2f, 0x63, 0x6f, 0x6e, 0x76, 0x32,
  0x64, 0x5f, 0x31, 0x2f, 0x43, 0x6f, 0x6e, 0x76, 0x32, 0x44, 0x00, 0x00,
  0x04, 0xdf, 0xff, 0xff, 0xfa, 0xdf, 0xff, 0xff, 0x04, 0x00, 0x00, 0x00,
  0x80, 0x01, 0x00, 0x00, 0x9b, 0xae, 0xdd, 0xbd, 0xa2, 0xc5, 0x2a, 0x3c,
  0x81, 0x22, 0xea, 0xbd, 0xb1, 0xb6, 0x21, 0xbd, 0x15, 0x95, 0x9f, 0x3d,
  0x01, 0xc9, 0x8d, 0xbd, 0xac, 0xd0, 0x3f, 0xbd, 0x6d, 0xa6, 0x86, 0x3d,
  0x48, 0x72, 0xb2, 0xbd, 0xc0, 0xa7, 0x28, 0xbc, 0x03, 0xb5, 0x83, 0x3d,
  0x31, 0x48, 0xdf, 0xbd, 0x6f, 0x2d, 0x69, 0xbc, 0x3c, 0xf2, 0x77, 0xbd,
  0xb3, 0x54, 0xa2, 0xbb, 0xd3, 0x38, 0x02, 0xbd, 0x9c, 0xac, 0xc9, 0xbe,
  0x45, 0xba, 0xe4, 0xbe, 0xf3, 0x54, 0x8e, 0xbc, 0x2c, 0x00, 0x2a, 0x3e,
  0x10, 0xe4, 0x36, 0x3e, 0x70, 0x45, 0xe4, 0x3c, 0x84, 0x74, 0x83, 0x3e,
  0xd7, 0xb6, 0xc8, 0x3e, 0x78, 0xb8, 0x1b, 0x3e, 0x99, 0x89, 0x48, 0xbe,
  0xad, 0xc4, 0xda, 0x3d, 0x41, 0xbd, 0x6d, 0x3e, 0x2a, 0xbf, 0x8e, 0xbe,
  0x21, 0xe6, 0x6d, 0x3d, 0x05, 0x2f, 0x7a, 0xbe, 0x27, 0xce, 0xb5, 0x3d,
  0x70, 0xff, 0x5a, 0xbc, 0xf4, 0xbb, 0x81, 0xbe, 0x0a, 0x5d, 0x56, 0x3e,
  0x51, 0xe4, 0x82, 0x3a, 0x0a, 0x11, 0xd8, 0x3e, 0x51, 0x7f, 0x29, 0x3e,
  0x02, 0xa1, 0xb7, 0x3d, 0x44, 0x6b, 0xef, 0x3c, 0xc7, 0x52, 0x90, 0x3e,
  0xd7, 0x5c, 0x82, 0xbc, 0x51, 0x54, 0x8b, 0xbe, 0x66, 0x7c, 0x87, 0xbe,
  0xeb, 0x7e, 0xba, 0x3d, 0xab, 0xca, 0x33, 0xbe, 0xf3, 0xe5, 0xab, 0xbe,
  0x19, 0xfb, 0x31, 0xbe, 0x83, 0xee, 0xcb, 0x3c, 0xe6, 0x77, 0x43, 0xbe,
  0x48, 0xfb, 0x29, 0xbc, 0xa8, 0xee, 0x7d, 0xbd, 0x01, 0x14, 0x28, 0xbd,
  0xbb, 0x61, 0x21, 0x3e, 0xb7, 0x38, 0xc5, 0xbd, 0x60, 0x16, 0x18, 0x3d,
  0x50, 0x84, 0x68, 0xbd, 0xc7, 0x08, 0x83, 0xbd, 0x08, 0xc0, 0xe7, 0x3c,
  0xc6, 0x14, 0x81, 0x3d, 0x23, 0x75, 0x12, 0x3e, 0x00, 0xf6, 0x1b, 0xbe,
  0x8a, 0xf9, 0x59, 0x3d, 0xc6, 0x08, 0x03, 0x3d, 0xac, 0x94, 0xd4, 0xbd,
  0xf5, 0xa0, 0x85, 0x3d, 0xc2, 0x6b, 0x37, 0xbe, 0xa6, 0xa8, 0x99, 0x3d,
  0x01, 0x59, 0xe9, 0x3d, 0x12, 0xac, 0xf4, 0xbd, 0x52, 0x78, 0xf7, 0x3d,
  0xf2, 0xfc, 0xa2, 0x3d, 0xec, 0xee, 0x9b, 0xbd, 0x1c, 0x68, 0x0c, 0xbe,
  0xd4, 0x4a, 0x88, 0xbd, 0x6f, 0xbf, 0xf6, 0xbd, 0x92, 0x9c, 0xf4, 0xbe,
  0xb7, 0x5e, 0x6e, 0xbe, 0x88, 0x12, 0xae, 0x3d, 0x12, 0x1d, 0x94, 0x3e,
  0x52, 0x2f, 0x8c, 0x3c, 0x91, 0x87, 0x0c, 0x3e, 0x77, 0x36, 0x92, 0x3e,
  0xf0, 0x6e, 0xa1, 0x3e, 0xfd, 0x1e, 0xce, 0x3e, 0x74, 0x67, 0x0f, 0xbe,
  0x77, 0x87, 0x1e, 0xbd, 0x05, 0xaf, 0x2d, 0x3e, 0xd2, 0xa3, 0x66, 0x3e,
  0xb1, 0xf8, 0x02, 0xbd, 0xab, 0x4b, 0x28, 0x3d, 0x12, 0xfb, 0x00, 0x3e,
  0xd2, 0xb5, 0xbe, 0xbd, 0x68, 0xd2, 0xa8, 0xbe, 0xe8, 0x0f, 0x29, 0xbc,
  0x4d, 0x5c, 0xf0, 0x3d, 0xe2, 0xe0, 0xff, 0xff, 0x10, 0x00, 0x00, 0x00,
  0x07, 0x00, 0x00, 0x00, 0x1c, 0x00, 0x00, 0x00, 0x38, 0x00, 0x00, 0x00,
  0x04, 0x00, 0x00, 0x00, 0x08, 0x00, 0x00, 0x00, 0x04, 0x00, 0x00, 0x00,
  0x03, 0x00, 0x00, 0x00, 0x01, 0x00, 0x00, 0x00, 0x18, 0x00, 0x00, 0x00,
  0x73, 0x65, 0x71, 0x75, 0x65, 0x6e, 0x74, 0x69, 0x61, 0x6c, 0x2f, 0x63,
  0x6f, 0x6e, 0x76, 0x32, 0x64, 0x2f, 0x43, 0x6f, 0x6e, 0x76, 0x32, 0x44,
  0x00, 0x00, 0x00, 0x00, 0xdc, 0xe0, 0xff, 0xff, 0xd2, 0xe1, 0xff, 0xff,
  0x04, 0x00, 0x00, 0x00, 0xc0, 0x00, 0x00, 0x00, 0x95, 0xcf, 0xc6, 0x3d,
  0xe3, 0x53, 0xeb, 0x3e, 0x08, 0x81, 0xde, 0xbe, 0x62, 0xa7, 0xbc, 0xbe,
  0xac, 0x22, 0xbe, 0x3e, 0x54, 0x6b, 0x1e, 0x3f, 0x3d, 0x25, 0xf9, 0xbd,
  0x48, 0x92, 0xc1, 0xbe, 0x1f, 0x9d, 0x9c, 0xbe, 0x96, 0xda, 0xb9, 0x3d,
  0x03, 0xe0, 0x96, 0x3e, 0xf3, 0x50, 0xe4, 0xbe, 0x65, 0x34, 0x97, 0x3b,
  0xb7, 0xc4, 0x55, 0x3e, 0x0b, 0x2e, 0x33, 0x3e, 0x32, 0x5e, 0xcd, 0x3e,
  0xc0, 0x59, 0xe6, 0x3d, 0xb9, 0xba, 0xef, 0x3e, 0xe1, 0x07, 0x37, 0xbd,
  0x3b, 0x61, 0x14, 0xbe, 0x01, 0xf1, 0xa7, 0xbd, 0xc5, 0xea, 0x0f, 0xbf,
  0xdc, 0x3f, 0x2f, 0xbe, 0x34, 0x56, 0x10, 0xbf, 0x49, 0xc7, 0xbf, 0xbe,
  0x2b, 0x62, 0x12, 0x3e, 0xa9, 0xce, 0x58, 0x3e, 0x37, 0xd5, 0xb1, 0xbe,
  0xe9, 0xff, 0x66, 0xbd, 0x85, 0x57, 0x33, 0x3e, 0xd2, 0x5a, 0x50, 0x3e,
  0x93, 0x41, 0xed, 0x3e, 0x1f, 0x93, 0x3f, 0x3e, 0x3a, 0x64, 0xb2, 0x3e,
  0x43, 0x84, 0x8b, 0x3e, 0xd8, 0x1c, 0x98, 0x3e, 0xc8, 0x48, 0x42, 0xbf,
  0x6a, 0xdf, 0x6d, 0xbf, 0xb6, 0x04, 0x57, 0xbe, 0x1f, 0x93, 0xce, 0x3b,
  0xd8, 0xe2, 0x74, 0xbe, 0xa5, 0x9e, 0x2f, 0x3d, 0x0c, 0xc4, 0x72, 0x3e,
  0x42, 0xed, 0xbd, 0x3e, 0xfa, 0xa7, 0x8d, 0xbd, 0xe8, 0x88, 0xd8, 0x3c,
  0xb8, 0xfe, 0xef, 0x3d, 0xa8, 0x22, 0x7f, 0x3e, 0xfa, 0xe1, 0xff, 0xff,
  0x10, 0x00, 0x00, 0x00, 0x06, 0x00, 0x00, 0x00, 0x14, 0x00, 0x00, 0x00,
  0x30, 0x00, 0x00, 0x00, 0x02, 0x00, 0x00, 0x00, 0x03, 0x00, 0x00, 0x00,
  0x10, 0x00, 0x00, 0x00, 0x19, 0x00, 0x00, 0x00, 0x73, 0x65, 0x71, 0x75,
  0x65, 0x6e, 0x74, 0x69, 0x61, 0x6c, 0x2f, 0x64, 0x65, 0x6e, 0x73, 0x65,
  0x5f, 0x31, 0x2f, 0x4d, 0x61, 0x74, 0x4d, 0x75, 0x6c, 0x00, 0x00, 0x00,
  0xec, 0xe1, 0xff, 0xff, 0xe2, 0xe2, 0xff, 0xff, 0x04, 0x00, 0x00, 0x00,
  0x00, 0x1c, 0x00, 0x00, 0x08, 0x17, 0x9b, 0x3d, 0x5a, 0x11, 0x9d, 0x3d,
  0xda, 0x9f, 0xba, 0xbd, 0x23, 0xea, 0xa3, 0xbd, 0x78, 0x9a, 0x03, 0x39,
  0xe8, 0x35, 0xc6, 0xbe, 0x9d, 0x5c, 0x33, 0xbf, 0x0e, 0xf5, 0x28, 0x3e,
  0x10, 0xef, 0x41, 0xbe, 0x66, 0x3f, 0xbf, 0xbc, 0x86, 0x12, 0x33, 0xbd,
  0xc7, 0x26, 0x2a, 0xbe, 0x0e, 0x52, 0x0a, 0xbd, 0x2a, 0xf0, 0x83, 0xbe,
  0x11, 0x4d, 0xdc, 0xbe, 0x63, 0x6a, 0x03, 0xbe, 0xea, 0x10, 0xd6, 0xbb,
  0xc9, 0x95, 0x2f, 0x3d, 0xea, 0x4c, 0xd2, 0xbe, 0x4f, 0xc0, 0x6a, 0x3d,
  0xff, 0xb7, 0xd9, 0x3d, 0xe7, 0x4f, 0x91, 0x3e, 0x55, 0xda, 0x14, 0xbf,
  0xb8, 0xda, 0x14, 0x3e, 0x48, 0xb5, 0x8b, 0x3c, 0xaf, 0xb0, 0xb7, 0x3e,
  0xef, 0xed, 0x06, 0x3e, 0x52, 0xc6, 0x69, 0xbe, 0x8f, 0x41, 0xf5, 0x3d,
  0xdf, 0x15, 0x07, 0xbd, 0x4f, 0xd8, 0xc7, 0xbe, 0x22, 0x8d, 0x66, 0xbe,
  0xb4, 0xbf, 0xe9, 0x3d, 0x36, 0xe5, 0xd2, 0x3d, 0x76, 0xc8, 0x86, 0xbd,
  0xb3, 0x0f, 0xde, 0x3c, 0x1d, 0x4c, 0x3c, 0xbb, 0x71, 0x5c, 0xd0, 0x3e,
  0x63, 0xc2, 0x37, 0xbe, 0x44, 0xa1, 0x9d, 0xbd, 0x33, 0x98, 0x54, 0xbd,
  0x64, 0xeb, 0x06, 0x3f, 0xf0, 0x55, 0x1e, 0x3d, 0xcb, 0x4d, 0x19, 0x3e,
  0x16, 0x1f, 0x1b, 0x3d, 0x81, 0xff, 0x96, 0x3e, 0x06, 0xb5, 0x01, 0xbe,
  0x53, 0x70, 0xeb, 0x3c, 0xee, 0x26, 0x84, 0xbd, 0xd6, 0x0c, 0x6f, 0xbb,
  0x33, 0xba, 0x65, 0x3d, 0x30, 0x1f, 0x8f, 0x3d, 0x47, 0x5b, 0xc6, 0xbc,
  0x3b, 0x1f, 0xc9, 0x3e, 0x27, 0x39, 0x2e, 0xbe, 0xee, 0xa3, 0x31, 0xbe,
  0x8e, 0xdd, 0x10, 0x3c, 0x73, 0x0a, 0x42, 0x3e, 0x5d, 0xf4, 0x49, 0x3e,
  0x83, 0x7b, 0x99, 0x3e, 0xc8, 0x33, 0x26, 0x3d, 0x08, 0x30, 0x14, 0x3e,
  0xdf, 0x6f, 0x55, 0xbe, 0x96, 0x16, 0x3e, 0xbb, 0x02, 0x03, 0x14, 0xbe,
  0x3d, 0xeb, 0x33, 0x3c, 0xd3, 0x7e, 0x94, 0xbe, 0x2f, 0x9b, 0x7e, 0x3d,
  0x48, 0x1c, 0x91, 0x3d, 0x8c, 0x45, 0xe7, 0x3e, 0x89, 0x3d, 0xbd, 0xbe,
  0x60, 0xd5, 0x06, 0xbf, 0x44, 0x77, 0x39, 0xbd, 0xde, 0xd5, 0x99, 0x3e,
  0x37, 0xea, 0x45, 0x3e, 0x2c, 0x97, 0x86, 0x3d, 0x4a, 0x64, 0x9b, 0x3d,
  0xdc, 0x6a, 0x2e, 0xbc, 0x51, 0x41, 0x56, 0xbd, 0xcd, 0x67, 0x0e, 0xbf,
  0x74, 0xe2, 0xa9, 0xbc, 0xc7, 0xc8, 0x8b, 0xbd, 0xbb, 0xce, 0x2d, 0xbf,
  0xf4, 0xae, 0xc6, 0xbc, 0x78, 0x1c, 0x5f, 0xbe, 0x6f, 0x84, 0x37, 0x3e,
  0xce, 0x26, 0xdc, 0xbe, 0x24, 0xa4, 0x16, 0xbe, 0xda, 0x68, 0x1c, 0x3d,
  0x36, 0x81, 0x3b, 0x3e, 0xb0, 0xd7, 0xf8, 0xbc, 0x7a, 0x9e, 0xcf, 0xbd,
  0x7a, 0xb8, 0x3e, 0x3d, 0xb5, 0x3a, 0xf9, 0x3d, 0x3a, 0x66, 0x4b, 0xbe,
  0x22, 0xfb, 0x2a, 0xbf, 0x25, 0xdb, 0xb0, 0xbe, 0x00, 0xb4, 0x89, 0xbe,
  0x68, 0xcc, 0xf8, 0xbd, 0x00, 0x8c, 0x90, 0x3d, 0xe0, 0xe9, 0x9b, 0xbe,
  0xbd, 0xd7, 0xa4, 0xbe, 0xce, 0x9b, 0xdc, 0xbd, 0x89, 0x3a, 0xba, 0xbe,
  0x4c, 0xbd, 0xdc, 0xbd, 0x05, 0xb6, 0xf4, 0x3c, 0x36, 0xa1, 0x72, 0x3d,
  0x39, 0xcd, 0x26, 0xbe, 0x9b, 0x52, 0x22, 0x3d, 0xa2, 0x08, 0x0a, 0xbd,
  0xfe, 0x2c, 0x27, 0xbd, 0x7f, 0xb1, 0x1d, 0xbe, 0xb4, 0x2b, 0x4e, 0x3f,
  0x7e, 0x9a, 0x68, 0x3d, 0x6d, 0x82, 0xcb, 0x3d, 0x70, 0x4d, 0x02, 0xbd,
  0xee, 0xe0, 0x83, 0x3d, 0x07, 0xbf, 0x03, 0x3f, 0x89, 0xab, 0x16, 0xbc,
  0x5a, 0x5f, 0x1d, 0xbe, 0x6c, 0xe3, 0x13, 0x3e, 0x7f, 0x15, 0xd4, 0x3d,
  0x17, 0xfb, 0x59, 0x3d, 0x10, 0x63, 0x18, 0x3e, 0x46, 0x70, 0x09, 0x3d,
  0x03, 0xd4, 0x83, 0x3d, 0xec, 0xdb, 0x2f, 0x3e, 0xa1, 0x4a, 0x9f, 0x3c,
  0x5c, 0xfe, 0x89, 0x3f, 0x99, 0xbc, 0x1e, 0xbe, 0xd4, 0x19, 0xae, 0xbd,
  0xe3, 0x27, 0xde, 0xbd, 0x61, 0x02, 0x6f, 0x3d, 0x15, 0x1a, 0xf3, 0x3c,
  0xb4, 0xe7, 0x71, 0x3d, 0xae, 0xdb, 0x40, 0xbe, 0x7d, 0xf4, 0xaa, 0xbe,
  0x15, 0x89, 0xb9, 0xbe, 0x5e, 0x79, 0xfe, 0xbd, 0xe0, 0xd0, 0x32, 0x3e,
  0xf6, 0xe3, 0xe9, 0xbb, 0x78, 0xdb, 0xb0, 0x3d, 0xfa, 0xe0, 0x65, 0x3d,
  0x7f, 0xbc, 0x3c, 0xbe, 0xdb, 0xc8, 0x77, 0x3f, 0xd4, 0x7d, 0x4d, 0xbe,
  0x34, 0xb6, 0xa4, 0x3b, 0xb7, 0x48, 0xd5, 0xbd, 0xaa, 0xce, 0x17, 0x3e,
  0xf5, 0x18, 0xe6, 0xbe, 0x32, 0x55, 0x9a, 0x3d, 0xb3, 0xb5, 0xe4, 0x3d,
  0x14, 0x9d, 0xae, 0xbd, 0x44, 0x44, 0xb1, 0xbe, 0x9e, 0x1a, 0x5e, 0x3c,
  0xec, 0x22, 0x97, 0xbc, 0x4a, 0x4e, 0x0d, 0xbd, 0xfe, 0x59, 0xec, 0xbd,
  0x32, 0xcd, 0x3e, 0x3e, 0x64, 0x33, 0x48, 0xbe, 0x1c, 0x32, 0x2a, 0x3f,
  0x3d, 0x68, 0xe4, 0x3c, 0x5e, 0x08, 0xd2, 0xbb, 0x43, 0x9a, 0x6e, 0xbd,
  0x66, 0xa0, 0x74, 0x3d, 0xde, 0x62, 0x1a, 0x3d, 0xd2, 0x19, 0x26, 0xbe,
  0x31, 0x6b, 0xde, 0xbd, 0x75, 0x9d, 0x4e, 0x3b, 0xe7, 0x45, 0xd2, 0xbe,
  0x5a, 0x7a, 0x41, 0xbe, 0x33, 0xe9, 0x1f, 0xbe, 0x67, 0x67, 0xee, 0xbb,
  0xbf, 0x04, 0xb9, 0xbd, 0xef, 0x86, 0x81, 0xbd, 0x20, 0xd4, 0xc4, 0x3d,
  0xc8, 0xe3, 0x48, 0x3f, 0xb1, 0x9f, 0x6f, 0x3d, 0xcf, 0xf1, 0x93, 0xbb,
  0xe3, 0x60, 0xec, 0xbd, 0x7f, 0xb0, 0x15, 0xbe, 0x18, 0xe9, 0x25, 0xbe,
  0x9e, 0x47, 0x0f, 0x3e, 0x41, 0x33, 0x4e, 0x3e, 0xe1, 0x33, 0x80, 0xbe,
  0x1a, 0xba, 0x86, 0xbe, 0xc3, 0x0d, 0x35, 0x3d, 0x8f, 0xf6, 0x20, 0xbd,
  0x92, 0xf4, 0x49, 0xbc, 0x2b, 0x50, 0xe0, 0xbd, 0x09, 0xc5, 0x2d, 0xbe,
  0x82, 0x94, 0x12, 0x3e, 0x60, 0xc0, 0x66, 0x3f, 0xa2, 0xa2, 0xa5, 0x3d,
  0x43, 0xd1, 0x05, 0x3e, 0x33, 0xe3, 0x47, 0xbd, 0x47, 0xcc, 0xc1, 0x3d,
  0xb4, 0x0c, 0x55, 0x3e, 0xc6, 0x58, 0xea, 0x3d, 0x5e, 0x38, 0x9b, 0x3d,
  0xe8, 0x2d, 0x83, 0xbd, 0x49, 0x57, 0x10, 0xbe, 0xf6, 0xef, 0x61, 0x3e,
  0xda, 0x32, 0x45, 0x3d, 0x91, 0xa1, 0xbf, 0x3c, 0x90, 0x11, 0x72, 0xbe,
  0x47, 0x80, 0x44, 0xba, 0x6c, 0x74, 0x7d, 0x3e, 0x28, 0xd4, 0x6f, 0x3f,
  0x0c, 0xff, 0xd1, 0x3b, 0xd3, 0x1f, 0x32, 0x3b, 0xac, 0xe9, 0x3c, 0x3d,
  0xd4, 0x15, 0x1c, 0x3d, 0x08, 0x75, 0x55, 0x3e, 0xc3, 0xda, 0x85, 0x3c,
  0x51, 0xbf, 0x84, 0x3e, 0x1d, 0x32, 0x12, 0xbd, 0x7b, 0x47, 0xfb, 0x3d,
  0x77, 0xda, 0x0a, 0xbe, 0x07, 0x55, 0xc9, 0x3d, 0xfb, 0xe1, 0x35, 0x3d,
  0x68, 0xca, 0xd9, 0x3c, 0x59, 0x24, 0x2f, 0x3c, 0x6b, 0x3a, 0x8f, 0x3d,
  0xfd, 0xfb, 0xe2, 0xbc, 0x4b, 0x62, 0xc6, 0xbd, 0x4b, 0xd4, 0xb6, 0x3c,
  0xd8, 0x9e, 0x00, 0xbe, 0x60, 0xfd, 0x2a, 0x3e, 0xe0, 0x22, 0x17, 0x3d,
  0x59, 0x96, 0x4d, 0x3d, 0xdc, 0x15, 0x88, 0xbd, 0x71, 0xae, 0x9a, 0x3d,
  0x09, 0x96, 0x8a, 0xbc, 0xb2, 0xba, 0x75, 0xbd, 0x68, 0x3f, 0x11, 0xbe,
  0xfc, 0xb9, 0x59, 0xbd, 0x1b, 0x85, 0xcf, 0xbd, 0xda, 0x47, 0xbb, 0xbd,
  0x02, 0xa7, 0x30, 0xbd, 0x24, 0x7c, 0xc2, 0x3d, 0xb6, 0x30, 0x62, 0x3d,
  0x9d, 0x29, 0x30, 0xbe, 0x8e, 0xa6, 0xa9, 0x3c, 0xe1, 0xc6, 0x7b, 0x3e,
  0x70, 0x2b, 0xd1, 0x3d, 0xc3, 0x25, 0x8c, 0x3d, 0x73, 0xb8, 0x09, 0x3e,
  0x6a, 0xa6, 0x38, 0x3e, 0x00, 0x3b, 0x98, 0x3e, 0x9a, 0xca, 0x79, 0xbe,
  0xd9, 0xcf, 0x94, 0xbc, 0xeb, 0x87, 0x35, 0xbe, 0x27, 0xe9, 0x3f, 0xbd,
  0x52, 0xfe, 0x41, 0xbe, 0xd4, 0xfe, 0x1f, 0xbe, 0xfa, 0xb0, 0xf4, 0xbd,
  0xa8, 0x10, 0x6d, 0x3c, 0x69, 0x1b, 0xe5, 0xbd, 0x38, 0xe1, 0x66, 0x3d,
  0xa7, 0x0a, 0xaf, 0xbb, 0x57, 0xfd, 0xd0, 0x3d, 0x84, 0x83, 0xa3, 0x3c,
  0x42, 0x2e, 0x00, 0x3e, 0x1f, 0x10, 0x47, 0x3c, 0x57, 0x06, 0x66, 0x3d,
  0x3f, 0xcb, 0x75, 0x3e, 0xce, 0xfd, 0x73, 0xbe, 0xda, 0x03, 0x0e, 0x3d,
  0xe1, 0xfe, 0x2e, 0x3e, 0xc0, 0x1c, 0xa8, 0xbd, 0x85, 0xd6, 0x32, 0x3b,
  0x3c, 0xa2, 0x50, 0x3e, 0x90, 0x36, 0xfe, 0x3d, 0x7b, 0xc2, 0xb2, 0x3d,
  0xe1, 0x84, 0x0e, 0xbd, 0xd8, 0x9b, 0x06, 0xbe, 0x6b, 0x3a, 0x79, 0xbe,
  0xfe, 0x94, 0x23, 0x3d, 0xd8, 0x57, 0xb1, 0x3c, 0x56, 0xb1, 0xf4, 0x3d,
  0xdd, 0x2b, 0x25, 0x3e, 0x1d, 0x2d, 0x99, 0x3d, 0x1b, 0xa8, 0x11, 0x3e,
  0x26, 0xd9, 0xab, 0xbe, 0x71, 0x45, 0x80, 0x3d, 0x77, 0x5f, 0xdc, 0x3d,
  0x3b, 0x04, 0x10, 0xbe, 0x07, 0xe7, 0xe9, 0x3c, 0xc0, 0x9f, 0x08, 0xbe,
  0xf3, 0x13, 0xa8, 0xbd, 0xd0, 0x7c, 0x48, 0xbd, 0x76, 0xb3, 0x33, 0xbe,
  0x0a, 0x4d, 0xb3, 0xbc, 0xe3, 0x7a, 0x63, 0xbe, 0x73, 0xe4, 0x8e, 0x3b,
  0x1b, 0x31, 0xe8, 0x3d, 0xd0, 0x15, 0x51, 0x3e, 0x7e, 0x9a, 0xd0, 0x3c,
  0x09, 0x89, 0x90, 0xbc, 0x6c, 0x0d, 0x84, 0xbd, 0xe7, 0x83, 0x5f, 0xbd,
  0x57, 0xcd, 0xd4, 0xbd, 0x6b, 0x4c, 0x8b, 0xbc, 0xe7, 0x7c, 0xa9, 0x3d,
  0xbd, 0x61, 0xf1, 0xbd, 0xca, 0x81, 0xa9, 0xbe, 0x30, 0x64, 0xdc, 0xbd,
  0x3b, 0x05, 0x16, 0xbe, 0x69, 0x20, 0xe1, 0x3d, 0x0b, 0x53, 0x63, 0x3c,
  0xf7, 0xdf, 0xff, 0xbc, 0xf4, 0xb8, 0x67, 0x3d, 0x78, 0xa9, 0xcd, 0x3d,
  0xec, 0xf3, 0xc2, 0x3d, 0x5a, 0x0a, 0xee, 0xbb, 0x9e, 0xeb, 0xdc, 0xbd,
  0xfb, 0x38, 0x7d, 0xbd, 0x91, 0xb3, 0x28, 0xbc, 0xc9, 0xc2, 0xc0, 0xbe,
  0x44, 0x8d, 0x2f, 0x3d, 0xf1, 0x8b, 0x17, 0xbd, 0xaa, 0xdf, 0x42, 0xbd,
  0xbc, 0xb9, 0x7b, 0x3c, 0xd3, 0x7d, 0x6e, 0xbe, 0x4f, 0x37, 0x47, 0xbd,
  0x76, 0x1f, 0xeb, 0xb9, 0xad, 0x3c, 0x8f, 0x3d, 0xfb, 0xd3, 0x3a, 0x3c,
  0x76, 0x26, 0x07, 0xbe, 0xb0, 0x98, 0xab, 0x3d, 0xe3, 0xd4, 0x6f, 0xbe,
  0x77, 0xbf, 0x6b, 0xbe, 0x52, 0x74, 0x1c, 0x3d, 0x6e, 0xf9, 0x7a, 0xbd,
  0xa8, 0x61, 0xbf, 0x3b, 0xbd, 0x47, 0xbd, 0x3d, 0x5a, 0xc5, 0x13, 0xbe,
  0xd5, 0xc5, 0x57, 0xbe, 0xa9, 0x69, 0xfc, 0xbd, 0x96, 0xfa, 0x9c, 0x3c,
  0x01, 0x96, 0x5d, 0xbd, 0xa7, 0x80, 0xd3, 0xbd, 0x48, 0x68, 0x01, 0xbb,
  0x57, 0xaa, 0xca, 0x3d, 0x6d, 0x87, 0x34, 0xbe, 0x9d, 0x70, 0x01, 0x3e,
  0xd4, 0x8c, 0x55, 0x3c, 0x97, 0x0c, 0x8b, 0xbe, 0x07, 0xa6, 0x87, 0xbd,
  0x4f, 0xb7, 0xd6, 0x3c, 0xa7, 0x0b, 0x96, 0xbd, 0x35, 0xa4, 0xc7, 0xbb,
  0xaf, 0x20, 0x0e, 0x3e, 0x8f, 0x2a, 0xfd, 0xbd, 0xdf, 0x98, 0x6b, 0xbe,
  0xc4, 0xdc, 0x28, 0xbe, 0xca, 0x33, 0x50, 0xbe, 0x17, 0x28, 0x2e, 0xbe,
  0x87, 0x1e, 0x5f, 0xbe, 0xdf, 0xdf, 0x50, 0x3d, 0x29, 0xad, 0x41, 0xbc,
  0xb5, 0x30, 0x13, 0xbe, 0xc2, 0xb6, 0x78, 0xbe, 0xf4, 0x9f, 0xa2, 0xbd,
  0xde, 0x85, 0xa9, 0xbd, 0x88, 0x39, 0xbe, 0x3d, 0xc1, 0xca, 0xf0, 0x3d,
  0x29, 0x39, 0xe5, 0x3d, 0xf6, 0xe1, 0xf9, 0xbd, 0x06, 0x8c, 0x9a, 0xbc,
  0x3d, 0x55, 0x55, 0xbe, 0xf0, 0x0f, 0x82, 0xbb, 0xe2, 0x14, 0x2a, 0xbe,
  0x3c, 0x1a, 0x39, 0x3d, 0x63, 0xaf, 0x62, 0xbe, 0xc9, 0xce, 0x5e, 0xbe,
  0xf0, 0xfe, 0x7b, 0xbd, 0xc1, 0x89, 0x2b, 0xbd, 0xd3, 0x6a, 0xa8, 0xbd,
  0x1a, 0xe3, 0x36, 0xbe, 0x58, 0x5f, 0xba, 0xbd, 0xa6, 0x26, 0x46, 0xbe,
  0xe8, 0x4b, 0xdf, 0xbd, 0x65, 0x39, 0x4b, 0x3e, 0xf9, 0x62, 0x4c, 0xbe,
  0x01, 0x09, 0x3b, 0xbe, 0xed, 0x40, 0x75, 0xbe, 0x24, 0xad, 0x5c, 0x3d,
  0xea, 0x69, 0x19, 0x3e, 0x79, 0x5e, 0x1a, 0x3e, 0x8e, 0x83, 0x2d, 0x3e,
  0x53, 0x02, 0x26, 0xbe, 0x2f, 0x95, 0xb0, 0x3d, 0xe5, 0x44, 0x06, 0x3e,
  0x00, 0xc9, 0x2d, 0x3e, 0xb6, 0x34, 0x03, 0xbe, 0x99, 0x2f, 0x7b, 0xbc,
  0x7b, 0xad, 0x9c, 0xbd, 0x64, 0x28, 0x0b, 0xbe, 0xf4, 0xcd, 0x96, 0xbd,
  0x20, 0xef, 0x73, 0x3d, 0x69, 0xae, 0x03, 0xbe, 0x09, 0xde, 0x7e, 0xbe,
  0x98, 0x9d, 0x1d, 0xbe, 0xf9, 0x0e, 0x5b, 0x3e, 0x52, 0xa4, 0x6e, 0x3d,
  0x68, 0xa8, 0x56, 0xbe, 0xa9, 0x58, 0x12, 0xbe, 0x59, 0xff, 0x69, 0xbd,
  0xbb, 0x72, 0xcd, 0xbc, 0xd0, 0x1e, 0x03, 0x3e, 0xcc, 0xf3, 0x98, 0xbd,
  0x07, 0x44, 0x88, 0xbd, 0x08, 0xd3, 0x02, 0xbb, 0x1c, 0x4d, 0x32, 0xbe,
  0xeb, 0x01, 0x0a, 0x3e, 0xc6, 0x91, 0x90, 0xbd, 0xba, 0xca, 0x8c, 0x3d,
  0xac, 0x63, 0x5f, 0xbd, 0x1c, 0x98, 0x1a, 0xbe, 0x60, 0x32, 0x90, 0x3b,
  0x0f, 0x02, 0x33, 0xbd, 0xbe, 0x09, 0x61, 0x3d, 0x33, 0x83, 0xdb, 0x3d,
  0x77, 0xc5, 0x20, 0xbe, 0x85, 0x8c, 0x75, 0xbe, 0x90, 0x8c, 0xf3, 0x3c,
  0x39, 0xe3, 0x3d, 0xbe, 0xaf, 0x94, 0x0d, 0x3e, 0xbd, 0xc0, 0x36, 0xbe,
  0x3d, 0x70, 0x33, 0xbe, 0xf4, 0x24, 0x12, 0xbe, 0x39, 0xee, 0x7b, 0x3d,
  0x2c, 0x1c, 0xa1, 0x3d, 0xea, 0x55, 0x95, 0xbd, 0x83, 0x50, 0x50, 0xbe,
  0xea, 0xda, 0xf3, 0xbd, 0x64, 0x9d, 0x38, 0x3d, 0x6e, 0xec, 0xe0, 0xbd,
  0x84, 0x49, 0x5a, 0xbe, 0x2d, 0xd6, 0x21, 0xbe, 0xa8, 0xbf, 0xfc, 0xbd,
  0x4d, 0xf9, 0x50, 0xbd, 0xd2, 0x05, 0x20, 0xbe, 0x8c, 0x5c, 0x2b, 0xbe,
  0xbe, 0x07, 0x97, 0xbd, 0x61, 0xde, 0xd0, 0xbc, 0x48, 0xce, 0xad, 0x3f,
  0xf8, 0x2a, 0xe9, 0xbd, 0xc6, 0x38, 0xf8, 0xbd, 0x99, 0xee, 0xb1, 0xbe,
  0x45, 0x50, 0x85, 0xbe, 0xf7, 0x9d, 0xc2, 0xbd, 0xca, 0xe8, 0x5f, 0xbe,
  0x70, 0xdc, 0x7e, 0xbe, 0xe9, 0xff, 0x7a, 0xbe, 0x2b, 0x84, 0xec, 0x3c,
  0x9b, 0xe5, 0x5d, 0xbe, 0x96, 0xbb, 0x02, 0xbe, 0x4e, 0x92, 0x37, 0xbe,
  0x4c, 0x41, 0x15, 0xbe, 0x01, 0x72, 0xc0, 0x3c, 0x35, 0x5a, 0x2e, 0x3f,
  0x69, 0xf5, 0xe3, 0x3e, 0x51, 0xa1, 0x72, 0xbe, 0xa3, 0x94, 0x04, 0x3e,
  0xff, 0x77, 0x2f, 0xbe, 0x72, 0xc4, 0x96, 0xbe, 0x83, 0x13, 0x41, 0x3e,
  0x23, 0x64, 0x5f, 0xbe, 0x6d, 0x1c, 0xd6, 0xbd, 0xfd, 0x40, 0x8c, 0x3d,
  0xfe, 0xcb, 0x2b, 0x3d, 0xe1, 0x55, 0x48, 0xbd, 0x25, 0x0c, 0xc5, 0x3d,
  0x2a, 0xb6, 0xb4, 0xbe, 0x84, 0xd5, 0x15, 0xbe, 0xe5, 0x04, 0x9f, 0xbd,
  0x98, 0xee, 0xef, 0x3e, 0x6a, 0xee, 0x42, 0x3f, 0x8b, 0x1f, 0x85, 0xbe,
  0x78, 0x4e, 0x0d, 0x3d, 0xeb, 0x9b, 0xa4, 0xbd, 0x3e, 0x5c, 0xcc, 0x3d,
  0x43, 0x0e, 0x28, 0x3e, 0x41, 0x60, 0x6c, 0xbe, 0x24, 0xcc, 0x3e, 0x3e,
  0xd3, 0x23, 0x85, 0xbe, 0x25, 0x77, 0x6e, 0xbc, 0x9d, 0xf7, 0x39, 0xbe,
  0xe5, 0x3a, 0x06, 0x3d, 0x79, 0x81, 0xd2, 0xbe, 0xe2, 0xd4, 0xfd, 0xbc,
  0x43, 0x57, 0x98, 0xbd, 0xc2, 0xf6, 0xa5, 0x3f, 0x9c, 0x0e, 0x0d, 0x3f,
  0xe9, 0x14, 0xb6, 0x3d, 0x88, 0xce, 0x4a, 0x3e, 0x05, 0xaa, 0x01, 0xbe,
  0x20, 0x39, 0x4a, 0xbe, 0xc2, 0x0b, 0xdb, 0xbd, 0x6a, 0x3d, 0x99, 0xbd,
  0x36, 0x45, 0x15, 0xbd, 0x29, 0x45, 0x87, 0xbc, 0xe4, 0xbe, 0x43, 0xbd,
  0xc5, 0xfd, 0xf2, 0x3d, 0x52, 0xfc, 0x4c, 0xbe, 0x19, 0x19, 0xbe, 0xbe,
  0x7b, 0x6b, 0xc9, 0xbd, 0x09, 0x6f, 0x1f, 0xbe, 0x0a, 0xbb, 0x35, 0x3f,
  0x3c, 0x83, 0x3b, 0x3f, 0x72, 0xf0, 0x23, 0xbe, 0x51, 0x88, 0x32, 0xbd,
  0x3c, 0xe2, 0x71, 0xbe, 0xf8, 0x85, 0x0c, 0xbe, 0xb1, 0x58, 0x89, 0x3d,
  0xc4, 0xf2, 0x2e, 0xbe, 0x89, 0xd1, 0x9e, 0x3d, 0x2b, 0xe8, 0x14, 0xbe,
  0xf0, 0x2e, 0x96, 0x3a, 0x09, 0x61, 0xa7, 0x3d, 0xbf, 0x69, 0x40, 0x3d,
  0x01, 0xf0, 0xc2, 0xbe, 0x33, 0x79, 0x1e, 0x3d, 0xd8, 0x1a, 0xa0, 0xbb,
  0x66, 0x97, 0xfe, 0x3e, 0x6c, 0x6d, 0xf1, 0x3e, 0x1e, 0xec, 0x01, 0x3e,
  0x4a, 0x02, 0x95, 0xbe, 0x24, 0x2f, 0xca, 0xbe, 0xa8, 0x5b, 0x86, 0xbe,
  0xe8, 0x8a, 0x80, 0xbd, 0xd9, 0xbf, 0x64, 0xbe, 0x7d, 0x1c, 0x73, 0x3c,
  0x3a, 0x32, 0x9b, 0xbc, 0x7d, 0x00, 0x17, 0xbe, 0x20, 0x4b, 0x8e, 0x3d,
  0x14, 0xed, 0x5c, 0xbe, 0x46, 0xfc, 0xe0, 0xbe, 0x7d, 0xc1, 0x00, 0xbe,
  0x7c, 0x7a, 0xfc, 0x3d, 0xa5, 0x49, 0xe8, 0x3e, 0xab, 0x2a, 0xc7, 0x3f,
  0x48, 0xb4, 0x0d, 0xbe, 0x4c, 0x5a, 0x20, 0xbe, 0xe9, 0x69, 0x41, 0xbc,
  0x3e, 0xf9, 0xa5, 0x3d, 0x14, 0x76, 0x7d, 0xbd, 0xad, 0xdf, 0xb5, 0xbc,
  0x29, 0x4b, 0x62, 0xbe, 0x90, 0x55, 0x98, 0xbe, 0x4a, 0xff, 0xef, 0xbd,
  0xd1, 0x35, 0x2b, 0xbe, 0xbc, 0x8b, 0x35, 0xbe, 0x79, 0x0a, 0xa1, 0xbe,
  0xf4, 0x7f, 0x03, 0xbe, 0xf0, 0xe2, 0x02, 0xbe, 0x0d, 0x28, 0xb2, 0x3e,
  0x2c, 0xa8, 0x56, 0x3f, 0xb9, 0xa5, 0x18, 0x3d, 0x39, 0x21, 0x52, 0xbe,
  0x5e, 0x8d, 0xd7, 0xbd, 0xe2, 0xdc, 0x95, 0xbd, 0xf3, 0x64, 0xf2, 0xbc,
  0x0e, 0xf5, 0x77, 0xbe, 0xba, 0x62, 0x37, 0xbe, 0xdd, 0x13, 0x02, 0xbe,
  0x15, 0x15, 0x8b, 0xbd, 0x7c, 0x9b, 0xdc, 0x3c, 0x68, 0xa6, 0x66, 0xbe,
  0x87, 0x07, 0xb3, 0xbd, 0x03, 0xd0, 0xd7, 0x3c, 0x1d, 0x41, 0xde, 0x3c,
  0x61, 0xeb, 0x20, 0x3e, 0x9f, 0x1b, 0x59, 0x3f, 0xa4, 0xa9, 0x56, 0x3d,
  0x0e, 0x85, 0x3f, 0x3e, 0x1d, 0x60, 0x60, 0xbd, 0x8e, 0x10, 0x32, 0xbe,
  0x93, 0xd8, 0x0d, 0x3d, 0x3f, 0x8d, 0x89, 0xbe, 0x62, 0x44, 0x21, 0xbe,
  0xdb, 0x2b, 0x3f, 0xbe, 0xa1, 0xaa, 0x32, 0xbe, 0xc8, 0xcb, 0xad, 0x3d,
  0x14, 0x80, 0x4b, 0xbe, 0x6e, 0x17, 0x75, 0xbe, 0xe0, 0xd6, 0xf8, 0xbc,
  0xe5, 0xd8, 0x6b, 0xbc, 0x7a, 0xad, 0x9a, 0x3e, 0x70, 0x5d, 0x7c, 0x3f,
  0xbd, 0x2c, 0x08, 0xbe, 0x9d, 0xe5, 0xb7, 0xbd, 0xdc, 0x13, 0x59, 0xbd,
  0xd3, 0x9d, 0xbf, 0xbd, 0x4c, 0x31, 0xc1, 0x3d, 0x9e, 0x48, 0x28, 0x3d,
  0x54, 0x1b, 0x9e, 0x3d, 0xdf, 0x35, 0xf3, 0xbd, 0x5a, 0xca, 0x6f, 0xbe,
  0x49, 0xd0, 0xff, 0x3d, 0x6d, 0xad, 0x7a, 0xbe, 0xee, 0x73, 0x55, 0xbd,
  0x7c, 0xe2, 0x10, 0xbe, 0xac, 0x39, 0xc0, 0xbc, 0x2a, 0xd7, 0xfc, 0x3e,
  0x54, 0x4a, 0x38, 0x3f, 0x7e, 0x0d, 0xe7, 0x3d, 0x71, 0x88, 0xfb, 0x3c,
  0x1b, 0x8e, 0x42, 0x3d, 0xe0, 0x35, 0x1f, 0xbe, 0x9e, 0x73, 0x1c, 0x3e,
  0x9d, 0x67, 0x05, 0x3e, 0xba, 0x65, 0xaf, 0x3d, 0x35, 0x2e, 0x04, 0xbc,
  0x8d, 0xf6, 0xc8, 0xbc, 0x7c, 0xa6, 0x1c, 0xbe, 0x56, 0xbd, 0xbb, 0xbd,
  0x7b, 0x57, 0xdb, 0xbd, 0x3f, 0xa5, 0x09, 0x3e, 0x51, 0xd8, 0x9c, 0xbd,
  0x9c, 0x3a, 0x0a, 0x3f, 0x28, 0xf9, 0x44, 0x3f, 0x64, 0x44, 0xa4, 0xbb,
  0x77, 0x6b, 0x2d, 0xbe, 0x78, 0x49, 0x2a, 0xbd, 0x77, 0x73, 0x4f, 0xbe,
  0xc9, 0x24, 0x3b, 0xbc, 0x11, 0x52, 0x4f, 0x3e, 0x92, 0x05, 0xf5, 0xbc,
  0xe4, 0x0f, 0x8b, 0xbe, 0x36, 0xd6, 0x1c, 0xbe, 0x6a, 0xf2, 0xdd, 0x3c,
  0xd0, 0xe0, 0x8b, 0x3d, 0xfe, 0x44, 0x54, 0xbe, 0xe0, 0xed, 0x6a, 0xbc,
  0xd8, 0xd0, 0xb3, 0x3d, 0xb7, 0x7d, 0x01, 0x3e, 0x5a, 0x8f, 0x35, 0x3f,
  0x4b, 0x93, 0x24, 0xbe, 0x51, 0x29, 0x18, 0x3d, 0xc1, 0x40, 0x21, 0x3c,
  0x32, 0x62, 0x18, 0xbe, 0x0c, 0xb4, 0x5d, 0x3e, 0xe2, 0xaf, 0x1c, 0x3e,
  0xc1, 0x36, 0xb6, 0x3c, 0xf7, 0x95, 0x88, 0xbd, 0x96, 0xc4, 0x8f, 0xbd,
  0x0e, 0x3d, 0x28, 0xbe, 0x25, 0x70, 0x10, 0xbe, 0x8e, 0xe9, 0x6e, 0xbe,
  0xc6, 0x7a, 0xf0, 0xbd, 0xb7, 0x70, 0x7d, 0xbd, 0xa2, 0x8f, 0x20, 0x3e,
  0xfd, 0xc5, 0x18, 0x3f, 0xb7, 0x54, 0xe0, 0x3b, 0x0a, 0xd9, 0x25, 0xbe,
  0x32, 0x3e, 0xaa, 0xbd, 0x5b, 0x6d, 0xd2, 0xbe, 0x19, 0xcd, 0x84, 0xbd,
  0x38, 0x73, 0x81, 0xbe, 0x26, 0xc0, 0x8b, 0xbe, 0xa8, 0xab, 0x7b, 0xbe,
  0x69, 0x1c, 0xc0, 0xbd, 0x32, 0x35, 0x34, 0xbb, 0x80, 0x7c, 0xa0, 0xbe,
  0x20, 0x6b, 0x5a, 0xbe, 0x64, 0x63, 0x98, 0xbe, 0x40, 0x09, 0x0f, 0xbe,
  0x3d, 0xda, 0xa6, 0x3e, 0x1d, 0x09, 0x63, 0x3f, 0xd7, 0xd8, 0x32, 0xbe,
  0x3b, 0xe2, 0x2b, 0x3d, 0xb6, 0x9b, 0x68, 0xbe, 0xaa, 0x6c, 0x47, 0xbe,
  0xf7, 0x3f, 0x44, 0x3c, 0xb1, 0x42, 0x9d, 0x3e, 0xd2, 0xbf, 0x80, 0xbd,
  0x7d, 0xd6, 0x90, 0xbe, 0x68, 0xcb, 0x8a, 0xbe, 0x40, 0xc7, 0xbf, 0xbe,
  0x48, 0x29, 0x6d, 0xbd, 0xf1, 0x1f, 0xf9, 0x3d, 0x83, 0x33, 0x89, 0x3e,
  0x17, 0x26, 0x76, 0x3e, 0xf9, 0xa3, 0x5a, 0x3d, 0x5c, 0x76, 0x69, 0x3f,
  0xae, 0x33, 0x8f, 0xbd, 0xb9, 0xed, 0x51, 0x3e, 0xd3, 0x36, 0xfd, 0xbd,
  0x52, 0x3d, 0x2f, 0x3d, 0x79, 0x8b, 0x60, 0x3d, 0x98, 0x33, 0x8b, 0x3e,
  0x54, 0x7a, 0x26, 0x3e, 0xff, 0xfd, 0x16, 0xbe, 0xae, 0x93, 0xe3, 0xbd,
  0x1c, 0x07, 0x12, 0x3e, 0x7b, 0x90, 0x8d, 0x3d, 0xf1, 0xf9, 0xe6, 0xbd,
  0x9f, 0x28, 0x27, 0x3e, 0x84, 0xab, 0x2a, 0x3e, 0x94, 0x69, 0x19, 0x3e,
  0x1d, 0xc5, 0x60, 0x3f, 0xc0, 0xbb, 0x37, 0x3d, 0xe2, 0xcb, 0x94, 0x3e,
  0x1b, 0x6e, 0x26, 0xbd, 0x20, 0xf2, 0x86, 0x3e, 0x06, 0xa1, 0x6e, 0x3d,
  0xd6, 0x66, 0x33, 0x3e, 0xa3, 0x2b, 0x17, 0x3e, 0x0f, 0xb3, 0x6b, 0xbd,
  0x51, 0x16, 0xb8, 0xbe, 0xa4, 0x9f, 0x1a, 0x3e, 0x35, 0x21, 0x06, 0x3d,
  0x4d, 0xa3, 0xab, 0xbd, 0x11, 0x1b, 0x6b, 0xbe, 0xc5, 0xa5, 0x0b, 0x3e,
  0x73, 0x36, 0x00, 0x3f, 0x0e, 0xae, 0x74, 0x3f, 0x36, 0x6e, 0xbd, 0x3e,
  0x8f, 0x75, 0x97, 0x3e, 0xd6, 0x84, 0xf0, 0x3d, 0xaa, 0x3e, 0xd3, 0x3c,
  0x88, 0xd5, 0x90, 0x3d, 0xd3, 0x8d, 0xfa, 0x3d, 0x40, 0xcf, 0x84, 0x3d,
  0x29, 0x42, 0x30, 0xbe, 0xc1, 0x20, 0xb3, 0xbe, 0xe5, 0x5f, 0x0f, 0xbd,
  0x67, 0x50, 0x94, 0x3c, 0xf5, 0x2b, 0x6f, 0x3d, 0x19, 0x3c, 0xb0, 0xbc,
  0xaa, 0x37, 0x5c, 0x3d, 0xd9, 0xb5, 0x73, 0x3e, 0xb4, 0x23, 0x95, 0x3f,
  0x4c, 0xc7, 0xa1, 0xbd, 0x32, 0x8c, 0x47, 0x3e, 0xe7, 0x19, 0x85, 0xbe,
  0xa7, 0xb8, 0x8c, 0xbe, 0x84, 0x4a, 0x6b, 0xbe, 0x67, 0x6c, 0xa8, 0x3e,
  0x5b, 0x00, 0x9d, 0xbe, 0x2d, 0xef, 0xff, 0xbe, 0xcd, 0x34, 0xeb, 0xbe,
  0x75, 0x33, 0x22, 0xbe, 0xe3, 0x5a, 0xc1, 0xbd, 0x3b, 0xf2, 0x0a, 0xbd,
  0xab, 0x9c, 0x42, 0x3d, 0x01, 0x8c, 0x81, 0x3e, 0xc4, 0x16, 0xc6, 0x3e,
  0x1b, 0xed, 0x6c, 0x3f, 0x5c, 0x06, 0x27, 0xbe, 0xf4, 0x1f, 0x36, 0x3e,
  0x7f, 0x56, 0xb4, 0xbd, 0xc0, 0x50, 0x90, 0xbd, 0x7c, 0xba, 0x4b, 0xbb,
  0xf9, 0x82, 0xa4, 0x3e, 0x04, 0xf7, 0xb5, 0xbe, 0xd0, 0xef, 0x27, 0xbe,
  0x29, 0x33, 0x54, 0xbe, 0x27, 0x2a, 0x42, 0xbe, 0xbc, 0x42, 0x13, 0x3e,
  0x5f, 0xd4, 0xd6, 0xbc, 0x08, 0xb9, 0x3c, 0xbe, 0x48, 0xd5, 0x74, 0x3e,
  0xf3, 0x5e, 0x8c, 0x3e, 0x88, 0xdb, 0xa3, 0x3f, 0x53, 0xa2, 0xce, 0xbc,
  0x59, 0x22, 0x27, 0x3e, 0xdb, 0x8d, 0x07, 0xbe, 0xde, 0x73, 0x44, 0xbd,
  0x15, 0xc8, 0xcd, 0xbd, 0x77, 0xf6, 0x82, 0x3d, 0x0d, 0x56, 0x8a, 0xbd,
  0x6e, 0x1e, 0x4c, 0xbe, 0x23, 0x69, 0x24, 0xbe, 0x10, 0xb5, 0x39, 0x3c,
  0x27, 0x2a, 0xce, 0xbc, 0x8a, 0x19, 0x8d, 0xbd, 0xf3, 0x73, 0x53, 0xbe,
  0xdd, 0xb4, 0xee, 0xbd, 0x6b, 0x3a, 0x3b, 0x3e, 0x55, 0x33, 0x83, 0x3d,
  0x64, 0x5b, 0xe6, 0xbd, 0x14, 0x4e, 0x04, 0xbe, 0x95, 0xfe, 0x60, 0xbe,
  0x16, 0xb9, 0x02, 0xbe, 0xf9, 0xd0, 0x51, 0xbe, 0x53, 0x8b, 0xec, 0xbd,
  0xd0, 0xd7, 0x68, 0xbe, 0x27, 0x42, 0x12, 0x3d, 0x5d, 0x12, 0xad, 0xbd,
  0x3f, 0x92, 0x43, 0x3e, 0x25, 0x84, 0xb0, 0xbc, 0xa2, 0x5b, 0x75, 0xbd,
  0x27, 0xc0, 0xd5, 0x3d, 0xb8, 0x59, 0x03, 0xbe, 0xea, 0xc6, 0xc1, 0xbd,
  0x33, 0x86, 0x72, 0x3d, 0xb0, 0x31, 0xad, 0xbd, 0x0a, 0xa5, 0x3f, 0xbd,
  0xe0, 0xea, 0x2e, 0x3d, 0xbd, 0x29, 0x11, 0xbe, 0xa3, 0xc5, 0x1d, 0xbe,
  0xb1, 0x6b, 0xa2, 0xbd, 0x98, 0xd0, 0x0c, 0x3e, 0x20, 0x0d, 0x51, 0xbe,
  0xd8, 0xd3, 0xa5, 0x3d, 0x9d, 0x76, 0x0a, 0xbe, 0x76, 0x5d, 0x13, 0xbe,
  0x82, 0x0a, 0x1a, 0xbe, 0x82, 0xea, 0x76, 0xbd, 0x0d, 0xb7, 0xeb, 0x3d,
  0x4c, 0x1a, 0x97, 0x3d, 0x7b, 0x65, 0x3e, 0x3e, 0x4f, 0x73, 0x08, 0xbd,
  0x82, 0x1d, 0x9b, 0xbd, 0xf4, 0x47, 0x95, 0xbe, 0x54, 0x5f, 0x3d, 0xbe,
  0x18, 0x4a, 0x0f, 0xbe, 0x7b, 0x83, 0x4e, 0x3e, 0xe7, 0x4e, 0x17, 0xbc,
  0xa4, 0xe2, 0x90, 0xbd, 0xa6, 0x42, 0x82, 0xbe, 0x48, 0x21, 0x1e, 0x3d,
  0x0e, 0xfb, 0x2a, 0x3e, 0xa4, 0x89, 0x4a, 0xbe, 0x09, 0xbc, 0xc8, 0xbd,
  0xc4, 0x39, 0x6c, 0x3b, 0xb0, 0x08, 0x1d, 0x3a, 0xf8, 0xbc, 0x18, 0x3e,
  0x28, 0x89, 0x00, 0x3e, 0x82, 0x99, 0x7d, 0xbe, 0xfe, 0xe5, 0xab, 0xbe,
  0xdd, 0x11, 0x6c, 0x3d, 0x41, 0x24, 0x66, 0x3d, 0x38, 0x0d, 0x1f, 0xbe,
  0x74, 0x1c, 0xba, 0x3d, 0xa5, 0x63, 0xec, 0xbd, 0x44, 0xb6, 0x29, 0xbe,
  0x30, 0x07, 0x18, 0xbe, 0x5f, 0xc7, 0x0c, 0xbe, 0xf5, 0x55, 0x15, 0xbe,
  0x44, 0x16, 0x50, 0x3e, 0xe4, 0xd9, 0x3a, 0xbe, 0x82, 0x63, 0x07, 0x3c,
  0x35, 0x52, 0x32, 0xbe, 0xbc, 0x49, 0x79, 0xbe, 0x6f, 0x6b, 0x65, 0xbe,
  0x82, 0x99, 0xbb, 0x3c, 0x47, 0x77, 0x19, 0xbe, 0x56, 0x80, 0x23, 0x3e,
  0x62, 0x50, 0xd8, 0x3c, 0x31, 0xdd, 0x1d, 0x3d, 0x0b, 0x07, 0xe4, 0x3d,
  0x79, 0xff, 0x93, 0x3d, 0x63, 0x0f, 0x42, 0xbe, 0xe6, 0x0e, 0x8f, 0x3c,
  0x90, 0xb1, 0x9d, 0xbd, 0xab, 0x77, 0x0d, 0xbe, 0x05, 0xf3, 0x64, 0xbd,
  0xbc, 0x26, 0x38, 0xbd, 0x7c, 0x57, 0xd9, 0x3d, 0xdc, 0x00, 0xdf, 0x3d,
  0xad, 0x2c, 0xa3, 0xbd, 0xe5, 0x70, 0x4c, 0xbe, 0xaa, 0x6c, 0xb8, 0xbd,
  0x68, 0x75, 0x0f, 0x3e, 0xec, 0x6a, 0xef, 0x3d, 0x22, 0x0c, 0xd2, 0xbd,
  0x07, 0xe2, 0x94, 0xbe, 0x9a, 0x1d, 0x4b, 0xbe, 0xb0, 0x7d, 0x87, 0xbe,
  0xea, 0x93, 0x49, 0xbe, 0x32, 0xd9, 0x55, 0xbe, 0x92, 0xe9, 0xe9, 0x3d,
  0xe5, 0xd2, 0x23, 0xbe, 0x2f, 0x45, 0x99, 0xbe, 0x8d, 0xa3, 0x0f, 0xbe,
  0x33, 0x7d, 0xaa, 0x3d, 0x7d, 0x10, 0x10, 0xbe, 0x9d, 0x92, 0x08, 0xbd,
  0xf3, 0x19, 0xa4, 0xbe, 0xe2, 0x1b, 0xb9, 0x3d, 0xe2, 0xd6, 0x52, 0x3d,
  0xc4, 0x5c, 0x3b, 0x3e, 0xe8, 0xa7, 0x80, 0xbd, 0x29, 0xb6, 0x6f, 0xbe,
  0xf8, 0x48, 0x26, 0xbd, 0x8f, 0xda, 0xaa, 0xbe, 0xfc, 0xe6, 0x4e, 0xbe,
  0x6c, 0xae, 0x15, 0xbe, 0xd9, 0x4a, 0xef, 0x3d, 0x12, 0x9f, 0x11, 0x3e,
  0x36, 0x69, 0x28, 0xbe, 0xd6, 0x46, 0x59, 0xbe, 0xc0, 0x48, 0x07, 0xbd,
  0x0f, 0x4d, 0x6a, 0xbd, 0xaa, 0xcc, 0xad, 0xbe, 0x86, 0x5b, 0xa9, 0xbc,
  0xa2, 0x21, 0x22, 0xbf, 0x54, 0xef, 0x0b, 0x3e, 0xc1, 0xe2, 0x6e, 0xbe,
  0xd4, 0xb7, 0x03, 0xbe, 0x6a, 0xa6, 0x1a, 0xbc, 0x48, 0x43, 0x71, 0xbe,
  0xf1, 0x19, 0x4e, 0xbd, 0x38, 0x23, 0x85, 0xbe, 0x2c, 0x07, 0xa1, 0xbe,
  0xd8, 0x3c, 0xe2, 0x3d, 0xfc, 0xd7, 0xa4, 0xbc, 0xd1, 0x28, 0x05, 0xbd,
  0x52, 0x99, 0xc0, 0xbd, 0xf7, 0x08, 0x1d, 0x3d, 0xcf, 0x2b, 0xe2, 0x3d,
  0x35, 0x19, 0x81, 0x3e, 0x47, 0x1a, 0x8e, 0xbe, 0xd7, 0x02, 0x3a, 0x3e,
  0xf9, 0x4e, 0xff, 0xbd, 0x45, 0x73, 0xc4, 0x3e, 0x47, 0x38, 0x4e, 0x3e,
  0x2b, 0xdb, 0x6a, 0xbe, 0x65, 0xde, 0x17, 0x3c, 0x6f, 0x07, 0xfc, 0x3c,
  0x29, 0x32, 0x52, 0xbe, 0x06, 0xe7, 0x9c, 0xbe, 0x47, 0x1d, 0x83, 0xba,
  0x61, 0xf5, 0x43, 0xbd, 0x68, 0x7d, 0x09, 0xbe, 0xa9, 0xb2, 0x40, 0x3c,
  0x95, 0x5c, 0x28, 0x3d, 0x1e, 0xf3, 0x8a, 0x3e, 0x8f, 0x82, 0xf8, 0x3b,
  0x4e, 0x12, 0x6f, 0x3b, 0xf9, 0x60, 0x5b, 0x3e, 0x68, 0x14, 0xf1, 0x3e,
  0xf4, 0x51, 0x22, 0xbc, 0xf4, 0x9c, 0x0b, 0xbe, 0xb0, 0x2f, 0x39, 0x3d,
  0x71, 0x8d, 0x25, 0x3d, 0xbd, 0x54, 0x55, 0xbd, 0x5c, 0x3c, 0x51, 0xbe,
  0xc5, 0xf6, 0x92, 0x3d, 0xe0, 0x27, 0x59, 0xbd, 0xff, 0x28, 0xb6, 0x3d,
  0xa9, 0x9d, 0xfb, 0x3d, 0x5c, 0xe4, 0x30, 0x3e, 0x36, 0x4b, 0x39, 0x3e,
  0x21, 0xc4, 0x01, 0x3e, 0x5c, 0x4c, 0x08, 0xbe, 0x82, 0x3b, 0x0b, 0x3f,
  0x31, 0xf7, 0xa4, 0x3e, 0x58, 0x04, 0x5f, 0x3d, 0x67, 0x74, 0x82, 0x3c,
  0xfa, 0x5e, 0xb5, 0x3d, 0xcc, 0xfb, 0xb0, 0x3d, 0x90, 0xc8, 0xd1, 0x3c,
  0x02, 0xa3, 0xa5, 0x3d, 0xc9, 0xa8, 0xc6, 0xbc, 0x4b, 0x0e, 0xdc, 0xbd,
  0xef, 0x3a, 0x37, 0xbe, 0x3e, 0x35, 0x71, 0x3e, 0x39, 0x85, 0x6a, 0xbe,
  0xaa, 0xa7, 0x7f, 0x3e, 0x56, 0xb7, 0x6c, 0xbe, 0x7f, 0xae, 0xde, 0xbd,
  0x39, 0xeb, 0x83, 0x3e, 0x54, 0x6f, 0x57, 0xbd, 0xf6, 0x8b, 0x16, 0x3e,
  0x0a, 0xa5, 0x4a, 0x3c, 0x50, 0x20, 0x9b, 0x3d, 0x5e, 0x3f, 0x8f, 0x3d,
  0x8a, 0xf6, 0xa2, 0xbd, 0xbb, 0x6b, 0xb9, 0xbe, 0x7d, 0x65, 0x81, 0xbe,
  0x36, 0x51, 0xdc, 0xbe, 0x02, 0xee, 0x3c, 0xbf, 0x0b, 0x07, 0x86, 0xbd,
  0x6d, 0x3a, 0xf4, 0xbd, 0xbf, 0x71, 0x2e, 0x3e, 0xe4, 0xaf, 0x6f, 0xbd,
  0xc5, 0x44, 0x4e, 0xbe, 0x43, 0x88, 0xd6, 0x3d, 0x32, 0xe3, 0x2d, 0x3e,
  0x00, 0xe3, 0x84, 0xbc, 0x62, 0x6d, 0x8f, 0xbe, 0xdd, 0xaa, 0x6a, 0x3d,
  0xcb, 0xbe, 0x70, 0x3d, 0xa0, 0xc2, 0x55, 0xbe, 0x1c, 0xda, 0x2e, 0xbf,
  0xbf, 0x9e, 0x51, 0xbc, 0x4e, 0x4f, 0x15, 0xbe, 0x3e, 0x98, 0x09, 0xbe,
  0x00, 0xe1, 0x88, 0xbc, 0x15, 0x82, 0x9f, 0xbe, 0xaf, 0x7a, 0x2e, 0xbd,
  0x8d, 0x35, 0xd7, 0x3a, 0x48, 0x9e, 0xa1, 0xbe, 0xf0, 0x61, 0xfd, 0xbd,
  0x16, 0x8f, 0xfe, 0xbd, 0xfc, 0xc2, 0x97, 0x39, 0xf3, 0x63, 0x6b, 0xbe,
  0xc9, 0x89, 0x1b, 0x3c, 0x7f, 0x59, 0x11, 0xbd, 0xe9, 0x2e, 0x40, 0xbb,
  0xbd, 0x49, 0xb7, 0xbd, 0x4f, 0x11, 0x9e, 0xbd, 0x89, 0xc0, 0xd1, 0x3d,
  0x3e, 0x19, 0x2e, 0xbc, 0xdb, 0xa1, 0x7e, 0x3e, 0x51, 0xd7, 0xa1, 0x3e,
  0x8f, 0x13, 0x3f, 0x3e, 0xdd, 0xc5, 0x92, 0xbe, 0x74, 0x2e, 0x51, 0x3e,
  0xd5, 0xc6, 0xe7, 0x3d, 0xbb, 0x57, 0x01, 0x3e, 0x3b, 0x8d, 0xc3, 0x3e,
  0xae, 0x27, 0x18, 0x3e, 0x23, 0x74, 0x68, 0x3d, 0x28, 0x49, 0xe4, 0xbd,
  0x32, 0x49, 0xa4, 0xbe, 0x3d, 0x4e, 0x35, 0xbd, 0x0f, 0x7e, 0x8b, 0xbd,
  0xc6, 0x77, 0x54, 0x3e, 0x85, 0x31, 0x01, 0x3e, 0x3a, 0xb2, 0x75, 0xbd,
  0x0e, 0xde, 0xaf, 0x3d, 0x7c, 0xb1, 0x80, 0x3d, 0xe7, 0xbd, 0x24, 0xbe,
  0x41, 0x54, 0x26, 0x3e, 0x0d, 0xdd, 0x3d, 0xbc, 0x17, 0x34, 0x91, 0xbe,
  0xce, 0x85, 0x43, 0xba, 0x3c, 0x0c, 0xb2, 0x3d, 0x48, 0x06, 0x57, 0x3c,
  0x6d, 0x08, 0xf6, 0xbd, 0x15, 0x45, 0xb1, 0x3c, 0x91, 0x64, 0xa1, 0x3c,
  0x99, 0x09, 0x20, 0xbe, 0x99, 0xde, 0xf7, 0xbc, 0x95, 0xc5, 0x2b, 0xbf,
  0x59, 0x2f, 0xb3, 0xbe, 0xb0, 0x16, 0xa6, 0xbe, 0xa2, 0xf6, 0x3a, 0xbe,
  0x4f, 0xeb, 0x4c, 0x3e, 0x70, 0xe4, 0x87, 0x3c, 0xfc, 0xd5, 0x18, 0xbf,
  0xab, 0xe3, 0x59, 0xbf, 0x9e, 0xde, 0xb6, 0xbe, 0xb0, 0xf9, 0x80, 0xbd,
  0xb5, 0x0e, 0x90, 0xbc, 0xfd, 0x56, 0xf2, 0xbd, 0x1b, 0xa9, 0x57, 0x3e,
  0xf5, 0x5a, 0xd8, 0xbe, 0xff, 0x66, 0x46, 0x3e, 0x74, 0x87, 0x0a, 0x3d,
  0xfe, 0x45, 0x2d, 0xbf, 0x04, 0xe3, 0x67, 0xbe, 0x17, 0x9b, 0x76, 0xbe,
  0xc3, 0x74, 0x3a, 0x3e, 0x4b, 0xa6, 0xa1, 0xbe, 0xbc, 0x8d, 0x74, 0xbd,
  0x69, 0x62, 0x24, 0xbe, 0x75, 0x22, 0xdc, 0xbe, 0x51, 0x39, 0xe3, 0xbe,
  0xd7, 0xb4, 0xed, 0xbe, 0xd0, 0x30, 0xe1, 0xbd, 0x3f, 0xeb, 0xcd, 0xbd,
  0xdb, 0xf0, 0xdb, 0xbe, 0x88, 0xca, 0xde, 0xbe, 0xd7, 0x47, 0x42, 0xbe,
  0x4c, 0xd5, 0x2a, 0xbe, 0x54, 0x77, 0x75, 0xbe, 0x27, 0x08, 0x60, 0xbc,
  0x86, 0x48, 0x37, 0xbe, 0xc5, 0xa0, 0xaa, 0xbc, 0xb3, 0x16, 0xe9, 0xbd,
  0xea, 0x41, 0x3c, 0xbd, 0x43, 0x88, 0x5a, 0xbd, 0xd1, 0x9c, 0x0e, 0xbe,
  0x24, 0x5a, 0x45, 0xbe, 0xb8, 0xe6, 0x93, 0xbe, 0xa7, 0x83, 0x23, 0xbd,
  0xe8, 0x3a, 0xd3, 0x3d, 0xaf, 0x0d, 0x92, 0xbe, 0x7d, 0x79, 0xd8, 0xbd,
  0x01, 0xc5, 0x29, 0xbe, 0x9a, 0x45, 0x74, 0xbd, 0x84, 0xfc, 0x9c, 0xbe,
  0xcd, 0xbd, 0xb7, 0xbc, 0xdd, 0x57, 0x2c, 0x3e, 0x24, 0x7e, 0xab, 0x3e,
  0x4e, 0x56, 0x27, 0xbe, 0xd6, 0xbb, 0x4a, 0xbe, 0xe5, 0xbf, 0xb2, 0xbb,
  0xc1, 0xa7, 0xa4, 0xbe, 0xca, 0x07, 0xe1, 0xbe, 0x19, 0x44, 0xb2, 0xbd,
  0x1a, 0x2a, 0x17, 0xbe, 0x05, 0xa2, 0xf9, 0x3c, 0x56, 0x27, 0x95, 0xbe,
  0xdf, 0x91, 0x19, 0xbe, 0x6a, 0xbf, 0x42, 0x3c, 0x14, 0x64, 0x77, 0x3c,
  0x62, 0x7f, 0x01, 0xbf, 0x3f, 0x2b, 0x3a, 0xbe, 0x5e, 0xca, 0x9d, 0x3d,
  0x22, 0xaa, 0xc4, 0xbd, 0x85, 0x65, 0x47, 0x3e, 0xba, 0x49, 0x92, 0xbd,
  0xc9, 0x11, 0x0d, 0xbe, 0x42, 0x58, 0x15, 0xbd, 0x35, 0x2e, 0x70, 0xbe,
  0x66, 0xee, 0x8f, 0xbe, 0x4c, 0x19, 0x10, 0xbe, 0xae, 0x2a, 0x81, 0xbd,
  0xa0, 0x12, 0xa1, 0xbd, 0xb7, 0x26, 0x0b, 0xbd, 0xaa, 0xab, 0xb4, 0x3f,
  0x90, 0x78, 0xc3, 0xbe, 0xb9, 0x54, 0xd3, 0xbc, 0xfc, 0x53, 0x8b, 0xbe,
  0x83, 0x33, 0xbf, 0xbe, 0xbd, 0xe3, 0x82, 0xbd, 0xeb, 0x56, 0x01, 0x3f,
  0x03, 0xee, 0x0d, 0x3e, 0xdf, 0x51, 0x83, 0xbe, 0x9a, 0xfb, 0x77, 0xbe,
  0x3d, 0xc8, 0x4b, 0xbe, 0x18, 0xc4, 0x87, 0xbd, 0x96, 0xa9, 0x7a, 0x3c,
  0x4b, 0xe5, 0xed, 0x3d, 0x37, 0xe3, 0x9a, 0x3e, 0x96, 0x03, 0xd6, 0x3c,
  0xee, 0x6e, 0x99, 0x3f, 0x7e, 0x98, 0x96, 0xbd, 0x38, 0x2e, 0x39, 0x3e,
  0x1b, 0x94, 0x34, 0xbe, 0x68, 0x0c, 0xaa, 0x3c, 0x3e, 0x11, 0xc4, 0xbd,
  0x06, 0xe8, 0x15, 0x3e, 0x65, 0x7b, 0xf1, 0x3d, 0x65, 0xfd, 0xb7, 0xbe,
  0x8d, 0x4a, 0xda, 0xbd, 0xc9, 0x01, 0x08, 0xbe, 0x78, 0x54, 0xde, 0x3d,
  0xaf, 0x4c, 0x4b, 0xbd, 0x0d, 0xf8, 0x06, 0xbe, 0xca, 0x3d, 0x0f, 0x3e,
  0x28, 0x4b, 0xc5, 0x3e, 0xd9, 0x66, 0x93, 0x3f, 0xdf, 0x01, 0x34, 0x3e,
  0x77, 0x2d, 0x94, 0x3e, 0x43, 0x3e, 0xa2, 0x3d, 0xa8, 0xbb, 0x47, 0x3e,
  0x2f, 0x3b, 0x15, 0x3d, 0xcc, 0x76, 0x2a, 0x3e, 0x74, 0x73, 0x8d, 0x3e,
  0x40, 0x0c, 0x32, 0xbe, 0x3a, 0x22, 0x5d, 0x3d, 0xe6, 0xd0, 0x86, 0xbd,
  0xd9, 0x73, 0x1d, 0x3e, 0xae, 0x90, 0xfe, 0x3b, 0xed, 0x46, 0xae, 0xbd,
  0x66, 0xa1, 0xc2, 0xb7, 0x17, 0x94, 0xeb, 0x3e, 0xec, 0x9b, 0x8e, 0x3f,
  0x69, 0xa4, 0x00, 0x3e, 0x5c, 0xef, 0xd1, 0x3e, 0xda, 0x20, 0x62, 0xbd,
  0x5c, 0x6b, 0x84, 0x3e, 0x6d, 0x29, 0x9c, 0xbe, 0x95, 0x4b, 0xae, 0x3e,
  0xc6, 0xf0, 0xd4, 0x3d, 0xaf, 0x51, 0x21, 0xbe, 0xd5, 0x29, 0xf5, 0xbe,
  0xc7, 0xd1, 0x64, 0xbe, 0x8c, 0xef, 0xe3, 0x3e, 0x2b, 0x09, 0x0a, 0x3d,
  0xf4, 0xd1, 0xf5, 0xbc, 0x6b, 0xe5, 0x77, 0x3e, 0x84, 0x20, 0xa0, 0x3e,
  0x85, 0xa3, 0x90, 0x3f, 0x6c, 0x70, 0xd0, 0xbc, 0xb1, 0x04, 0x35, 0x3e,
  0x6e, 0x58, 0xcc, 0xbe, 0x35, 0x49, 0x95, 0xbe, 0x55, 0xd0, 0x8f, 0x3c,
  0xc6, 0x3f, 0x6d, 0x3e, 0x37, 0xab, 0x31, 0xbe, 0xa6, 0x44, 0x04, 0xbf,
  0xb3, 0x93, 0xfa, 0xbe, 0xe0, 0x0f, 0xba, 0xbe, 0x89, 0x50, 0x09, 0xbe,
  0x91, 0x7a, 0xd0, 0x3c, 0xdb, 0x35, 0x90, 0xbd, 0x8b, 0x4c, 0x4e, 0x3e,
  0x7e, 0x58, 0x15, 0x3e, 0x16, 0x7b, 0x92, 0x3f, 0xab, 0x03, 0x4a, 0xbd,
  0xb8, 0x08, 0xbc, 0x3d, 0x73, 0xa9, 0x9d, 0xbe, 0xe2, 0x5f, 0x83, 0xbe,
  0xb2, 0xa1, 0xca, 0xbd, 0x0f, 0xd5, 0x90, 0x3d, 0x23, 0x85, 0x7a, 0xbe,
  0xb7, 0xd3, 0x18, 0xbe, 0xd2, 0xf1, 0x46, 0xbe, 0x8a, 0x0b, 0x3d, 0xbe,
  0xd0, 0xfa, 0x36, 0xbc, 0x77, 0x22, 0xb4, 0xba, 0xee, 0xca, 0x9c, 0x3d,
  0xfd, 0xaf, 0xb5, 0x3e, 0xfb, 0x26, 0x22, 0x3d, 0x5d, 0xe4, 0xa3, 0x3f,
  0xf1, 0x9b, 0x36, 0xbe, 0x21, 0xa1, 0x09, 0x3e, 0x95, 0xc7, 0x5d, 0xbe,
  0xde, 0x40, 0x43, 0x3a, 0xad, 0x4b, 0x9f, 0xbe, 0xad, 0x67, 0x6d, 0x3d,
  0x36, 0xa6, 0xbd, 0xbd, 0x91, 0x85, 0x98, 0xbe, 0x62, 0x4d, 0xc6, 0xbd,
  0x04, 0x60, 0x2b, 0x3c, 0x0a, 0x7f, 0x3b, 0x3d, 0xaf, 0x6b, 0xe9, 0xbc,
  0x20, 0x72, 0xed, 0x3d, 0xe7, 0x16, 0x53, 0x3d, 0xe4, 0x35, 0xc4, 0x3d,
  0xf7, 0x2f, 0xe5, 0x3d, 0x13, 0x98, 0x66, 0xbe, 0x5a, 0x47, 0x3b, 0xbe,
  0x2f, 0x04, 0x5d, 0x3d, 0xc0, 0xd2, 0xdc, 0x3d, 0xc0, 0x41, 0x31, 0xbe,
  0x2b, 0x32, 0xbc, 0xbb, 0xbc, 0x16, 0x22, 0xbe, 0x13, 0x27, 0x6e, 0xbd,
  0x7f, 0x15, 0x6c, 0xbe, 0x5c, 0x6f, 0x37, 0xbc, 0xc1, 0x61, 0x5a, 0xbe,
  0xbf, 0x69, 0x2d, 0xbe, 0x2b, 0x2a, 0xd2, 0xbd, 0xbd, 0x50, 0xfd, 0xbc,
  0xde, 0x80, 0x1a, 0xbe, 0x17, 0x4e, 0x41, 0x3d, 0x93, 0x4f, 0x6b, 0x3d,
  0x14, 0xd0, 0xbe, 0x3d, 0x21, 0x95, 0xe7, 0xbc, 0x5f, 0xf1, 0x1d, 0x3e,
  0xbb, 0xc0, 0x3d, 0xbe, 0x50, 0x03, 0xc7, 0xbd, 0x36, 0xe9, 0xaa, 0xbd,
  0x70, 0xe6, 0xa1, 0xbd, 0x15, 0xcd, 0x4f, 0xbe, 0xd4, 0x21, 0x09, 0xbb,
  0x4c, 0xc7, 0x32, 0x3d, 0x1d, 0xdd, 0x80, 0xbd, 0x70, 0x76, 0x14, 0xbe,
  0xcc, 0x0d, 0x18, 0xbe, 0x34, 0x7f, 0xda, 0xbd, 0x60, 0x9e, 0x2f, 0x3e,
  0x84, 0xcd, 0x53, 0xbd, 0x8f, 0xb3, 0x45, 0xbe, 0x83, 0x53, 0xdd, 0xbc,
  0xc9, 0x98, 0xf5, 0x3c, 0x55, 0xaf, 0x4d, 0x3e, 0xae, 0x75, 0x65, 0xbe,
  0xf3, 0xee, 0x4e, 0xbb, 0x1a, 0x06, 0x78, 0xbe, 0x0a, 0x5b, 0x87, 0xbd,
  0x2b, 0x6a, 0x8a, 0x3b, 0x75, 0x41, 0x31, 0xbd, 0xd4, 0x44, 0x7d, 0xbc,
  0x21, 0x39, 0x86, 0xbe, 0x63, 0xfc, 0xbd, 0x3c, 0x11, 0xe7, 0x93, 0xbd,
  0x35, 0x75, 0x5f, 0x3e, 0xe5, 0x47, 0xd5, 0xbc, 0xa6, 0x75, 0x44, 0xbe,
  0x4c, 0xfa, 0x77, 0x3d, 0x70, 0x41, 0x44, 0xbd, 0x16, 0x4e, 0xbc, 0x3d,
  0x4d, 0x1b, 0x6c, 0xbe, 0xa5, 0xf8, 0x07, 0xbe, 0x6b, 0x69, 0x6b, 0xbe,
  0x3a, 0x1e, 0x7b, 0xbe, 0xf0, 0xab, 0xb6, 0x3c, 0x94, 0xb9, 0xc9, 0x3d,
  0xc8, 0xea, 0xa8, 0xbe, 0xbb, 0xa2, 0x9c, 0x3d, 0xd6, 0xea, 0xbb, 0x3d,
  0xc1, 0x08, 0x92, 0x3c, 0x86, 0x4e, 0x0b, 0x3e, 0x60, 0xb6, 0x33, 0xbc,
  0x66, 0x34, 0x39, 0xbe, 0x6b, 0xb7, 0x2c, 0xbe, 0xd9, 0xe4, 0xd7, 0x3c,
  0x8c, 0x53, 0x5d, 0xbe, 0xb6, 0xb7, 0x6f, 0xbe, 0xc9, 0x42, 0x00, 0xbe,
  0xe2, 0x90, 0xaa, 0xbd, 0xc0, 0xac, 0x40, 0xbe, 0xd4, 0x32, 0xba, 0x3d,
  0x19, 0x66, 0x28, 0xbd, 0x4a, 0x6e, 0xf7, 0xbd, 0x4a, 0x9f, 0x64, 0xbe,
  0x88, 0x59, 0x2b, 0xbe, 0x31, 0x2b, 0x1a, 0xbe, 0x6b, 0x2a, 0x67, 0xbe,
  0x9a, 0xb6, 0x92, 0x3c, 0xd1, 0x1e, 0xb2, 0xbc, 0xf3, 0x26, 0x99, 0x3d,
  0x82, 0xfd, 0x5a, 0xbe, 0x33, 0x7f, 0x2e, 0xbe, 0x45, 0x74, 0x2a, 0xbe,
  0x46, 0x8f, 0x20, 0x3e, 0x75, 0x56, 0xac, 0x3d, 0x33, 0xea, 0xee, 0xbd,
  0x5f, 0x86, 0xfc, 0xbd, 0x2f, 0x8a, 0xd1, 0xbd, 0xc0, 0xdc, 0x73, 0xbe,
  0x62, 0xd9, 0x21, 0x3e, 0x83, 0x7b, 0x16, 0x3c, 0x40, 0xa8, 0x5b, 0x3d,
  0xc3, 0xe5, 0x23, 0xbe, 0xfb, 0x90, 0x2c, 0xbc, 0x3f, 0x8c, 0x3e, 0xbe,
  0x6b, 0x86, 0xf3, 0xbd, 0xb3, 0x40, 0x76, 0xbd, 0x37, 0xe5, 0x02, 0x3d,
  0xda, 0xf5, 0x86, 0xbe, 0xed, 0x14, 0x57, 0xbd, 0xa5, 0x5c, 0xff, 0xbd,
  0x4b, 0xea, 0x38, 0xbe, 0x78, 0xcd, 0x3a, 0xbe, 0x67, 0xbf, 0xf6, 0xbd,
  0x49, 0x56, 0xdb, 0xbd, 0x8d, 0x1e, 0x7c, 0xbd, 0x65, 0x42, 0x32, 0x3c,
  0xe7, 0x0e, 0x93, 0xbe, 0xfe, 0x9d, 0x9e, 0x3f, 0x7c, 0x40, 0x2c, 0xbe,
  0xa6, 0x15, 0x81, 0x3d, 0xd7, 0xea, 0x0e, 0xbe, 0x25, 0xf5, 0x44, 0xbe,
  0x14, 0x66, 0x98, 0x3c, 0x82, 0x35, 0x40, 0x3e, 0xa0, 0x62, 0x09, 0xbd,
  0xe4, 0x9f, 0xaf, 0xbe, 0x72, 0x51, 0x6b, 0xbd, 0x95, 0x25, 0x4d, 0xbe,
  0xb6, 0x00, 0x2a, 0x3c, 0xb2, 0xe3, 0xb0, 0xbd, 0x54, 0x71, 0x26, 0xbe,
  0x9e, 0xdf, 0x61, 0x3e, 0x3a, 0x00, 0xf9, 0x3d, 0x34, 0xad, 0xa4, 0x3f,
  0x87, 0x18, 0xb3, 0xbe, 0x1c, 0x09, 0xf6, 0x3b, 0xed, 0xf0, 0xd5, 0xbe,
  0xc9, 0x9f, 0x32, 0xbd, 0x2c, 0x14, 0xe3, 0xbd, 0x56, 0xe9, 0xa6, 0x3d,
  0xbe, 0x68, 0x1f, 0x3e, 0xbf, 0x97, 0xac, 0xbd, 0x6a, 0xb0, 0x0b, 0x3e,
  0xb3, 0x83, 0x56, 0xbe, 0x02, 0x61, 0x07, 0x3d, 0xbe, 0x64, 0x9b, 0xbd,
  0x80, 0x8a, 0x56, 0xbd, 0x7b, 0x77, 0x11, 0x3e, 0x29, 0xd4, 0xd6, 0x3e,
  0x4c, 0x54, 0xbe, 0x3f, 0x94, 0x62, 0x30, 0xbc, 0x74, 0x66, 0x5a, 0x3e,
  0x6c, 0xa0, 0x91, 0xbe, 0x6e, 0xbc, 0xd8, 0x3d, 0x6a, 0xcd, 0x45, 0x3e,
  0x68, 0xb4, 0x35, 0xbd, 0x41, 0x7a, 0x63, 0x3d, 0x4c, 0x82, 0x12, 0xbe,
  0x41, 0x18, 0x63, 0x3d, 0x8e, 0x94, 0x5e, 0xbe, 0x1a, 0x74, 0x84, 0x3e,
  0xc3, 0xa0, 0xa0, 0xbc, 0x10, 0x4d, 0x84, 0x3d, 0xb4, 0xda, 0xb4, 0xbc,
  0x86, 0x75, 0xb7, 0x3e, 0x54, 0xad, 0x8b, 0x3f, 0xff, 0x9f, 0x47, 0x3d,
  0xa6, 0x11, 0x3c, 0x3e, 0x65, 0x14, 0x12, 0xbe, 0x44, 0xaf, 0xda, 0xbc,
  0x8b, 0x22, 0x87, 0x3d, 0xe8, 0x9a, 0x23, 0x3e, 0x5d, 0x46, 0x4f, 0xbe,
  0xea, 0x79, 0xbf, 0x3c, 0xf2, 0x82, 0x55, 0xbe, 0x6c, 0xdc, 0xf0, 0xbd,
  0xcb, 0x3a, 0x0e, 0x3e, 0xd4, 0x5d, 0xc7, 0x3c, 0xcc, 0x19, 0x03, 0x3d,
  0x7d, 0x33, 0x57, 0x3e, 0xf8, 0x96, 0x96, 0x3e, 0xe3, 0x73, 0x99, 0x3f,
  0x26, 0xc4, 0xc9, 0xbd, 0xb6, 0x77, 0x92, 0x3d, 0x37, 0x27, 0xaa, 0xbe,
  0x6c, 0x51, 0x8a, 0xbe, 0x04, 0x8f, 0x2b, 0xbe, 0x51, 0xdc, 0xe8, 0x3d,
  0x75, 0x10, 0xf0, 0xbd, 0x01, 0xf8, 0xc0, 0xbe, 0x11, 0x20, 0x94, 0xbd,
  0xe8, 0xec, 0x9a, 0xbd, 0xd2, 0xdd, 0x30, 0xbd, 0x52, 0x90, 0x8d, 0xbd,
  0x92, 0xd1, 0xc8, 0xbb, 0xec, 0x48, 0x4d, 0x3e, 0x63, 0xad, 0x74, 0x3e,
  0x6e, 0x31, 0xc2, 0x3f, 0x35, 0x02, 0xa1, 0xbe, 0x88, 0xb2, 0x3e, 0x3e,
  0xd7, 0x44, 0x97, 0xbe, 0xb2, 0x2c, 0x94, 0xbe, 0x27, 0x77, 0x46, 0x3a,
  0x1a, 0x28, 0x8d, 0x3e, 0x4a, 0x26, 0x65, 0x3c, 0xfa, 0xcf, 0xc8, 0xbe,
  0x9c, 0x6d, 0x30, 0xbe, 0xd9, 0x94, 0x8a, 0xbe, 0xc5, 0xa4, 0x37, 0xbe,
  0x6e, 0xa3, 0x29, 0x3c, 0xbc, 0x03, 0xa3, 0x3d, 0x5e, 0x1e, 0x73, 0x3e,
  0xc0, 0xa0, 0x6d, 0x3e, 0xb5, 0xf5, 0x91, 0x3f, 0xc9, 0x35, 0x68, 0xbd,
  0x19, 0xe5, 0x2d, 0x3d, 0xd6, 0x5a, 0x32, 0xbe, 0xff, 0x39, 0xdc, 0xbd,
  0x2b, 0x2d, 0xd3, 0xbd, 0xbb, 0x51, 0xcb, 0x3d, 0x52, 0x32, 0x9f, 0x3d,
  0xf1, 0x0c, 0x50, 0xbe, 0xa5, 0x68, 0x15, 0xbe, 0xb8, 0xac, 0x78, 0xbe,
  0xfe, 0x22, 0x5d, 0x3e, 0xc0, 0x69, 0x7c, 0xbd, 0x4f, 0xda, 0x81, 0x3d,
  0x20, 0x2a, 0x37, 0xbd, 0xbd, 0xf7, 0x53, 0x3e, 0x48, 0xb6, 0x1f, 0x3f,
  0xef, 0xca, 0xef, 0xbc, 0x76, 0x82, 0xce, 0xbc, 0xe7, 0xb4, 0x80, 0xbe,
  0xb2, 0x58, 0xa9, 0xbe, 0xfd, 0xcd, 0xea, 0x3c, 0xff, 0x47, 0xa2, 0x3e,
  0xbc, 0x26, 0x77, 0xbe, 0xdb, 0x07, 0xaf, 0xbe, 0xad, 0x82, 0x6e, 0xbe,
  0xdb, 0xa6, 0xdf, 0xbd, 0xe9, 0x86, 0xe7, 0xbd, 0xa8, 0xe3, 0x3e, 0xbc,
  0x9f, 0xf1, 0x96, 0x3e, 0xb6, 0x50, 0x95, 0x3d, 0x1f, 0xaa, 0x0e, 0x3d,
  0xd6, 0xd8, 0x23, 0x3f, 0xc3, 0x28, 0xda, 0xbc, 0x7e, 0x8f, 0xba, 0x3c,
  0x21, 0xb7, 0xce, 0xbd, 0x20, 0xea, 0x3e, 0xbc, 0x99, 0xee, 0x9e, 0xbd,
  0x48, 0x2b, 0x82, 0x3e, 0xc4, 0xd3, 0x32, 0xbe, 0xd9, 0x3f, 0x8b, 0xbe,
  0xbc, 0x36, 0x44, 0xbb, 0x3a, 0xdb, 0x24, 0x3e, 0x48, 0x93, 0x14, 0x3e,
  0x90, 0xb6, 0x43, 0xbe, 0xb5, 0xa9, 0x0e, 0x3e, 0x68, 0x48, 0xab, 0x3d,
  0xa2, 0x88, 0x64, 0x3e, 0x0a, 0x70, 0x34, 0x3f, 0xee, 0x56, 0x17, 0x3e,
  0x41, 0x94, 0x7f, 0x3e, 0x1b, 0xdb, 0x08, 0xbe, 0x29, 0x74, 0x89, 0x3d,
  0xf8, 0x15, 0xde, 0x3d, 0x1b, 0x0d, 0x56, 0x3e, 0x42, 0x4f, 0xb2, 0x3c,
  0x12, 0x2a, 0xab, 0x3c, 0x6b, 0x36, 0x6a, 0xbd, 0x45, 0x29, 0x26, 0xbe,
  0xdd, 0xfc, 0x28, 0x3d, 0x99, 0x4b, 0x48, 0xbe, 0x0b, 0x35, 0xb5, 0xbe,
  0x7a, 0xfc, 0x0d, 0xbd, 0xdc, 0x65, 0x44, 0x3d, 0x6f, 0x60, 0x4a, 0x3f,
  0x36, 0x63, 0x82, 0xbd, 0x9f, 0x25, 0xa5, 0x3e, 0x32, 0x43, 0x81, 0x3c,
  0x66, 0xd3, 0xa1, 0xbd, 0x38, 0x76, 0xe2, 0xbd, 0x78, 0xa9, 0x88, 0x3d,
  0x00, 0x34, 0x09, 0x3e, 0x3b, 0x23, 0xb3, 0x3d, 0xeb, 0x8d, 0x43, 0xbe,
  0xbe, 0x7d, 0x89, 0xbd, 0x51, 0xf2, 0x62, 0xbd, 0x06, 0x01, 0x27, 0xbd,
  0xe4, 0x47, 0xb6, 0xbd, 0x13, 0xb9, 0x30, 0xbe, 0x19, 0xec, 0x95, 0x3e,
  0x3f, 0x1c, 0xe9, 0x3e, 0x23, 0xeb, 0xde, 0x3d, 0x78, 0x9e, 0xbb, 0x3d,
  0xa6, 0xff, 0xbd, 0xbc, 0x18, 0xe1, 0x9b, 0xbe, 0x6f, 0x74, 0x00, 0x3e,
  0x91, 0xb5, 0x5c, 0x3e, 0xab, 0xe3, 0x08, 0x3e, 0x8c, 0xb8, 0xa7, 0xbd,
  0xad, 0x37, 0x77, 0xbe, 0x37, 0x97, 0xdc, 0xbd, 0x41, 0xd6, 0xd1, 0xbc,
  0xf7, 0x05, 0x0c, 0xbe, 0xef, 0x46, 0x65, 0xbe, 0xdb, 0x1e, 0xe8, 0x3d,
  0x5a, 0x0e, 0x05, 0x3e, 0xb4, 0xad, 0x37, 0x3f, 0x0d, 0xec, 0xa8, 0x3d,
  0xe5, 0xe7, 0xfe, 0xbc, 0x8c, 0xa8, 0xe4, 0xbd, 0xa3, 0xf5, 0x83, 0xbb,
  0x38, 0xb0, 0x39, 0x3e, 0xa9, 0x2d, 0x43, 0xbd, 0x49, 0xce, 0xd1, 0xbb,
  0x4c, 0x10, 0x00, 0x3d, 0x47, 0xbc, 0x12, 0xbe, 0xf8, 0xe7, 0xb6, 0xbc,
  0xd3, 0x5b, 0x68, 0x3d, 0x0a, 0xa6, 0xa0, 0xbd, 0x48, 0x1b, 0xd6, 0xbd,
  0x37, 0x71, 0x85, 0x3e, 0x02, 0xa0, 0x90, 0xbd, 0x81, 0x72, 0xe6, 0x3e,
  0x7b, 0xde, 0x21, 0xbe, 0x4e, 0x6b, 0x02, 0x3e, 0xd7, 0xf2, 0x72, 0xbd,
  0x27, 0xb0, 0x97, 0x3d, 0xdb, 0x9c, 0xfe, 0x3d, 0x72, 0xe1, 0x23, 0xbe,
  0x8b, 0x2e, 0x26, 0x3c, 0x35, 0xb1, 0xb7, 0xbd, 0xa8, 0xad, 0xb7, 0xbd,
  0x7e, 0x2d, 0x52, 0xbb, 0x70, 0xcf, 0x53, 0x3c, 0x51, 0xa5, 0xa7, 0xbd,
  0x4e, 0xbb, 0x88, 0xbd, 0xf1, 0xff, 0x09, 0xbe, 0xc9, 0xa9, 0x59, 0xbd,
  0xeb, 0x33, 0x70, 0xbd, 0xd8, 0xf5, 0xc4, 0x3e, 0x56, 0x1e, 0xb2, 0x3d,
  0x24, 0x20, 0x48, 0xbb, 0x5a, 0x0e, 0x81, 0x3e, 0xa2, 0x74, 0x45, 0x3f,
  0xb4, 0x5a, 0x36, 0xbe, 0x47, 0x27, 0x12, 0x3c, 0x95, 0x22, 0x6c, 0x3e,
  0xa2, 0x52, 0x70, 0x3e, 0xde, 0x9a, 0x7d, 0x3e, 0x53, 0xab, 0x56, 0x3e,
  0x06, 0x9e, 0x0c, 0x3c, 0x0a, 0x0b, 0x9a, 0xbc, 0x1b, 0xc7, 0xdc, 0x3d,
  0xf6, 0x9c, 0x0f, 0x3e, 0xa7, 0xe9, 0xbf, 0xbe, 0x6e, 0x40, 0x52, 0xbe,
  0xe5, 0xd5, 0xb4, 0xbe, 0x16, 0x70, 0x82, 0xbd, 0x06, 0x55, 0x01, 0xbf,
  0x29, 0x7f, 0x72, 0x3d, 0x9e, 0x9a, 0x14, 0xbe, 0x94, 0x21, 0x2d, 0xbe,
  0xa7, 0xa2, 0x61, 0xbe, 0xb0, 0x5a, 0xad, 0xbe, 0x2a, 0xf3, 0x99, 0xbe,
  0x0e, 0x35, 0x72, 0xbe, 0x5a, 0xc4, 0xcd, 0xbd, 0x91, 0x15, 0x73, 0xbe,
  0x67, 0xf1, 0xcd, 0x3d, 0xd1, 0x08, 0xea, 0xbe, 0x8a, 0xb6, 0xa5, 0xbc,
  0x6e, 0xa3, 0xb3, 0xbe, 0xc4, 0x07, 0x00, 0xbf, 0xc0, 0xeb, 0xc5, 0xbd,
  0x8c, 0xee, 0xff, 0xbe, 0xf6, 0xbf, 0x1f, 0xbd, 0x5f, 0xdb, 0x0f, 0xbe,
  0xe1, 0x8d, 0xbf, 0xbe, 0x4b, 0x91, 0x16, 0xbe, 0xd0, 0xc9, 0x62, 0xbe,
  0x5f, 0x68, 0xd1, 0xbe, 0xcd, 0xb4, 0x8c, 0xbe, 0x3a, 0xe3, 0xa3, 0xbd,
  0xc9, 0x39, 0x47, 0xbe, 0xcb, 0x51, 0x04, 0xbe, 0x87, 0x80, 0x50, 0xbf,
  0x2c, 0x63, 0xce, 0xbe, 0x44, 0xf2, 0x67, 0xbe, 0xe9, 0xb7, 0x02, 0xbf,
  0x83, 0xff, 0x33, 0xbe, 0x32, 0xfb, 0xfb, 0xbd, 0xd4, 0x1d, 0x42, 0x3d,
  0xef, 0xf6, 0xa8, 0xbe, 0x61, 0x03, 0xa6, 0x3e, 0xf7, 0x81, 0xb2, 0xbe,
  0xbf, 0xe0, 0x49, 0xbe, 0x44, 0x98, 0xa6, 0xbd, 0xaa, 0xa8, 0x37, 0xbf,
  0xde, 0x7f, 0x11, 0xbe, 0x5f, 0xfa, 0x3a, 0xbe, 0xe9, 0x51, 0xf7, 0xbe,
  0x1f, 0xf1, 0x2b, 0xbf, 0x7b, 0xf6, 0x2b, 0xbe, 0xa7, 0xc0, 0x7f, 0x3e,
  0xb4, 0x32, 0x37, 0x3e, 0x12, 0x21, 0xe4, 0xbd, 0xc9, 0x93, 0xea, 0x3e,
  0x64, 0xf7, 0xa3, 0x3c, 0xbb, 0x0b, 0xc1, 0x3c, 0xe8, 0x3a, 0x13, 0x3f,
  0xa6, 0x31, 0x03, 0xbe, 0x0e, 0x2b, 0x5b, 0xbc, 0xfb, 0xc9, 0x1c, 0x3e,
  0xb8, 0x40, 0xef, 0x3d, 0x80, 0xaf, 0x80, 0xbd, 0x9d, 0x98, 0x92, 0xbe,
  0x9d, 0x69, 0x6f, 0xbe, 0xa3, 0x8d, 0xd0, 0xbb, 0x7d, 0x9e, 0x8e, 0xbc,
  0x65, 0xe7, 0x9f, 0x3e, 0xb8, 0x8d, 0x42, 0x3d, 0xcc, 0xae, 0x2b, 0x3d,
  0xf3, 0x2f, 0x53, 0x3e, 0xe8, 0xe3, 0x4d, 0xbe, 0xd7, 0x79, 0xd9, 0x3d,
  0x29, 0x80, 0xa1, 0x3e, 0x1c, 0x84, 0xed, 0x3d, 0xcb, 0x5c, 0x59, 0x3d,
  0x02, 0xa6, 0x84, 0x3e, 0x4f, 0xa2, 0xe7, 0x3d, 0xff, 0x81, 0xa2, 0xbc,
  0x63, 0xdb, 0x67, 0xbe, 0x02, 0x43, 0x86, 0xbe, 0xd7, 0x5f, 0x4f, 0x3d,
  0x17, 0x7d, 0x6c, 0x3d, 0x3a, 0x5b, 0x5e, 0x3e, 0xaf, 0x3d, 0xfe, 0xba,
  0x65, 0x32, 0xed, 0x3b, 0x23, 0xe1, 0x4b, 0x3e, 0xfe, 0xcf, 0x93, 0x3e,
  0xbe, 0x12, 0xa0, 0xbd, 0xe1, 0xa8, 0xf9, 0x3e, 0xb4, 0xb0, 0x84, 0x3d,
  0x3a, 0x62, 0x3b, 0xbd, 0xd9, 0x93, 0x82, 0xbc, 0x42, 0x47, 0x11, 0x3c,
  0x36, 0x3e, 0xc8, 0x3d, 0x54, 0x5b, 0x0b, 0xbe, 0x8b, 0x2b, 0x4d, 0xbd,
  0xa2, 0x8b, 0x1a, 0x3e, 0xfe, 0xb4, 0x01, 0x3d, 0xfa, 0xf0, 0x0a, 0xbe,
  0x02, 0x36, 0xb5, 0xbe, 0x99, 0xa6, 0x92, 0xbd, 0xa3, 0x60, 0x93, 0xbd,
  0xda, 0xcb, 0xad, 0xbd, 0xd4, 0x25, 0x63, 0xbe, 0x87, 0x8d, 0xe3, 0x3d,
  0x8e, 0xd5, 0x8c, 0xbd, 0xb8, 0x00, 0x44, 0xbe, 0x20, 0x17, 0x77, 0xbd,
  0x18, 0x24, 0xa6, 0xbc, 0x0e, 0x57, 0x6f, 0xbe, 0xfd, 0xcb, 0x4b, 0xbd,
  0x4d, 0x95, 0x07, 0xbc, 0x6b, 0x77, 0xb1, 0xbe, 0xcc, 0x95, 0xf5, 0x3d,
  0x39, 0x42, 0xf4, 0x3d, 0x3d, 0x74, 0xcd, 0xbc, 0x6a, 0xd1, 0xb8, 0xbc,
  0x47, 0x32, 0x98, 0x3d, 0x6c, 0x7e, 0x95, 0x3c, 0x1a, 0x55, 0x20, 0x3d,
  0x87, 0x38, 0xd5, 0x3d, 0xdb, 0x8b, 0x74, 0xbd, 0x0e, 0x28, 0x05, 0x3e,
  0xb1, 0x01, 0x8f, 0xbd, 0xa7, 0xde, 0x94, 0xbd, 0xbe, 0xf0, 0x8d, 0xbe,
  0x5c, 0x3d, 0x0e, 0xbe, 0xa2, 0x10, 0x76, 0xbe, 0x39, 0xe7, 0x84, 0xbe,
  0xd1, 0x11, 0xbb, 0xbc, 0x74, 0x9c, 0x89, 0xbd, 0x7d, 0x12, 0x79, 0xbe,
  0x14, 0x1e, 0xde, 0xbd, 0x7b, 0x6d, 0xbf, 0x3c, 0xe4, 0xb0, 0x22, 0xbe,
  0x33, 0x31, 0xb5, 0x3d, 0xcb, 0x13, 0xd1, 0x3d, 0x94, 0x54, 0x07, 0xbe,
  0x35, 0x45, 0xf8, 0x3b, 0xac, 0x90, 0xc4, 0xbd, 0xd0, 0x4f, 0xce, 0xbc,
  0x08, 0xb6, 0xa1, 0xbe, 0xb9, 0x5c, 0x8d, 0xbe, 0x72, 0xc7, 0xae, 0x3d,
  0xa3, 0x52, 0x0b, 0xbe, 0x6f, 0x10, 0xf1, 0x3c, 0x89, 0x44, 0xe6, 0x3d,
  0xa8, 0x00, 0xd5, 0xbe, 0xbb, 0x5f, 0x24, 0xbe, 0xd8, 0x91, 0xa3, 0xbc,
  0x63, 0x2a, 0xae, 0xbd, 0x67, 0x15, 0x08, 0xbe, 0xe7, 0xfa, 0xf9, 0xbd,
  0xbb, 0x7f, 0x3b, 0x3b, 0xfa, 0x6c, 0x77, 0xbe, 0x24, 0xcd, 0xc7, 0x3d,
  0x2d, 0xb6, 0xa3, 0xbb, 0xd1, 0x42, 0xa4, 0xbe, 0x4e, 0x01, 0xe6, 0xbe,
  0xbe, 0xf4, 0x3e, 0xbe, 0x4f, 0x10, 0xe9, 0xbe, 0x3f, 0x39, 0x59, 0x3d,
  0x29, 0x71, 0x95, 0x3e, 0xeb, 0x63, 0x83, 0x3e, 0xb2, 0xd4, 0x09, 0xbe,
  0x60, 0xb8, 0xcb, 0x3e, 0x3c, 0x22, 0x20, 0x3c, 0xf0, 0x77, 0x86, 0xbe,
  0x2e, 0xf6, 0xd4, 0x3e, 0xad, 0x19, 0x6f, 0x3c, 0x93, 0x60, 0x1f, 0xbd,
  0x17, 0x61, 0x0f, 0x3e, 0xad, 0x76, 0x12, 0x3e, 0x68, 0x48, 0x22, 0xbe,
  0xa6, 0xa3, 0x9a, 0xbe, 0xbc, 0x09, 0x2a, 0xbe, 0x54, 0x43, 0xb2, 0x3d,
  0x98, 0xcb, 0x79, 0x3b, 0x1b, 0x53, 0x3e, 0x3e, 0xb4, 0xed, 0x00, 0x3e,
  0x35, 0xd7, 0xa0, 0x3d, 0x4b, 0xa6, 0x07, 0x3e, 0x03, 0xf9, 0xe5, 0x3c,
  0x2d, 0x12, 0x1f, 0xbd, 0x96, 0xfc, 0x9d, 0x3e, 0xee, 0x1f, 0x26, 0x3e,
  0xcd, 0x2e, 0x8a, 0xbc, 0x99, 0x71, 0x76, 0x3e, 0x60, 0xf3, 0x0c, 0x3e,
  0xc3, 0x82, 0xe9, 0xbc, 0xec, 0x8f, 0xea, 0xbe, 0xa9, 0xa3, 0xa9, 0xbe,
  0x59, 0x4a, 0x97, 0x3d, 0xd9, 0x89, 0xa9, 0xbd, 0x40, 0x88, 0x86, 0x3d,
  0x12, 0xa8, 0x2e, 0x3e, 0x40, 0xe4, 0x0c, 0x3e, 0xdb, 0xcf, 0x52, 0x3e,
  0x43, 0xfd, 0x62, 0x3e, 0xf6, 0x77, 0x96, 0xbc, 0x19, 0xf0, 0xcd, 0x3e,
  0xca, 0x21, 0x03, 0x3c, 0x7e, 0x15, 0x6a, 0x3d, 0x34, 0x87, 0xa3, 0x3c,
  0xdd, 0x80, 0xea, 0xbc, 0xe3, 0x54, 0x7b, 0x3c, 0x1e, 0xed, 0xdd, 0xbd,
  0x8b, 0x14, 0xb9, 0xbc, 0xdd, 0x0d, 0x07, 0x3e, 0x4a, 0xfe, 0xff, 0xff,
  0x10, 0x00, 0x00, 0x00, 0x05, 0x00, 0x00, 0x00, 0x14, 0x00, 0x00, 0x00,
  0x2c, 0x00, 0x00, 0x00, 0x02, 0x00, 0x00, 0x00, 0x10, 0x00, 0x00, 0x00,
  0x70, 0x00, 0x00, 0x00, 0x17, 0x00, 0x00, 0x00, 0x73, 0x65, 0x71, 0x75,
  0x65, 0x6e, 0x74, 0x69, 0x61, 0x6c, 0x2f, 0x64, 0x65, 0x6e, 0x73, 0x65,
  0x2f, 0x4d, 0x61, 0x74, 0x4d, 0x75, 0x6c, 0x00, 0x38, 0xfe, 0xff, 0xff,
  0x2e, 0xff, 0xff, 0xff, 0x04, 0x00, 0x00, 0x00, 0x08, 0x00, 0x00, 0x00,
  0xff, 0xff, 0xff, 0xff, 0x70, 0x00, 0x00, 0x00, 0x00, 0x00, 0x0e, 0x00,
  0x18, 0x00, 0x08, 0x00, 0x07, 0x00, 0x0c, 0x00, 0x10, 0x00, 0x14, 0x00,
  0x0e, 0x00, 0x00, 0x00, 0x00, 0x00, 0x00, 0x02, 0x10, 0x00, 0x00, 0x00,
  0x04, 0x00, 0x00, 0x00, 0x10, 0x00, 0x00, 0x00, 0x2c, 0x00, 0x00, 0x00,
  0x01, 0x00, 0x00, 0x00, 0x02, 0x00, 0x00, 0x00, 0x18, 0x00, 0x00, 0x00,
  0x73, 0x65, 0x71, 0x75, 0x65, 0x6e, 0x74, 0x69, 0x61, 0x6c, 0x2f, 0x66,
  0x6c, 0x61, 0x74, 0x74, 0x65, 0x6e, 0x2f, 0x43, 0x6f, 0x6e, 0x73, 0x74,
  0x00, 0x00, 0x00, 0x00, 0xa0, 0xfe, 0xff, 0xff, 0x96, 0xff, 0xff, 0xff,
  0x04, 0x00, 0x00, 0x00, 0x0c, 0x00, 0x00, 0x00, 0xfb, 0x9d, 0x06, 0xc0,
  0x49, 0x47, 0xe4, 0xbf, 0x15, 0x2c, 0x31, 0x40, 0x0a, 0xff, 0xff, 0xff,
  0x10, 0x00, 0x00, 0x00, 0x03, 0x00, 0x00, 0x00, 0x10, 0x00, 0x00, 0x00,
  0x3c, 0x00, 0x00, 0x00, 0x01, 0x00, 0x00, 0x00, 0x03, 0x00, 0x00, 0x00,
  0x29, 0x00, 0x00, 0x00, 0x73, 0x65, 0x71, 0x75, 0x65, 0x6e, 0x74, 0x69,
  0x61, 0x6c, 0x2f, 0x64, 0x65, 0x6e, 0x73, 0x65, 0x5f, 0x31, 0x2f, 0x42,
  0x69, 0x61, 0x73, 0x41, 0x64, 0x64, 0x2f, 0x52, 0x65, 0x61, 0x64, 0x56,
  0x61, 0x72, 0x69, 0x61, 0x62, 0x6c, 0x65, 0x4f, 0x70, 0x00, 0x00, 0x00,
  0x60, 0xff, 0xff, 0xff, 0x00, 0x00, 0x06, 0x00, 0x08, 0x00, 0x04, 0x00,
  0x06, 0x00, 0x00, 0x00, 0x04, 0x00, 0x00, 0x00, 0x40, 0x00, 0x00, 0x00,
  0xd7, 0x41, 0x6d, 0x40, 0x20, 0xa5, 0xcb, 0xbf, 0xbf, 0xc4, 0xcf, 0xbd,
  0xb5, 0xb4, 0x04, 0xbe, 0x2c, 0xf5, 0x75, 0x3e, 0x8b, 0x39, 0x5f, 0x3e,
  0xd5, 0xdf, 0x08, 0xbf, 0xc8, 0xdb, 0x44, 0xbe, 0x5d, 0x32, 0x56, 0x40,
  0xe2, 0x08, 0xe2, 0xbf, 0x5c, 0xd0, 0x10, 0x3c, 0x58, 0xa6, 0x01, 0xbe,
  0xcd, 0x11, 0x83, 0xbd, 0xfb, 0xe8, 0x4c, 0xbe, 0xc6, 0x1f, 0xd7, 0xbf,
  0x60, 0xc5, 0x25, 0xbf, 0xae, 0xff, 0xff, 0xff, 0x10, 0x00, 0x00, 0x00,
  0x02, 0x00, 0x00, 0x00, 0x10, 0x00, 0x00, 0x00, 0x3c, 0x00, 0x00, 0x00,
  0x01, 0x00, 0x00, 0x00, 0x10, 0x00, 0x00, 0x00, 0x27, 0x00, 0x00, 0x00,
  0x73, 0x65, 0x71, 0x75, 0x65, 0x6e, 0x74, 0x69, 0x61, 0x6c, 0x2f, 0x64,
  0x65, 0x6e, 0x73, 0x65, 0x2f, 0x42, 0x69, 0x61, 0x73, 0x41, 0x64, 0x64,
  0x2f, 0x52, 0x65, 0x61, 0x64, 0x56, 0x61, 0x72, 0x69, 0x61, 0x62, 0x6c,
  0x65, 0x4f, 0x70, 0x00, 0x04, 0x00, 0x06, 0x00, 0x04, 0x00, 0x00, 0x00,
  0x00, 0x00, 0x0e, 0x00, 0x14, 0x00, 0x04, 0x00, 0x00, 0x00, 0x08, 0x00,
  0x0c, 0x00, 0x10, 0x00, 0x0e, 0x00, 0x00, 0x00, 0x10, 0x00, 0x00, 0x00,
  0x01, 0x00, 0x00, 0x00, 0x1c, 0x00, 0x00, 0x00, 0x2c, 0x00, 0x00, 0x00,
  0x04, 0x00, 0x00, 0x00, 0x01, 0x00, 0x00, 0x00, 0x40, 0x00, 0x00, 0x00,
  0x03, 0x00, 0x00, 0x00, 0x01, 0x00, 0x00, 0x00, 0x0c, 0x00, 0x00, 0x00,
  0x63, 0x6f, 0x6e, 0x76, 0x32, 0x64, 0x5f, 0x69, 0x6e, 0x70, 0x75, 0x74,
  0x00, 0x00, 0x00, 0x00, 0xfc, 0xff, 0xff, 0xff, 0x04, 0x00, 0x04, 0x00,
  0x04, 0x00, 0x00, 0x00


};

unsigned int model_tflite_len = 12316;// Fill the int in `src/model.cc` here