#include "magic_wand_model_data.h"

// We need to keep the data array aligned on some architectures.
#ifdef __has_attribute
#define HAVE_ATTRIBUTE(x) __has_attribute(x)
#else
#define HAVE_ATTRIBUTE(x) 0
#endif
#if HAVE_ATTRIBUTE(aligned) || (defined(__GNUC__) && !defined(__clang__))
#define DATA_ALIGN_ATTRIBUTE __attribute__((aligned(4)))
#else
#define DATA_ALIGN_ATTRIBUTE
#endif

const unsigned char g_magic_wand_model_data[] DATA_ALIGN_ATTRIBUTE = {
  0x08, 0x00, 0x00, 0x00, 0x54, 0x46, 0x4c, 0x33, 0x62, 0xff, 0xff, 0xff,
  0x03, 0x00, 0x00, 0x00, 0x10, 0x00, 0x00, 0x00, 0x24, 0x00, 0x00, 0x00,
  0x78, 0x00, 0x00, 0x00, 0x24, 0x00, 0x00, 0x00, 0x05, 0x00, 0x00, 0x00,
  0x78, 0x05, 0x00, 0x00, 0xb0, 0x04, 0x00, 0x00, 0xe0, 0x02, 0x00, 0x00,
  0x60, 0x02, 0x00, 0x00, 0x54, 0x01, 0x00, 0x00, 0x01, 0x00, 0x00, 0x00,
  0x78, 0x00, 0x00, 0x00, 0x13, 0x00, 0x00, 0x00, 0x90, 0x2f, 0x00, 0x00,
  0x8c, 0x2f, 0x00, 0x00, 0x98, 0x2e, 0x00, 0x00, 0x28, 0x2e, 0x00, 0x00,
  0xbc, 0x2d, 0x00, 0x00, 0x6c, 0x11, 0x00, 0x00, 0x98, 0x10, 0x00, 0x00,
  0xbc, 0x0e, 0x00, 0x00, 0x60, 0x06, 0x00, 0x00, 0xfc, 0x05, 0x00, 0x00,
  0x78, 0x05, 0x00, 0x00, 0x64, 0x2f, 0x00, 0x00, 0x60, 0x2f, 0x00, 0x00,
  0x5c, 0x2f, 0x00, 0x00, 0x58, 0x2f, 0x00, 0x00, 0x54, 0x2f, 0x00, 0x00,
  0x50, 0x2f, 0x00, 0x00, 0x4c, 0x2f, 0x00, 0x00, 0x48, 0x2f, 0x00, 0x00,
  0x0f, 0x00, 0x00, 0x00, 0x4d, 0x4c, 0x49, 0x52, 0x20, 0x43, 0x6f, 0x6e,
  0x76, 0x65, 0x72, 0x74, 0x65, 0x64, 0x2e, 0x00, 0x00, 0x00, 0x0e, 0x00,
  0x18, 0x00, 0x04, 0x00, 0x08, 0x00, 0x0c, 0x00, 0x10, 0x00, 0x14, 0x00,
  0x0e, 0x00, 0x00, 0x00, 0x14, 0x00, 0x00, 0x00, 0x5c, 0x00, 0x00, 0x00,
  0x60, 0x00, 0x00, 0x00, 0x64, 0x00, 0x00, 0x00, 0x84, 0x00, 0x00, 0x00,
  0x12, 0x00, 0x00, 0x00, 0xc0, 0x2e, 0x00, 0x00, 0x5c, 0x2e, 0x00, 0x00,
  0xb4, 0x2d, 0x00, 0x00, 0x58, 0x2d, 0x00, 0x00, 0xf0, 0x2c, 0x00, 0x00,
  0x9c, 0x10, 0x00, 0x00, 0xc0, 0x0f, 0x00, 0x00, 0xe4, 0x0d, 0x00, 0x00,
  0xa0, 0x05, 0x00, 0x00, 0x3c, 0x05, 0x00, 0x00, 0xb0, 0x04, 0x00, 0x00,
  0xe8, 0x03, 0x00, 0x00, 0x38, 0x03, 0x00, 0x00, 0xa4, 0x02, 0x00, 0x00,
  0x10, 0x02, 0x00, 0x00, 0x90, 0x01, 0x00, 0x00, 0xfc, 0x00, 0x00, 0x00,
  0x80, 0x00, 0x00, 0x00, 0x01, 0x00, 0x00, 0x00, 0x00, 0x00, 0x00, 0x00,
  0x01, 0x00, 0x00, 0x00, 0x11, 0x00, 0x00, 0x00, 0x08, 0x00, 0x00, 0x00,
  0x1c, 0x04, 0x00, 0x00, 0x58, 0x03, 0x00, 0x00, 0xc8, 0x02, 0x00, 0x00,
  0x24, 0x02, 0x00, 0x00, 0xac, 0x01, 0x00, 0x00, 0x10, 0x01, 0x00, 0x00,
  0x94, 0x00, 0x00, 0x00, 0x10, 0x00, 0x00, 0x00, 0x04, 0x00, 0x00, 0x00,
  0x6d, 0x61, 0x69, 0x6e, 0x00, 0x00, 0x00, 0x00, 0x8e, 0xff, 0xff, 0xff,
  0x00, 0x00, 0x00, 0x09, 0x04, 0x00, 0x00, 0x00, 0x1c, 0x00, 0x00, 0x00,
  0x10, 0x00, 0x00, 0x00, 0x04, 0x00, 0x00, 0x00, 0x92, 0xd2, 0xff, 0xff,
  0x00, 0x00, 0x80, 0x3f, 0x01, 0x00, 0x00, 0x00, 0x11, 0x00, 0x00, 0x00,
  0x01, 0x00, 0x00, 0x00, 0x10, 0x00, 0x00, 0x00, 0xf6, 0xfb, 0xff, 0xff,
  0x00, 0x00, 0x00, 0x19, 0x01, 0x00, 0x00, 0x00, 0x12, 0xd2, 0xff, 0xff,
  0x10, 0x00, 0x00, 0x00, 0x12, 0x00, 0x00, 0x00, 0x14, 0x00, 0x00, 0x00,
  0x20, 0x00, 0x00, 0x00, 0x02, 0x00, 0x00, 0x00, 0x01, 0x00, 0x00, 0x00,
  0x02, 0x00, 0x00, 0x00, 0x08, 0x00, 0x00, 0x00, 0x49, 0x64, 0x65, 0x6e,
  0x74, 0x69, 0x74, 0x79, 0x00, 0x00, 0x00, 0x00, 0x4c, 0xd2, 0xff, 0xff,
  0x00, 0x00, 0x0e, 0x00, 0x18, 0x00, 0x08, 0x00, 0x0c, 0x00, 0x10, 0x00,
  0x07, 0x00, 0x14, 0x00, 0x0e, 0x00, 0x00, 0x00, 0x00, 0x00, 0x00, 0x08,
  0x03, 0x00, 0x00, 0x00, 0x18, 0x00, 0x00, 0x00, 0x0c, 0x00, 0x00, 0x00,
  0x04, 0x00, 0x00, 0x00, 0x20, 0xd2, 0xff, 0xff, 0x01, 0x00, 0x00, 0x00,
  0x10, 0x00, 0x00, 0x00, 0x03, 0x00, 0x00, 0x00, 0x0f, 0x00, 0x00, 0x00,
  0x05, 0x00, 0x00, 0x00, 0x02, 0x00, 0x00, 0x00, 0x8a, 0xd2, 0xff, 0xff,
  0x10, 0x00, 0x00, 0x00, 0x11, 0x00, 0x00, 0x00, 0x14, 0x00, 0x00, 0x00,
  0x30, 0x00, 0x00, 0x00, 0x02, 0x00, 0x00, 0x00, 0x01, 0x00, 0x00, 0x00,
  0x02, 0x00, 0x00, 0x00, 0x1a, 0x00, 0x00, 0x00, 0x73, 0x65, 0x71, 0x75,
  0x65, 0x6e, 0x74, 0x69, 0x61, 0x6c, 0x2f, 0x64, 0x65, 0x6e, 0x73, 0x65,
  0x5f, 0x31, 0x2f, 0x42, 0x69, 0x61, 0x73, 0x41, 0x64, 0x64, 0x00, 0x00,
  0x7c, 0xd2, 0xff, 0xff, 0xd6, 0xfd, 0xff, 0xff, 0x00, 0x00, 0x00, 0x08,
  0x03, 0x00, 0x00, 0x00, 0x24, 0x00, 0x00, 0x00, 0x18, 0x00, 0x00, 0x00,
  0x0c, 0x00, 0x00, 0x00, 0x00, 0x00, 0x06, 0x00, 0x08, 0x00, 0x07, 0x00,
  0x06, 0x00, 0x00, 0x00, 0x00, 0x00, 0x00, 0x01, 0x01, 0x00, 0x00, 0x00,
  0x0f, 0x00, 0x00, 0x00, 0x03, 0x00, 0x00, 0x00, 0x0e, 0x00, 0x00, 0x00,
  0x04, 0x00, 0x00, 0x00, 0x01, 0x00, 0x00, 0x00, 0xfe, 0xfc, 0xff, 0xff,
  0x00, 0x00, 0x00, 0x09, 0x01, 0x00, 0x00, 0x00, 0x1a, 0xd3, 0xff, 0xff,
  0x10, 0x00, 0x00, 0x00, 0x10, 0x00, 0x00, 0x00, 0x14, 0x00, 0x00, 0x00,
  0x2c, 0x00, 0x00, 0x00, 0x02, 0x00, 0x00, 0x00, 0x01, 0x00, 0x00, 0x00,
  0x10, 0x00, 0x00, 0x00, 0x15, 0x00, 0x00, 0x00, 0x73, 0x65, 0x71, 0x75,
  0x65, 0x6e, 0x74, 0x69, 0x61, 0x6c, 0x2f, 0x64, 0x65, 0x6e, 0x73, 0x65,
  0x2f, 0x52, 0x65, 0x6c, 0x75, 0x00, 0x00, 0x00, 0x60, 0xd3, 0xff, 0xff,
  0x00, 0x00, 0x0a, 0x00, 0x10, 0x00, 0x04, 0x00, 0x08, 0x00, 0x0c, 0x00,
  0x0a, 0x00, 0x00, 0x00, 0x02, 0x00, 0x00, 0x00, 0x10, 0x00, 0x00, 0x00,
  0x04, 0x00, 0x00, 0x00, 0x01, 0x00, 0x00, 0x00, 0x0e, 0x00, 0x00, 0x00,
  0x02, 0x00, 0x00, 0x00, 0x0d, 0x00, 0x00, 0x00, 0x03, 0x00, 0x00, 0x00,
  0x7a, 0xfd, 0xff, 0xff, 0x00, 0x00, 0x00, 0x16, 0x01, 0x00, 0x00, 0x00,
  0x96, 0xd3, 0xff, 0xff, 0x10, 0x00, 0x00, 0x00, 0x0f, 0x00, 0x00, 0x00,
  0x14, 0x00, 0x00, 0x00, 0x30, 0x00, 0x00, 0x00, 0x02, 0x00, 0x00, 0x00,
  0x01, 0x00, 0x00, 0x00, 0x70, 0x00, 0x00, 0x00, 0x1a, 0x00, 0x00, 0x00,
  0x73, 0x65, 0x71, 0x75, 0x65, 0x6e, 0x74, 0x69, 0x61, 0x6c, 0x2f, 0x66,
  0x6c, 0x61, 0x74, 0x74, 0x65, 0x6e, 0x2f, 0x52, 0x65, 0x73, 0x68, 0x61,
  0x70, 0x65, 0x00, 0x00, 0x88, 0xd3, 0xff, 0xff, 0xe2, 0xfe, 0xff, 0xff,
  0x00, 0x00, 0x00, 0x05, 0x01, 0x00, 0x00, 0x00, 0x38, 0x00, 0x00, 0x00,
  0x2c, 0x00, 0x00, 0x00, 0x14, 0x00, 0x00, 0x00, 0x00, 0x00, 0x0e, 0x00,
  0x14, 0x00, 0x00, 0x00, 0x10, 0x00, 0x0c, 0x00, 0x08, 0x00, 0x04, 0x00,
  0x0e, 0x00, 0x00, 0x00, 0x03, 0x00, 0x00, 0x00, 0x01, 0x00, 0x00, 0x00,
  0x03, 0x00, 0x00, 0x00, 0x01, 0x00, 0x00, 0x00, 0x01, 0x00, 0x00, 0x00,
  0x0d, 0x00, 0x00, 0x00, 0x01, 0x00, 0x00, 0x00, 0x0c, 0x00, 0x00, 0x00,
  0x26, 0xd4, 0xff, 0xff, 0x10, 0x00, 0x00, 0x00, 0x0e, 0x00, 0x00, 0x00,
  0x1c, 0x00, 0x00, 0x00, 0x40, 0x00, 0x00, 0x00, 0x04, 0x00, 0x00, 0x00,
  0x01, 0x00, 0x00, 0x00, 0x07, 0x00, 0x00, 0x00, 0x01, 0x00, 0x00, 0x00,
  0x10, 0x00, 0x00, 0x00, 0x22, 0x00, 0x00, 0x00, 0x73, 0x65, 0x71, 0x75,
  0x65, 0x6e, 0x74, 0x69, 0x61, 0x6c, 0x2f, 0x6d, 0x61, 0x78, 0x5f, 0x70,
  0x6f, 0x6f, 0x6c, 0x69, 0x6e, 0x67, 0x32, 0x64, 0x5f, 0x31, 0x2f, 0x4d,
  0x61, 0x78, 0x50, 0x6f, 0x6f, 0x6c, 0x00, 0x00, 0x28, 0xd4, 0xff, 0xff,
  0xc2, 0xfe, 0xff, 0xff, 0x00, 0x00, 0x00, 0x01, 0x24, 0x00, 0x00, 0x00,
  0x18, 0x00, 0x00, 0x00, 0x04, 0x00, 0x00, 0x00, 0xb4, 0xfe, 0xff, 0xff,
  0x01, 0x00, 0x00, 0x00, 0x01, 0x00, 0x00, 0x00, 0x00, 0x00, 0x00, 0x01,
  0x01, 0x00, 0x00, 0x00, 0x0c, 0x00, 0x00, 0x00, 0x03, 0x00, 0x00, 0x00,
  0x0b, 0x00, 0x00, 0x00, 0x07, 0x00, 0x00, 0x00, 0x09, 0x00, 0x00, 0x00,
  0xb6, 0xd4, 0xff, 0xff, 0x10, 0x00, 0x00, 0x00, 0x0d, 0x00, 0x00, 0x00,
  0x1c, 0x00, 0x00, 0x00, 0x2c, 0x00, 0x00, 0x00, 0x04, 0x00, 0x00, 0x00,
  0x01, 0x00, 0x00, 0x00, 0x15, 0x00, 0x00, 0x00, 0x01, 0x00, 0x00, 0x00,
  0x10, 0x00, 0x00, 0x00, 0x0c, 0x00, 0x00, 0x00, 0x74, 0x66, 0x6c, 0x2e,
  0x63, 0x6f, 0x6e, 0x76, 0x5f, 0x32, 0x64, 0x31, 0x00, 0x00, 0x00, 0x00,
  0xfc, 0xd4, 0xff, 0xff, 0x00, 0x00, 0x0e, 0x00, 0x1a, 0x00, 0x08, 0x00,
  0x0c, 0x00, 0x10, 0x00, 0x07, 0x00, 0x14, 0x00, 0x0e, 0x00, 0x00, 0x00,
  0x00, 0x00, 0x00, 0x05, 0x01, 0x00, 0x00, 0x00, 0x3c, 0x00, 0x00, 0x00,
  0x30, 0x00, 0x00, 0x00, 0x14, 0x00, 0x00, 0x00, 0x00, 0x00, 0x0e, 0x00,
  0x18, 0x00, 0x17, 0x00, 0x10, 0x00, 0x0c, 0x00, 0x08, 0x00, 0x04, 0x00,
  0x0e, 0x00, 0x00, 0x00, 0x03, 0x00, 0x00, 0x00, 0x03, 0x00, 0x00, 0x00,
  0x03, 0x00, 0x00, 0x00, 0x03, 0x00, 0x00, 0x00, 0x00, 0x00, 0x00, 0x01,
  0x01, 0x00, 0x00, 0x00, 0x0b, 0x00, 0x00, 0x00, 0x01, 0x00, 0x00, 0x00,
  0x0a, 0x00, 0x00, 0x00, 0x46, 0xff, 0xff, 0xff, 0x00, 0x00, 0x00, 0x11,
  0x01, 0x00, 0x00, 0x00, 0x62, 0xd5, 0xff, 0xff, 0x10, 0x00, 0x00, 0x00,
  0x0c, 0x00, 0x00, 0x00, 0x1c, 0x00, 0x00, 0x00, 0x40, 0x00, 0x00, 0x00,
  0x04, 0x00, 0x00, 0x00, 0x01, 0x00, 0x00, 0x00, 0x15, 0x00, 0x00, 0x00,
  0x01, 0x00, 0x00, 0x00, 0x08, 0x00, 0x00, 0x00, 0x20, 0x00, 0x00, 0x00,
  0x73, 0x65, 0x71, 0x75, 0x65, 0x6e, 0x74, 0x69, 0x61, 0x6c, 0x2f, 0x6d,
  0x61, 0x78, 0x5f, 0x70, 0x6f, 0x6f, 0x6c, 0x69, 0x6e, 0x67, 0x32, 0x64,
  0x2f, 0x4d, 0x61, 0x78, 0x50, 0x6f, 0x6f, 0x6c, 0x00, 0x00, 0x00, 0x00,
  0xbc, 0xd5, 0xff, 0xff, 0x00, 0x00, 0x0e, 0x00, 0x14, 0x00, 0x00, 0x00,
  0x08, 0x00, 0x0c, 0x00, 0x07, 0x00, 0x10, 0x00, 0x0e, 0x00, 0x00, 0x00,
  0x00, 0x00, 0x00, 0x01, 0x30, 0x00, 0x00, 0x00, 0x24, 0x00, 0x00, 0x00,
  0x10, 0x00, 0x00, 0x00, 0x0c, 0x00, 0x10, 0x00, 0x00, 0x00, 0x04, 0x00,
  0x08, 0x00, 0x0f, 0x00, 0x0c, 0x00, 0x00, 0x00, 0x01, 0x00, 0x00, 0x00,
  0x01, 0x00, 0x00, 0x00, 0x00, 0x00, 0x00, 0x01, 0x01, 0x00, 0x00, 0x00,
  0x0a, 0x00, 0x00, 0x00, 0x03, 0x00, 0x00, 0x00, 0x00, 0x00, 0x00, 0x00,
  0x06, 0x00, 0x00, 0x00, 0x08, 0x00, 0x00, 0x00, 0x00, 0x00, 0x0a, 0x00,
  0x0c, 0x00, 0x07, 0x00, 0x00, 0x00, 0x08, 0x00, 0x0a, 0x00, 0x00, 0x00,
  0x00, 0x00, 0x00, 0x03, 0x01, 0x00, 0x00, 0x00, 0x26, 0xd6, 0xff, 0xff,
  0x10, 0x00, 0x00, 0x00, 0x0b, 0x00, 0x00, 0x00, 0x1c, 0x00, 0x00, 0x00,
  0x28, 0x00, 0x00, 0x00, 0x04, 0x00, 0x00, 0x00, 0x01, 0x00, 0x00, 0x00,
  0x40, 0x00, 0x00, 0x00, 0x03, 0x00, 0x00, 0x00, 0x08, 0x00, 0x00, 0x00,
  0x0b, 0x00, 0x00, 0x00, 0x74, 0x66, 0x6c, 0x2e, 0x63, 0x6f, 0x6e, 0x76,
  0x5f, 0x32, 0x64, 0x00, 0x10, 0xd6, 0xff, 0xff, 0x06, 0xd7, 0xff, 0xff,
  0x04, 0x00, 0x00, 0x00, 0x40, 0x00, 0x00, 0x00, 0x25, 0x4f, 0x6f, 0xbf,
  0x10, 0xbc, 0x0b, 0x3d, 0xfb, 0xac, 0x81, 0xbf, 0x0c, 0x1a, 0x3d, 0x3f,
  0x6d, 0x7b, 0xfd, 0xbb, 0x3f, 0xbf, 0xec, 0x3f, 0x29, 0x66, 0x31, 0xbf,
  0x24, 0xe3, 0x2c, 0xbf, 0x4b, 0x03, 0x5e, 0x3d, 0x60, 0x21, 0x68, 0x3f,
  0xd6, 0xc4, 0xb5, 0xbe, 0x83, 0xff, 0x83, 0x3f, 0x80, 0xe6, 0x85, 0xbf,
  0x70, 0x72, 0x0a, 0xbe, 0xa6, 0x13, 0xb5, 0xbe, 0x03, 0xd5, 0x09, 0x3e,
  0xae, 0xd6, 0xff, 0xff, 0x10, 0x00, 0x00, 0x00, 0x0a, 0x00, 0x00, 0x00,
  0x10, 0x00, 0x00, 0x00, 0x20, 0x00, 0x00, 0x00, 0x01, 0x00, 0x00, 0x00,
  0x10, 0x00, 0x00, 0x00, 0x0d, 0x00, 0x00, 0x00, 0x73, 0x74, 0x64, 0x2e,
  0x63, 0x6f, 0x6e, 0x73, 0x74, 0x61, 0x6e, 0x74, 0x31, 0x00, 0x00, 0x00,
  0x90, 0xd6, 0xff, 0xff, 0x86, 0xd7, 0xff, 0xff, 0x04, 0x00, 0x00, 0x00,
  0x20, 0x00, 0x00, 0x00, 0x83, 0x8c, 0x35, 0xbd, 0xd7, 0x17, 0x1a, 0xc0,
  0x67, 0xf2, 0xcd, 0xbe, 0xe1, 0xa3, 0x02, 0xc0, 0x91, 0xa1, 0x87, 0xbf,
  0x71, 0xba, 0x42, 0xbf, 0x3c, 0xaf, 0xec, 0xbf, 0xe3, 0x22, 0xa7, 0xbf,
  0x0e, 0xd7, 0xff, 0xff, 0x10, 0x00, 0x00, 0x00, 0x09, 0x00, 0x00, 0x00,
  0x10, 0x00, 0x00, 0x00, 0x20, 0x00, 0x00, 0x00, 0x01, 0x00, 0x00, 0x00,
  0x08, 0x00, 0x00, 0x00, 0x0c, 0x00, 0x00, 0x00, 0x73, 0x74, 0x64, 0x2e,
  0x63, 0x6f, 0x6e, 0x73, 0x74, 0x61, 0x6e, 0x74, 0x00, 0x00, 0x00, 0x00,
  0xf0, 0xd6, 0xff, 0xff, 0xe6, 0xd7, 0xff, 0xff, 0x04, 0x00, 0x00, 0x00,
  0x00, 0x08, 0x00, 0x00, 0x9a, 0xa5, 0x4b, 0x3a, 0xeb, 0xf1, 0x3b, 0x3e,
  0x7a, 0x18, 0x8f, 0xbe, 0xaf, 0xf0, 0x8f, 0x3e, 0x6f, 0x3d, 0x3c, 0x3e,
  0x0d, 0xa3, 0x43, 0x3e, 0xae, 0xa0, 0x38, 0xbe, 0x92, 0xa4, 0xd1, 0x3e,
  0x28, 0x46, 0x71, 0x3e, 0xc8, 0x2f, 0x5d, 0x3e, 0x2c, 0x94, 0x79, 0xbe,
  0xb0, 0x36, 0x03, 0x3e, 0x89, 0x21, 0x26, 0xbe, 0x31, 0x11, 0x12, 0x3e,
  0x2d, 0x77, 0x69, 0xbe, 0x23, 0x45, 0x8c, 0x3e, 0xb2, 0xc8, 0xeb, 0x3e,
  0x09, 0x2d, 0x06, 0xbd, 0x32, 0xe5, 0x93, 0xbe, 0xaf, 0x05, 0xd5, 0x3d,
  0xa4, 0x84, 0x75, 0xbc, 0x8c, 0x13, 0x49, 0xbe, 0x9d, 0x0b, 0x7e, 0xbe,
  0x1c, 0x53, 0x5c, 0x3e, 0x65, 0xb1, 0x67, 0x3e, 0x52, 0xcd, 0x53, 0x3d,
  0x76, 0xac, 0x96, 0xbe, 0x0a, 0xed, 0x76, 0x3e, 0xce, 0x41, 0x13, 0xbe,
  0x52, 0x5b, 0x02, 0x3e, 0xcc, 0xd3, 0x8e, 0xbe, 0x82, 0x68, 0x22, 0xbc,
  0x38, 0xb0, 0x01, 0x3e, 0x48, 0x66, 0x32, 0xbe, 0x43, 0x62, 0x88, 0xbd,
  0xf7, 0x7b, 0xbc, 0xbd, 0xfa, 0x2f, 0x3b, 0xbe, 0x45, 0xc6, 0xde, 0x3d,
  0xea, 0xe6, 0xd2, 0x3d, 0x76, 0x27, 0x7e, 0x3e, 0x87, 0x2a, 0x0b, 0x3f,
  0x89, 0x88, 0x83, 0x3e, 0xce, 0xae, 0x54, 0x3e, 0x82, 0x0f, 0xe9, 0xbc,
  0x29, 0xf4, 0x3a, 0xbe, 0x2b, 0xcb, 0x01, 0x3e, 0x84, 0xca, 0xd0, 0xbd,
  0xed, 0x7b, 0x98, 0x3d, 0xa0, 0xdd, 0x81, 0x3d, 0xb7, 0x24, 0xd9, 0xbd,
  0xe9, 0xe2, 0x88, 0x3c, 0xe7, 0xdc, 0x66, 0x3d, 0x6e, 0x74, 0x02, 0x3e,
  0xcb, 0x0d, 0x23, 0x3e, 0x73, 0x29, 0xc2, 0xbd, 0x23, 0x8a, 0x1d, 0x3e,
  0x0d, 0x86, 0x92, 0x3e, 0x4e, 0xa0, 0x07, 0xbe, 0x79, 0x5d, 0xcf, 0xbd,
  0x77, 0xde, 0x26, 0x3d, 0xdd, 0x7e, 0x93, 0x3d, 0xe0, 0xa3, 0x25, 0xbe,
  0x4c, 0xab, 0xd8, 0xbd, 0xac, 0x61, 0xb8, 0x3d, 0x4e, 0x44, 0xa8, 0x3e,
  0x60, 0x1d, 0x04, 0xbe, 0x4e, 0x7f, 0x8f, 0xbe, 0x00, 0x47, 0xde, 0x3d,
  0xec, 0xc1, 0x75, 0xbe, 0x8f, 0xad, 0xa9, 0x3e, 0xbe, 0x5b, 0xe8, 0xbe,
  0xeb, 0xf4, 0xd6, 0x3e, 0xb9, 0x94, 0x09, 0x3f, 0x45, 0x21, 0x66, 0x3e,
  0xee, 0xd0, 0x83, 0xbe, 0x48, 0xb0, 0xa4, 0x3e, 0x73, 0x91, 0x23, 0xbe,
  0xe0, 0xaa, 0x04, 0x3e, 0xba, 0xbf, 0x81, 0xbd, 0x0e, 0x79, 0x1a, 0x3f,
  0x3f, 0x7c, 0xb6, 0xbc, 0xfb, 0xeb, 0xa4, 0x3b, 0x36, 0xec, 0x6c, 0xbe,
  0xf1, 0x4c, 0x44, 0x3d, 0x53, 0x19, 0x8b, 0xbd, 0xfa, 0xf7, 0xd3, 0x3e,
  0xeb, 0xba, 0x7b, 0xbe, 0x24, 0x6f, 0xe7, 0x3d, 0xff, 0xf7, 0xf9, 0x3e,
  0x04, 0x19, 0x0a, 0xbe, 0xf6, 0x3b, 0x10, 0xbe, 0xa1, 0x37, 0xad, 0x3d,
  0x26, 0x8f, 0xfe, 0x3d, 0x23, 0x29, 0xb7, 0x3d, 0x66, 0x00, 0x84, 0xbd,
  0xee, 0x88, 0xa0, 0x3e, 0x5c, 0x79, 0xa3, 0xbe, 0x70, 0xa6, 0x3c, 0x3e,
  0xcd, 0xfe, 0xbb, 0xbe, 0xb7, 0x62, 0xd3, 0xbd, 0xab, 0xae, 0xa7, 0xbd,
  0x46, 0xa4, 0x8d, 0xbe, 0xd7, 0x5a, 0x3c, 0xbe, 0xe9, 0x29, 0x94, 0xbe,
  0x64, 0x52, 0x17, 0xbf, 0x6c, 0x8f, 0xa3, 0xbd, 0x3f, 0xf2, 0x56, 0xbe,
  0x4c, 0x57, 0xae, 0xbe, 0x3f, 0xb7, 0x43, 0x3e, 0x4a, 0x2b, 0x13, 0xbf,
  0x88, 0xb2, 0x35, 0xbf, 0xa3, 0xf1, 0x47, 0xbf, 0xda, 0x35, 0x96, 0xbd,
  0xa0, 0xc2, 0xad, 0x3e, 0x38, 0x27, 0x0c, 0xbc, 0x7f, 0x26, 0xe5, 0x3e,
  0x38, 0x7a, 0x42, 0x3e, 0x66, 0x92, 0xb3, 0x3d, 0xba, 0x93, 0x3d, 0xbd,
  0x3d, 0xfa, 0x2e, 0xbe, 0xb1, 0x4c, 0xad, 0x3e, 0x79, 0xb9, 0x7f, 0x3e,
  0x12, 0x94, 0x9b, 0xbb, 0x79, 0x16, 0x59, 0x3e, 0x0c, 0xb9, 0x9e, 0x3d,
  0x32, 0x2a, 0x41, 0x3d, 0xdb, 0x76, 0xf3, 0x3d, 0x55, 0x2b, 0x6c, 0x3e,
  0x88, 0x92, 0x6e, 0xbe, 0x79, 0x8e, 0x05, 0xbe, 0x8d, 0x18, 0x0e, 0xbf,
  0x4c, 0xd4, 0x3a, 0xbe, 0x11, 0x75, 0x9b, 0xbe, 0x0f, 0xa8, 0x09, 0xbf,
  0x67, 0xef, 0x8b, 0xbe, 0x28, 0xf3, 0x92, 0xbe, 0x68, 0x2e, 0x38, 0x3d,
  0xf3, 0xee, 0x04, 0xbd, 0x20, 0xa3, 0xb0, 0x3e, 0xf5, 0x4e, 0x3c, 0x3e,
  0xdb, 0x9a, 0x45, 0xbe, 0x3a, 0x40, 0x95, 0x3d, 0xad, 0x24, 0xec, 0x3d,
  0xdd, 0x55, 0x23, 0x3d, 0xb0, 0x8a, 0x12, 0x3e, 0x31, 0x30, 0x4e, 0x3c,
  0x64, 0xbd, 0xb7, 0x3c, 0xc8, 0x89, 0x40, 0xbe, 0x40, 0x27, 0xc2, 0xbd,
  0xc6, 0xe4, 0x99, 0xbd, 0x23, 0xeb, 0x97, 0x3e, 0xb6, 0x65, 0x92, 0xbe,
  0x57, 0xaf, 0x8d, 0xbb, 0x9a, 0xeb, 0x6d, 0xbe, 0xe0, 0x54, 0x3b, 0x3c,
  0xb9, 0xb7, 0xe7, 0x3c, 0x99, 0x26, 0xab, 0x3d, 0xd5, 0xda, 0x0c, 0xbe,
  0x12, 0xb0, 0x92, 0xbc, 0x9c, 0x62, 0x5f, 0xbe, 0x8e, 0xf2, 0x8b, 0xbd,
  0xb1, 0x79, 0x58, 0x3e, 0xc0, 0x93, 0x0c, 0xbe, 0xbf, 0xd1, 0x2f, 0xbd,
  0xd1, 0xf0, 0xe8, 0x3d, 0x9e, 0x4c, 0x28, 0xbe, 0x27, 0x27, 0xb7, 0x3c,
  0x68, 0x99, 0xf8, 0x3d, 0xc0, 0x6c, 0x9c, 0x3e, 0xbd, 0x4a, 0xa8, 0xbd,
  0x3d, 0xed, 0x90, 0xbe, 0x4f, 0xd6, 0xc7, 0x3c, 0xd3, 0xe3, 0x01, 0xbf,
  0x14, 0x1b, 0x52, 0xbe, 0x55, 0x41, 0xae, 0xbc, 0x42, 0xc2, 0xca, 0xbe,
  0xec, 0x96, 0xb8, 0x3d, 0xf4, 0xcd, 0x03, 0xbe, 0x4b, 0x3d, 0x39, 0x3b,
  0x15, 0x9d, 0x93, 0xbe, 0x42, 0x16, 0xf6, 0x3c, 0xe8, 0x20, 0xd1, 0xbd,
  0x8d, 0xfc, 0x9c, 0xbd, 0x3f, 0xb8, 0x56, 0xbe, 0xf3, 0xce, 0x39, 0xbe,
  0x6b, 0x18, 0x14, 0xbe, 0x9d, 0xd1, 0x5a, 0xbe, 0x11, 0x7c, 0xbf, 0xbe,
  0x0a, 0x81, 0x43, 0xbe, 0xf9, 0xb1, 0x90, 0xbd, 0xec, 0xc8, 0x38, 0x3e,
  0x88, 0xc9, 0xad, 0xbc, 0xc9, 0x4e, 0x32, 0xbe, 0x25, 0x1b, 0xa8, 0xbe,
  0x93, 0x91, 0x81, 0xbd, 0x6f, 0x22, 0x1e, 0xbf, 0x0b, 0xce, 0xb1, 0xbe,
  0x82, 0xcc, 0xbe, 0xbd, 0xf5, 0xfc, 0xf6, 0xbe, 0x8a, 0xf9, 0x16, 0xbe,
  0x28, 0xdf, 0x7f, 0xbf, 0x15, 0xed, 0xe4, 0xbe, 0x1d, 0xcb, 0xf6, 0xbd,
  0x84, 0xae, 0x0d, 0xbf, 0x89, 0xc7, 0xa1, 0x3c, 0x28, 0xc0, 0x22, 0xbe,
  0x8d, 0x9f, 0x60, 0xbf, 0x70, 0xd6, 0xb0, 0xbe, 0xa3, 0x15, 0xa8, 0x3c,
  0x6d, 0x43, 0x7f, 0xbe, 0xa5, 0x03, 0x29, 0xbd, 0xd1, 0x4b, 0x92, 0x3e,
  0x3f, 0x79, 0x2a, 0x3d, 0x42, 0x98, 0x24, 0x3d, 0x3f, 0xc1, 0x98, 0xbe,
  0x95, 0xe6, 0xf6, 0xbd, 0x9d, 0x6b, 0x9c, 0x3d, 0xd2, 0xd9, 0x17, 0x3f,
  0x70, 0x4f, 0xa4, 0xbc, 0x7a, 0x01, 0x05, 0x3f, 0xf2, 0xf6, 0x16, 0x3e,
  0x37, 0x56, 0xf4, 0xbc, 0xbe, 0x24, 0x0b, 0x3f, 0xc7, 0x6d, 0x15, 0x3f,
  0x05, 0x0b, 0xad, 0x3d, 0xab, 0xa8, 0x68, 0x3c, 0xed, 0xcf, 0xcd, 0xbc,
  0x61, 0x20, 0xde, 0x3d, 0x0e, 0xe0, 0x9c, 0x3f, 0x95, 0xed, 0x47, 0xbd,
  0xd7, 0x29, 0xd2, 0xbd, 0xbb, 0xf0, 0x95, 0x3d, 0x76, 0x10, 0x83, 0xbe,
  0x7f, 0x4f, 0x9b, 0x3d, 0x0a, 0x63, 0x7c, 0xbd, 0xc4, 0x76, 0x05, 0x3f,
  0xa7, 0xca, 0xd2, 0xbd, 0xe3, 0xae, 0x3c, 0xbe, 0xd1, 0x14, 0x2d, 0xbe,
  0x29, 0x7d, 0x42, 0x3e, 0xf3, 0xee, 0x97, 0x3d, 0x7a, 0x36, 0xac, 0xbe,
  0x30, 0x77, 0x56, 0x3b, 0x8e, 0xee, 0x9d, 0xbd, 0x9f, 0x0c, 0xcf, 0xbe,
  0xa2, 0x45, 0x66, 0xbc, 0x75, 0x66, 0x6a, 0xbd, 0xb5, 0x07, 0x62, 0x3e,
  0x70, 0x2f, 0xbc, 0xbc, 0x29, 0xfc, 0x2a, 0xbc, 0xc9, 0x31, 0x42, 0xbc,
  0xca, 0x0f, 0xb0, 0xbe, 0xde, 0xe6, 0xb5, 0xbd, 0x4f, 0x30, 0xd6, 0x3d,
  0x41, 0xf1, 0x0d, 0x3e, 0x8d, 0x90, 0xa4, 0xbd, 0x85, 0xb4, 0xb6, 0xbe,
  0x9f, 0x68, 0x89, 0xbd, 0xa2, 0x11, 0x92, 0xbd, 0xd1, 0x83, 0x2a, 0xbe,
  0x32, 0xc5, 0x0f, 0x3f, 0xb4, 0x6a, 0x67, 0xbd, 0xf0, 0x2b, 0xc7, 0x3d,
  0x87, 0x40, 0x35, 0xbd, 0x11, 0x07, 0x18, 0xbf, 0xfc, 0x52, 0x12, 0xbe,
  0xe3, 0x36, 0x90, 0xbd, 0x31, 0x3f, 0xab, 0xbe, 0xbe, 0x35, 0x5b, 0x3e,
  0x37, 0x7b, 0xc6, 0xbe, 0x28, 0x00, 0xa8, 0xbe, 0x20, 0x6c, 0xe2, 0xbe,
  0x62, 0x2a, 0x13, 0xbe, 0xcf, 0x98, 0x24, 0x3f, 0x61, 0xcd, 0x93, 0x3d,
  0xe6, 0xcd, 0xd0, 0x3e, 0x51, 0x9b, 0xad, 0x3e, 0x02, 0x3f, 0x78, 0xbd,
  0x05, 0xef, 0xe2, 0x3e, 0xae, 0x84, 0x31, 0xbe, 0x21, 0x58, 0x43, 0x3e,
  0x6e, 0x2d, 0xa6, 0xbc, 0x8a, 0xab, 0x87, 0x3b, 0xe7, 0x52, 0x6b, 0x3e,
  0x43, 0x7d, 0x82, 0xbd, 0x5a, 0x45, 0x0c, 0x3e, 0x86, 0xd4, 0x33, 0x3e,
  0xf8, 0x70, 0x31, 0xbd, 0xb0, 0x8e, 0x29, 0x3e, 0xde, 0x9b, 0x05, 0x3d,
  0xf3, 0x44, 0x24, 0xbe, 0xd6, 0x91, 0x98, 0x3e, 0x6d, 0x99, 0xa1, 0x3d,
  0xb2, 0x10, 0xdd, 0xbe, 0xe8, 0xe1, 0xc6, 0x3e, 0x00, 0x86, 0x89, 0xbe,
  0x64, 0x70, 0xde, 0xbd, 0xb2, 0x5b, 0x78, 0x3e, 0x65, 0x3f, 0x07, 0xbe,
  0xf9, 0xb4, 0x15, 0x3e, 0xff, 0xea, 0x37, 0xbd, 0xff, 0x73, 0x97, 0xbe,
  0xd5, 0xe3, 0x55, 0x3e, 0x2b, 0x73, 0x1f, 0x3e, 0x70, 0x1b, 0xab, 0xbd,
  0x30, 0x23, 0x14, 0xbf, 0xfc, 0x10, 0x81, 0xbe, 0x36, 0x6f, 0x35, 0xbe,
  0x21, 0x3f, 0xd4, 0x3d, 0xe8, 0x62, 0xe8, 0xbe, 0x5e, 0x27, 0x3c, 0x39,
  0xe1, 0x12, 0x10, 0xbe, 0xc8, 0xf3, 0xc3, 0x3d, 0x13, 0x78, 0x8b, 0xbe,
  0xa5, 0x33, 0xcb, 0xbe, 0xd7, 0x6f, 0x8a, 0xbe, 0xa3, 0xb5, 0xdb, 0x3d,
  0x3f, 0x54, 0x16, 0xbf, 0x04, 0x9e, 0x56, 0xba, 0xe0, 0xdf, 0x41, 0xbd,
  0x0f, 0x4d, 0x19, 0xbc, 0x46, 0x06, 0x3a, 0xbe, 0x51, 0x34, 0x99, 0xbe,
  0x36, 0xc9, 0xae, 0xbd, 0x5a, 0x31, 0xc4, 0xbd, 0xc8, 0xe5, 0x76, 0xbe,
  0x86, 0x68, 0x55, 0x3d, 0xb8, 0xc4, 0x39, 0xbe, 0x46, 0x85, 0xdf, 0x3e,
  0x2b, 0xb1, 0x79, 0x3e, 0x5c, 0x94, 0x19, 0xbf, 0xe8, 0xf9, 0xd2, 0xbc,
  0x2c, 0x90, 0xc5, 0xbd, 0x5b, 0x2d, 0xc6, 0xbd, 0x31, 0x43, 0x86, 0x3e,
  0xa4, 0x83, 0xed, 0xbd, 0x11, 0xdc, 0x56, 0x3b, 0x11, 0xc6, 0x48, 0x3c,
  0x6a, 0x15, 0x11, 0xbd, 0x59, 0x69, 0x7e, 0xbe, 0x81, 0x50, 0x10, 0xbe,
  0xd3, 0x57, 0x7e, 0x3d, 0x90, 0x59, 0x02, 0xbe, 0xcb, 0xad, 0x61, 0x3e,
  0x74, 0x67, 0x06, 0x3e, 0xa8, 0x9e, 0x0e, 0x3e, 0xfa, 0x25, 0x3e, 0x3d,
  0x24, 0x53, 0x1f, 0xbd, 0xaf, 0x8a, 0x8a, 0x3d, 0xb4, 0x8e, 0x11, 0xbe,
  0x72, 0xb1, 0x46, 0x3d, 0x97, 0x70, 0xf0, 0x3d, 0x30, 0xc9, 0xfa, 0xbe,
  0x45, 0xc6, 0x90, 0xbf, 0x16, 0x0f, 0x98, 0xbe, 0x94, 0x57, 0x87, 0xbf,
  0xc5, 0xf7, 0x72, 0xbf, 0x40, 0xbe, 0x2c, 0xbf, 0x5a, 0xaf, 0x25, 0xbf,
  0xdd, 0x0c, 0x13, 0xbf, 0x8c, 0x7b, 0x05, 0x3e, 0x3a, 0xe3, 0xc7, 0x3d,
  0x99, 0x2a, 0xcb, 0x3b, 0x24, 0x25, 0x96, 0x3e, 0x71, 0xd1, 0x0c, 0x3d,
  0x19, 0x52, 0x52, 0x3e, 0xdc, 0x4f, 0xea, 0x3e, 0xe5, 0xc4, 0x98, 0x3e,
  0xe5, 0x12, 0x79, 0xbd, 0x6f, 0x90, 0xcf, 0xbc, 0xda, 0x9f, 0x81, 0xbd,
  0xf5, 0x93, 0xfd, 0xbd, 0x15, 0x8b, 0x8d, 0xbe, 0x44, 0x66, 0x8f, 0xbd,
  0xe7, 0x90, 0x9f, 0x3d, 0xc5, 0x16, 0x38, 0xbe, 0x5c, 0x31, 0xb3, 0xbd,
  0x7b, 0xae, 0x4b, 0x3d, 0x41, 0x73, 0x2b, 0x3d, 0x84, 0x8f, 0xf2, 0x3c,
  0x51, 0xe4, 0x9e, 0xbc, 0xaa, 0x3b, 0xe3, 0xbd, 0xe6, 0x58, 0x8a, 0x3d,
  0x1b, 0x6a, 0xa0, 0xbc, 0x24, 0x9d, 0xdd, 0x3e, 0x23, 0x34, 0xfe, 0x3e,
  0xfc, 0x6d, 0x69, 0x3d, 0x5f, 0x4b, 0xc3, 0x3e, 0x2f, 0xeb, 0xb2, 0x3c,
  0x5d, 0x79, 0x65, 0x3e, 0x42, 0x33, 0x5d, 0x3e, 0x4f, 0xa4, 0x2e, 0x3e,
  0x05, 0xc7, 0xbf, 0x3d, 0x0b, 0x9d, 0x4a, 0x3d, 0x88, 0x06, 0x44, 0xbd,
  0xe3, 0x78, 0xaf, 0xbd, 0x00, 0x85, 0xb0, 0x3d, 0x2c, 0xfa, 0x36, 0x3e,
  0xfa, 0x3d, 0x9e, 0x3e, 0xbc, 0x2a, 0x8e, 0x3d, 0x5e, 0x5e, 0x1e, 0x3d,
  0x5e, 0xf4, 0x68, 0xbe, 0x31, 0x3f, 0x2e, 0xbe, 0x4b, 0xd0, 0x52, 0xbe,
  0x56, 0x50, 0x40, 0xbe, 0x5f, 0xcb, 0x7b, 0xbd, 0xb0, 0xc1, 0x9f, 0xbd,
  0x73, 0xa7, 0x2f, 0xbd, 0x58, 0x5c, 0x49, 0xbe, 0x1a, 0x35, 0x1b, 0xbf,
  0x69, 0x1d, 0x93, 0xbe, 0x7a, 0x91, 0x33, 0xbc, 0x25, 0x50, 0xae, 0xbe,
  0xa6, 0x95, 0x6a, 0xbe, 0x3a, 0x3e, 0x29, 0xbe, 0xcd, 0xbf, 0xaa, 0xbd,
  0x89, 0x97, 0x45, 0xbe, 0x18, 0xb6, 0x3f, 0xbf, 0x78, 0x2f, 0xd4, 0xbd,
  0x86, 0x15, 0xd0, 0xbe, 0xca, 0x22, 0xc1, 0xbe, 0x85, 0x43, 0x07, 0xbe,
  0x78, 0x56, 0xf3, 0xbe, 0x9f, 0x65, 0xd6, 0xbd, 0x84, 0x90, 0x24, 0x3e,
  0xb7, 0xe0, 0x54, 0x3e, 0xb2, 0x1f, 0xb7, 0x3d, 0xfd, 0x52, 0x0f, 0x3e,
  0x97, 0x8c, 0x80, 0xbe, 0x09, 0x0f, 0xec, 0x3d, 0x8a, 0x60, 0x44, 0xbd,
  0x65, 0x72, 0xcd, 0x3e, 0x73, 0x83, 0x04, 0xbe, 0x0d, 0xab, 0x17, 0xbe,
  0xd9, 0x51, 0xbd, 0x3c, 0xaa, 0x8b, 0xbe, 0xbe, 0xf7, 0x16, 0xae, 0xbe,
  0x0d, 0xae, 0xa0, 0x3d, 0x21, 0x0c, 0x8d, 0x3d, 0xb3, 0xcd, 0xeb, 0xbd,
  0x44, 0x14, 0x8b, 0xbe, 0xf9, 0x2d, 0x02, 0x3f, 0xd9, 0x8d, 0xd3, 0x3c,
  0x77, 0x9a, 0xf3, 0x3e, 0xc4, 0xee, 0xcf, 0x3d, 0xd5, 0xca, 0x37, 0x3e,
  0x50, 0xd8, 0x56, 0x3d, 0x95, 0xfe, 0xc6, 0x3d, 0x1e, 0x5c, 0x4c, 0xbe,
  0x01, 0x46, 0x30, 0xbe, 0x32, 0x49, 0xa6, 0xbd, 0x3d, 0x9c, 0xa3, 0xbe,
  0xed, 0xc7, 0x95, 0xbe, 0x39, 0x86, 0x11, 0xbe, 0xd0, 0xfe, 0x7a, 0xbe,
  0xa2, 0x4d, 0x8d, 0xbd, 0x08, 0x36, 0x59, 0xbf, 0x29, 0xda, 0x5d, 0xbe,
  0xc5, 0x2c, 0xb5, 0xbc, 0x61, 0x59, 0xa4, 0xbe, 0xeb, 0xa6, 0x95, 0x3d,
  0xbc, 0x23, 0x5f, 0xbe, 0x55, 0xcb, 0x86, 0xbf, 0x7b, 0x6f, 0xf2, 0xbe,
  0x1d, 0x26, 0x3b, 0xbd, 0x67, 0x6f, 0x42, 0x3f, 0x40, 0x99, 0x83, 0xbd,
  0xb9, 0xd6, 0x04, 0x3f, 0x36, 0xf7, 0x29, 0x3e, 0xad, 0x17, 0x9a, 0xbe,
  0xeb, 0x94, 0x20, 0x3e, 0xcd, 0x5b, 0xff, 0xbd, 0xbc, 0x81, 0xb6, 0x3d,
  0x8d, 0xe5, 0x6d, 0xbe, 0x91, 0x6e, 0x84, 0xbd, 0x09, 0xbe, 0xde, 0x3d,
  0x03, 0x69, 0xac, 0xbe, 0x27, 0xbc, 0x41, 0x3e, 0x3b, 0x60, 0xdc, 0x3c,
  0x35, 0x17, 0xd7, 0x3e, 0x28, 0x0b, 0x95, 0x3e, 0x31, 0x8c, 0xbb, 0xbe,
  0x10, 0x57, 0x50, 0xbc, 0x33, 0xc7, 0x37, 0xbd, 0x7f, 0xdf, 0x0d, 0xbe,
  0xdc, 0x4b, 0x2b, 0xbe, 0xff, 0xa3, 0x9e, 0xbe, 0x66, 0x28, 0x03, 0x3e,
  0xb4, 0xbc, 0x1e, 0x3e, 0xa4, 0x74, 0xea, 0xbe, 0x3b, 0xda, 0xa4, 0x3d,
  0xb9, 0x7e, 0x84, 0xbe, 0xd9, 0x45, 0xb1, 0x3d, 0x6f, 0x7a, 0x39, 0xbe,
  0x8e, 0x6a, 0xd7, 0xbe, 0x05, 0x1a, 0x55, 0xbe, 0x66, 0xfc, 0x1d, 0x3f,
  0x14, 0xe2, 0xa3, 0xbe, 0x6d, 0x19, 0x1a, 0x3e, 0x73, 0xc3, 0xc6, 0xbd,
  0xcf, 0xd1, 0x0f, 0xbe, 0xe8, 0xa0, 0x72, 0x3d, 0xf7, 0x8f, 0xaf, 0xbe,
  0x18, 0x5a, 0x9b, 0x3e, 0x4c, 0x76, 0x95, 0x3e, 0x84, 0x87, 0x82, 0xbe,
  0x74, 0xd2, 0x0f, 0xbd, 0x6a, 0xf8, 0x96, 0xbd, 0x0d, 0xba, 0xb0, 0xbd,
  0x46, 0xba, 0xa2, 0xb8, 0x83, 0x53, 0x68, 0xbe, 0xb5, 0xfa, 0xd5, 0x3d,
  0x4e, 0xdf, 0xff, 0xff, 0x10, 0x00, 0x00, 0x00, 0x08, 0x00, 0x00, 0x00,
  0x1c, 0x00, 0x00, 0x00, 0x38, 0x00, 0x00, 0x00, 0x04, 0x00, 0x00, 0x00,
  0x10, 0x00, 0x00, 0x00, 0x04, 0x00, 0x00, 0x00, 0x01, 0x00, 0x00, 0x00,
  0x08, 0x00, 0x00, 0x00, 0x1a, 0x00, 0x00, 0x00, 0x73, 0x65, 0x71, 0x75,
  0x65, 0x6e, 0x74, 0x69, 0x61, 0x6c, 0x2f, 0x63, 0x6f, 0x6e, 0x76, 0x32,
  0x64, 0x5f, 0x31, 0x2f, 0x43, 0x6f, 0x6e, 0x76, 0x32, 0x44, 0x00, 0x00,
  0x48, 0xdf, 0xff, 0xff, 0x3e, 0xe0, 0xff, 0xff, 0x04, 0x00, 0x00, 0x00,
  0x80, 0x01, 0x00, 0x00, 0x32, 0x47, 0xaf, 0xbd, 0x5b, 0xd1, 0x53, 0xbd,
  0xf4, 0xfc, 0x4f, 0x3f, 0xbe, 0x59, 0xda, 0xbb, 0x7a, 0xda, 0x64, 0xbe,
  0x2d, 0x21, 0x51, 0xbf, 0x25, 0x3f, 0x1c, 0xbe, 0xbc, 0xdb, 0x78, 0x3e,
  0xa1, 0xb5, 0x53, 0xbe, 0x38, 0x03, 0x50, 0x3e, 0x67, 0x31, 0x86, 0xbd,
  0xd0, 0xb4, 0x16, 0xbe, 0xf6, 0xa5, 0xdf, 0x3d, 0xf2, 0xe6, 0x16, 0x3f,
  0x88, 0x68, 0x4d, 0xbe, 0x1f, 0xea, 0x3a, 0xbe, 0xa1, 0xef, 0xe9, 0xbd,
  0xf8, 0x6d, 0x10, 0x3e, 0x1c, 0x3a, 0xdc, 0xbd, 0x83, 0x94, 0x14, 0xbf,
  0xcc, 0xd8, 0x00, 0x3d, 0x10, 0x81, 0xc8, 0x3c, 0x29, 0x72, 0x82, 0xbd,
  0xb9, 0x59, 0x3e, 0xbd, 0xe7, 0xda, 0xc8, 0xbe, 0xf4, 0xd9, 0x0b, 0x3e,
  0xef, 0xda, 0x6d, 0x3e, 0x72, 0xa8, 0xa2, 0xbe, 0x5f, 0x8d, 0x11, 0xbc,
  0xc6, 0x6a, 0x3e, 0x3d, 0x35, 0xcd, 0xd6, 0xbd, 0x60, 0xaf, 0x00, 0xbc,
  0x14, 0x89, 0xed, 0xbd, 0x8d, 0xec, 0x5e, 0x3d, 0xdc, 0xd9, 0x56, 0xbd,
  0x8c, 0xe6, 0xd2, 0x3d, 0x64, 0x99, 0x2d, 0x3f, 0x93, 0x08, 0x1b, 0x3d,
  0x21, 0x5e, 0x11, 0x3e, 0xfe, 0x79, 0xa2, 0x3d, 0x2d, 0xea, 0xa7, 0xbd,
  0xe5, 0xc7, 0xb8, 0x3d, 0xf8, 0x3b, 0x5e, 0xbf, 0x90, 0x87, 0x06, 0x3c,
  0x55, 0x83, 0x85, 0xbe, 0xea, 0x96, 0xb0, 0xbd, 0x74, 0xfb, 0x37, 0x3c,
  0x75, 0x9e, 0x08, 0xbe, 0xe8, 0x05, 0x00, 0x3f, 0x9b, 0x7f, 0xe6, 0xbd,
  0x71, 0x4d, 0xe3, 0x3d, 0x2e, 0x32, 0x4d, 0x3f, 0xb8, 0x44, 0xe6, 0x3d,
  0x6d, 0x1b, 0x25, 0xbe, 0xae, 0xb5, 0x1d, 0x3d, 0x60, 0x6c, 0xec, 0xbc,
  0x89, 0x82, 0xbd, 0x3d, 0xba, 0x3d, 0x80, 0xbf, 0xd4, 0xfa, 0x08, 0xbe,
  0x91, 0x45, 0x88, 0xbd, 0x97, 0x83, 0x1f, 0x3f, 0xe4, 0x27, 0x9b, 0xbd,
  0x83, 0xbf, 0x65, 0xbe, 0x17, 0xbe, 0x3f, 0x3f, 0xf3, 0xef, 0xa0, 0xbe,
  0x2b, 0x63, 0xfc, 0x3c, 0xc4, 0xfd, 0x5d, 0x3e, 0xd0, 0x44, 0x2a, 0x3e,
  0xdf, 0xc7, 0x61, 0x3d, 0xbf, 0xfa, 0xa7, 0x3d, 0xe4, 0xdf, 0xfe, 0x3c,
  0x20, 0x5c, 0x48, 0xbf, 0x0c, 0x8a, 0xe3, 0xbd, 0xad, 0x01, 0xd4, 0xbd,
  0xf9, 0x7a, 0x08, 0x3e, 0x71, 0x55, 0x1b, 0xbc, 0xad, 0x01, 0xdc, 0xbe,
  0x56, 0x4c, 0x8e, 0xbd, 0x8f, 0xd6, 0x88, 0x3d, 0xcb, 0x69, 0xc6, 0xbe,
  0x88, 0xfb, 0x6f, 0xbd, 0x14, 0xf4, 0xc5, 0xbb, 0xe3, 0xe0, 0x91, 0x3e,
  0x90, 0xa6, 0xa6, 0xbd, 0xed, 0x93, 0x1c, 0xbf, 0xfb, 0xf7, 0x91, 0x3d,
  0x84, 0x01, 0xae, 0xbe, 0x27, 0x18, 0x3b, 0x3f, 0x53, 0x95, 0x78, 0xbe,
  0x69, 0x3d, 0xe3, 0xbe, 0xa8, 0xce, 0xd9, 0x3e, 0x94, 0x3b, 0x8c, 0xbd,
  0xcb, 0x6e, 0x0a, 0xbf, 0xd2, 0xc4, 0xb9, 0xba, 0xd3, 0xab, 0xd6, 0x3d,
  0x79, 0x0d, 0xf1, 0x3e, 0x26, 0xe1, 0xff, 0xff, 0x10, 0x00, 0x00, 0x00,
  0x07, 0x00, 0x00, 0x00, 0x1c, 0x00, 0x00, 0x00, 0x38, 0x00, 0x00, 0x00,
  0x04, 0x00, 0x00, 0x00, 0x08, 0x00, 0x00, 0x00, 0x04, 0x00, 0x00, 0x00,
  0x03, 0x00, 0x00, 0x00, 0x01, 0x00, 0x00, 0x00, 0x18, 0x00, 0x00, 0x00,
  0x73, 0x65, 0x71, 0x75, 0x65, 0x6e, 0x74, 0x69, 0x61, 0x6c, 0x2f, 0x63,
  0x6f, 0x6e, 0x76, 0x32, 0x64, 0x2f, 0x43, 0x6f, 0x6e, 0x76, 0x32, 0x44,
  0x00, 0x00, 0x00, 0x00, 0x20, 0xe1, 0xff, 0xff, 0x16, 0xe2, 0xff, 0xff,
  0x04, 0x00, 0x00, 0x00, 0x80, 0x00, 0x00, 0x00, 0x4f, 0xbc, 0xbf, 0x3e,
  0x82, 0x49, 0x89, 0xbd, 0x63, 0x66, 0x4a, 0x3e, 0x30, 0x19, 0xca, 0xbd,
  0x9c, 0xc8, 0xd2, 0x3d, 0xac, 0x43, 0x49, 0x3e, 0xd6, 0x7b, 0x83, 0x3e,
  0x57, 0x48, 0xb5, 0xbe, 0x8e, 0x47, 0xac, 0xbd, 0x2f, 0xd8, 0x24, 0xbe,
  0x24, 0x21, 0x7e, 0x3d, 0xe5, 0x5e, 0x35, 0x3e, 0x08, 0xa5, 0xab, 0xbe,
  0xb8, 0x30, 0xbf, 0xbe, 0x68, 0x9e, 0xc7, 0xbd, 0x97, 0xd2, 0x8a, 0x3c,
  0x05, 0x3e, 0x7d, 0x3e, 0x71, 0xad, 0xed, 0xbd, 0x36, 0x36, 0xd8, 0x3d,
  0xb8, 0xbe, 0x11, 0xbe, 0x59, 0xc6, 0x55, 0x3d, 0x4b, 0xf5, 0x32, 0x3e,
  0xe8, 0x77, 0x30, 0xbd, 0x70, 0x96, 0x73, 0xbe, 0x12, 0xfc, 0xf6, 0xbd,
  0x38, 0x55, 0x63, 0xbe, 0xfc, 0xd6, 0xc1, 0x3d, 0xeb, 0xd1, 0x64, 0x3e,
  0x4c, 0x0f, 0x89, 0xbe, 0xcc, 0x0a, 0xe6, 0xbe, 0xba, 0x47, 0x3d, 0xbd,
  0xb4, 0x35, 0x6e, 0x3d, 0xfe, 0xe1, 0xff, 0xff, 0x10, 0x00, 0x00, 0x00,
  0x06, 0x00, 0x00, 0x00, 0x14, 0x00, 0x00, 0x00, 0x30, 0x00, 0x00, 0x00,
  0x02, 0x00, 0x00, 0x00, 0x02, 0x00, 0x00, 0x00, 0x10, 0x00, 0x00, 0x00,
  0x19, 0x00, 0x00, 0x00, 0x73, 0x65, 0x71, 0x75, 0x65, 0x6e, 0x74, 0x69,
  0x61, 0x6c, 0x2f, 0x64, 0x65, 0x6e, 0x73, 0x65, 0x5f, 0x31, 0x2f, 0x4d,
  0x61, 0x74, 0x4d, 0x75, 0x6c, 0x00, 0x00, 0x00, 0xf0, 0xe1, 0xff, 0xff,
  0xe6, 0xe2, 0xff, 0xff, 0x04, 0x00, 0x00, 0x00, 0x00, 0x1c, 0x00, 0x00,
  0xdd, 0x28, 0x90, 0x3e, 0x5f, 0x9e, 0xae, 0xbe, 0xa3, 0xf8, 0xa2, 0x3d,
  0xac, 0x69, 0x6b, 0x3f, 0xa7, 0xd6, 0xb9, 0xbe, 0x7f, 0xb8, 0x15, 0x3f,
  0xc3, 0xe9, 0xf2, 0x3d, 0x4c, 0x5f, 0xf8, 0x3c, 0x7b, 0xce, 0x09, 0xbe,
  0x3d, 0xb3, 0x18, 0x3f, 0x3d, 0x80, 0x51, 0x3d, 0x7b, 0x6e, 0x36, 0xbe,
  0xe3, 0x99, 0x66, 0xbe, 0x27, 0xf9, 0x93, 0xbe, 0x1c, 0xa2, 0x2a, 0x3c,
  0x2f, 0x97, 0x5e, 0xbe, 0x4b, 0x15, 0x40, 0x3e, 0xc7, 0x96, 0xe9, 0xbd,
  0x37, 0x62, 0x56, 0xbd, 0x3e, 0x06, 0x16, 0x3f, 0xec, 0x9c, 0x8f, 0xbe,
  0x5c, 0xdc, 0xcc, 0x3f, 0x83, 0x4b, 0xf6, 0x3d, 0xda, 0xde, 0x27, 0x3e,
  0x4c, 0xea, 0x9c, 0xbe, 0xf5, 0x21, 0x53, 0x3e, 0x42, 0x75, 0xb6, 0x3e,
  0x2f, 0xab, 0x8d, 0x3f, 0xd5, 0x8c, 0xe8, 0x3c, 0x6b, 0x70, 0x7c, 0x3d,
  0xfb, 0x0a, 0x1f, 0x3e, 0xb8, 0x1e, 0x61, 0xbe, 0xbc, 0x61, 0x7d, 0x3d,
  0xa1, 0x94, 0xd8, 0xbd, 0xb4, 0x76, 0x4a, 0x3c, 0xa2, 0xbf, 0xea, 0x3e,
  0x98, 0x3c, 0x2b, 0xbe, 0xf3, 0x70, 0x87, 0x3f, 0xe9, 0xf1, 0xf6, 0xbd,
  0x6d, 0xc0, 0xba, 0xbe, 0x15, 0x03, 0x8d, 0xbd, 0x76, 0x45, 0xc0, 0x3e,
  0x1b, 0x66, 0x1b, 0x3d, 0x70, 0x19, 0xd8, 0x3e, 0xc6, 0x90, 0x47, 0xbe,
  0x10, 0x84, 0x2a, 0x3c, 0xb2, 0xe1, 0x38, 0x3e, 0xbb, 0x01, 0x0a, 0xbf,
  0xac, 0xb0, 0x45, 0xbd, 0x4c, 0x96, 0x80, 0xbe, 0x33, 0x5c, 0x81, 0xbe,
  0x84, 0x11, 0xaa, 0x3d, 0x0e, 0x6d, 0x2e, 0xbe, 0x04, 0x4b, 0x97, 0x3f,
  0xaa, 0xfb, 0xd5, 0x3d, 0x05, 0x79, 0xa7, 0xbe, 0xa1, 0x3e, 0x4f, 0xbe,
  0x53, 0x96, 0x77, 0x3e, 0x22, 0x4e, 0x21, 0x3d, 0x14, 0xf6, 0x68, 0x3e,
  0xf0, 0x96, 0xd8, 0xbb, 0x40, 0x9d, 0x6f, 0x3e, 0x25, 0x47, 0xbd, 0xbd,
  0x9e, 0x95, 0x9d, 0xbe, 0x32, 0x4e, 0x28, 0xbe, 0x66, 0x5a, 0x1e, 0xbe,
  0x96, 0xb9, 0x12, 0xbe, 0xb3, 0xeb, 0xc1, 0x3e, 0x63, 0xcc, 0xf9, 0xbc,
  0x58, 0x51, 0x28, 0x3f, 0x5e, 0x1b, 0x10, 0x3e, 0xc7, 0x69, 0x19, 0x3e,
  0x11, 0xa3, 0xec, 0x3d, 0xc2, 0x44, 0xe7, 0x3e, 0xec, 0xe0, 0x00, 0xbe,
  0xcc, 0x02, 0x13, 0x3f, 0x6a, 0xc0, 0x34, 0xbe, 0x48, 0xdf, 0xb8, 0x3d,
  0xb8, 0xe9, 0xda, 0x3e, 0xac, 0xf2, 0xa7, 0xbe, 0x36, 0xab, 0xdc, 0xbd,
  0x3c, 0x87, 0x7a, 0x3e, 0x2e, 0x45, 0x4a, 0xbd, 0xdd, 0xa6, 0x77, 0x3e,
  0x6d, 0x4d, 0x14, 0xbe, 0x62, 0x5f, 0x9a, 0x3f, 0xed, 0xcf, 0xbc, 0x3e,
  0x10, 0xf2, 0x04, 0x3e, 0xa4, 0xc9, 0x88, 0x3e, 0x92, 0xc1, 0x95, 0x3e,
  0x1a, 0x7c, 0xbe, 0x3c, 0x9e, 0xa6, 0x5f, 0x3e, 0x89, 0xca, 0xb6, 0x3e,
  0xa1, 0xf1, 0x80, 0x3e, 0x58, 0x49, 0xf3, 0x3d, 0xd5, 0xa6, 0x55, 0xbe,
  0x81, 0x9e, 0x37, 0xbe, 0x97, 0x0b, 0x0f, 0x3d, 0x45, 0x24, 0xeb, 0x3d,
  0x1b, 0xe6, 0xa9, 0x3e, 0xfc, 0xd3, 0x09, 0xbe, 0x82, 0x38, 0x13, 0x3f,
  0x92, 0x7b, 0x99, 0x3e, 0xe4, 0x79, 0x1e, 0x3e, 0x61, 0xfe, 0xc4, 0xbe,
  0x90, 0x14, 0x78, 0xbe, 0x46, 0x78, 0x2f, 0x3e, 0x58, 0x1f, 0x0f, 0x3e,
  0x8b, 0xe0, 0xca, 0xbc, 0xdf, 0xa3, 0x0d, 0xbe, 0xfc, 0x47, 0xe2, 0x3e,
  0x93, 0xf3, 0x38, 0x3e, 0x68, 0x1f, 0x3c, 0xbd, 0x78, 0x0e, 0x10, 0xbe,
  0xcb, 0x5e, 0xc0, 0xbe, 0xcc, 0xd8, 0xb5, 0x3e, 0x31, 0xa2, 0xdd, 0xbd,
  0xdb, 0x98, 0xc2, 0x3d, 0x3a, 0xda, 0xd5, 0x3d, 0x55, 0x02, 0xfe, 0x3e,
  0xc3, 0x54, 0xa2, 0x3e, 0x1c, 0x6e, 0x02, 0x3f, 0x36, 0x8e, 0x84, 0xbe,
  0x44, 0x72, 0xcc, 0xbe, 0x43, 0xc9, 0xad, 0xbc, 0x98, 0x71, 0x29, 0xbe,
  0x13, 0x12, 0xe8, 0x3e, 0x68, 0x62, 0xc7, 0xbd, 0x98, 0x11, 0x98, 0xbd,
  0xa3, 0x4c, 0xac, 0xbd, 0xb3, 0x87, 0x3b, 0xbe, 0xe4, 0x5f, 0x11, 0x3f,
  0xd4, 0xfc, 0x03, 0xbe, 0x81, 0x03, 0x1a, 0x3f, 0xaf, 0x58, 0xca, 0xbc,
  0xce, 0x2b, 0x0e, 0x3e, 0xb3, 0xf9, 0x51, 0xbe, 0x67, 0xb5, 0xb2, 0x3e,
  0xf1, 0xb5, 0xbf, 0x3e, 0x15, 0xe9, 0xc2, 0x3e, 0xd9, 0x53, 0xcb, 0x3e,
  0xb9, 0x79, 0x92, 0x3c, 0x2a, 0x0d, 0x28, 0x3e, 0x01, 0x8b, 0x8f, 0xbd,
  0x96, 0x7b, 0x35, 0xbd, 0x17, 0x07, 0x2f, 0xbc, 0xec, 0xb3, 0xfd, 0xbd,
  0x98, 0xc8, 0x3f, 0x3e, 0xb6, 0x41, 0x3d, 0xbd, 0xec, 0x6c, 0x27, 0x3e,
  0xd9, 0x48, 0x4a, 0xbe, 0xef, 0x92, 0xde, 0xbe, 0xce, 0x65, 0x90, 0xbe,
  0x70, 0xd7, 0x8c, 0x3e, 0x2c, 0x30, 0xfe, 0xbd, 0xa5, 0x55, 0xbc, 0x3e,
  0x6e, 0x9d, 0xfd, 0x3b, 0x15, 0x6f, 0xd2, 0x3d, 0x41, 0xd8, 0xb5, 0x3c,
  0xa6, 0x43, 0xf3, 0x3d, 0x8c, 0xe5, 0x34, 0xbe, 0x70, 0x61, 0x97, 0x3d,
  0x03, 0x5b, 0x95, 0xbd, 0x30, 0xf7, 0x84, 0x3e, 0x1f, 0x4a, 0xbd, 0x3c,
  0x5f, 0x10, 0x33, 0x3f, 0xb0, 0x53, 0xa0, 0xbd, 0xef, 0x28, 0x16, 0xbf,
  0x1e, 0xf3, 0x12, 0xbe, 0x8d, 0x18, 0x3c, 0x3e, 0xab, 0xc7, 0xb0, 0x3d,
  0x52, 0xe8, 0x64, 0x3e, 0x7c, 0x29, 0x94, 0xbd, 0x9f, 0x0e, 0xbe, 0xbd,
  0xdd, 0x5e, 0x8c, 0x3d, 0x99, 0x42, 0x21, 0x3e, 0xef, 0x1d, 0x9e, 0xbd,
  0xb0, 0x4e, 0x41, 0x3b, 0xc7, 0x64, 0x00, 0x3d, 0x5a, 0xeb, 0xae, 0x3e,
  0x4d, 0x1a, 0x1f, 0xbd, 0x97, 0x48, 0xda, 0x3e, 0x0f, 0xdc, 0xac, 0xbe,
  0x13, 0xde, 0xc8, 0xbe, 0x4f, 0xdd, 0x64, 0xbe, 0x7a, 0xc1, 0xa0, 0x3e,
  0x23, 0xeb, 0x31, 0xbe, 0x5d, 0x04, 0xc9, 0x3e, 0x2c, 0x42, 0x17, 0xbe,
  0x5f, 0x96, 0x92, 0xbd, 0x39, 0x98, 0x41, 0x3c, 0xb2, 0x99, 0xed, 0x3d,
  0xb1, 0x38, 0x03, 0xbc, 0x1d, 0xa5, 0x01, 0xbe, 0x33, 0x46, 0x77, 0x3d,
  0x07, 0xf9, 0xd8, 0x3e, 0x03, 0x67, 0x60, 0x3d, 0x14, 0xd8, 0x1e, 0x3e,
  0xbd, 0x13, 0xb6, 0xbe, 0x16, 0x96, 0xaa, 0xbe, 0xd0, 0x50, 0xc4, 0xbe,
  0x95, 0x4b, 0xe5, 0x3e, 0x20, 0x34, 0x37, 0x3d, 0xfc, 0x6e, 0x2c, 0x3e,
  0xdb, 0x3f, 0x75, 0xbe, 0xae, 0x4f, 0x40, 0x3d, 0xf6, 0xae, 0x93, 0xbe,
  0x86, 0xb7, 0x3a, 0x3d, 0x21, 0xa3, 0x69, 0xbc, 0xae, 0xc8, 0xaf, 0xbd,
  0x8d, 0x9d, 0x92, 0xbd, 0x80, 0x9e, 0x8e, 0x3d, 0x4f, 0xbb, 0xf7, 0xbd,
  0xc4, 0x44, 0x85, 0xbe, 0x4a, 0xa3, 0x43, 0x3f, 0x09, 0xea, 0x02, 0xbe,
  0x22, 0xfd, 0xdf, 0x3d, 0xa2, 0xcb, 0x10, 0xbf, 0x64, 0x05, 0x51, 0x3c,
  0xa4, 0x22, 0xe3, 0x3d, 0x82, 0xa1, 0x6a, 0xbe, 0x3e, 0x73, 0x0a, 0x3f,
  0x1e, 0xa6, 0x07, 0x3f, 0x1f, 0x04, 0xa1, 0xbe, 0x92, 0xc5, 0x3b, 0xbd,
  0x15, 0x5b, 0x6a, 0xbe, 0x3d, 0x35, 0x19, 0xbe, 0x00, 0x29, 0x4b, 0x3e,
  0x7b, 0xa9, 0x58, 0xbe, 0x83, 0x4d, 0xe1, 0x3e, 0xd9, 0x85, 0x06, 0x3f,
  0x2d, 0xbc, 0xd6, 0xbe, 0x6b, 0xd7, 0x89, 0x3e, 0x1b, 0x8c, 0xf8, 0x3e,
  0x46, 0xb7, 0xb7, 0xbe, 0x0f, 0x5e, 0x90, 0xbe, 0x05, 0x5a, 0x6f, 0xbe,
  0xcf, 0xac, 0x25, 0x3d, 0x4a, 0x5c, 0xb2, 0x3d, 0xcc, 0xda, 0x31, 0xbe,
  0xca, 0xdf, 0x3e, 0xbc, 0xe0, 0x93, 0xe2, 0x3c, 0xd3, 0xb4, 0x82, 0x3d,
  0x1f, 0xfa, 0x97, 0x3e, 0xfd, 0x3c, 0xe4, 0xbd, 0xaa, 0xc5, 0x78, 0x3f,
  0x84, 0x9b, 0x4c, 0xbd, 0xdc, 0x95, 0x45, 0x3e, 0xb2, 0xa3, 0x42, 0x3d,
  0x68, 0x1d, 0xe1, 0xbc, 0xc4, 0x31, 0x47, 0xbd, 0xd0, 0x3b, 0x1c, 0x3f,
  0x29, 0x53, 0xbb, 0x3e, 0x03, 0x49, 0xa4, 0xbc, 0x81, 0x93, 0x10, 0x3f,
  0x38, 0x58, 0xd3, 0xbe, 0xee, 0xc9, 0x3d, 0xbd, 0x1c, 0xfa, 0xb2, 0x3e,
  0x24, 0x8c, 0xe4, 0xbd, 0xa5, 0x92, 0x80, 0x3e, 0x02, 0x4b, 0x72, 0xbd,
  0x24, 0x1d, 0x57, 0x3f, 0x2b, 0x1a, 0xa5, 0x3e, 0xdd, 0x79, 0x9c, 0x3d,
  0x7c, 0xd8, 0x57, 0x3d, 0xcf, 0x34, 0x35, 0x3e, 0xfd, 0x03, 0xbf, 0xba,
  0x0b, 0xd9, 0x20, 0x3f, 0x82, 0x63, 0x00, 0x3e, 0x1f, 0xca, 0x1f, 0x3d,
  0x44, 0xd6, 0x84, 0x3d, 0xe1, 0x8f, 0x13, 0xbe, 0xff, 0x0d, 0x3c, 0xbe,
  0xb9, 0x22, 0x83, 0x3d, 0x5c, 0x16, 0x01, 0xbd, 0x83, 0xc7, 0xe2, 0x3e,
  0x8e, 0xcf, 0x98, 0xbd, 0x29, 0xe0, 0x7f, 0x3f, 0xf8, 0xf3, 0x7c, 0x3e,
  0x48, 0x1f, 0x59, 0xbe, 0xb0, 0x18, 0xa6, 0xbc, 0x56, 0x6f, 0xce, 0x3a,
  0x7e, 0x62, 0x6d, 0xbe, 0xe1, 0x02, 0x53, 0x3f, 0xe2, 0xf9, 0x15, 0x3e,
  0x69, 0xa2, 0x27, 0xbd, 0xc1, 0x3d, 0xf7, 0x3d, 0xcc, 0xe0, 0xaa, 0x3d,
  0x45, 0x81, 0xc7, 0xbd, 0x64, 0x9a, 0x0c, 0x3e, 0xc5, 0xa8, 0xee, 0xbb,
  0xad, 0xe2, 0x36, 0x3f, 0x09, 0xba, 0x80, 0xbe, 0x28, 0x1d, 0x2c, 0x3f,
  0x79, 0x14, 0x8f, 0x3d, 0xc3, 0xe8, 0xb3, 0xbb, 0x01, 0x61, 0x1f, 0xbe,
  0xe1, 0xb1, 0x41, 0x3e, 0x3e, 0x5d, 0xfb, 0xbc, 0x11, 0x77, 0x94, 0x3f,
  0xd9, 0xb1, 0x01, 0x3e, 0x8b, 0x6b, 0x92, 0xbe, 0x89, 0xc7, 0x5d, 0x3e,
  0x19, 0xe4, 0x09, 0x3e, 0x9b, 0x31, 0x22, 0x3e, 0x6f, 0x72, 0x3a, 0xbe,
  0xf0, 0xe9, 0x8b, 0xbe, 0x65, 0x31, 0x07, 0x3f, 0xa5, 0x44, 0x97, 0xbd,
  0x4d, 0xbe, 0x67, 0x3f, 0x0e, 0x2a, 0x7d, 0xbe, 0x53, 0xb2, 0xc4, 0x3d,
  0xf0, 0xee, 0xa1, 0xbe, 0xd4, 0x76, 0x9d, 0x3e, 0xcf, 0x30, 0x0a, 0xbe,
  0x61, 0x6b, 0x37, 0x3f, 0xef, 0x52, 0xc3, 0x3d, 0x50, 0x85, 0xc5, 0xbd,
  0x94, 0x85, 0x80, 0x3e, 0x92, 0x48, 0xa0, 0x3d, 0x70, 0x3f, 0xd9, 0x3d,
  0x7a, 0x23, 0xef, 0xbd, 0xb9, 0x91, 0x7b, 0xbe, 0x2d, 0xa8, 0x16, 0x3d,
  0xcc, 0xa1, 0xe7, 0xbc, 0x57, 0x65, 0x12, 0x3f, 0x45, 0xf1, 0xa5, 0xbd,
  0xad, 0x81, 0x7e, 0xbe, 0x72, 0x33, 0x66, 0xbe, 0xda, 0xba, 0x96, 0xbd,
  0xe8, 0xab, 0x88, 0x3e, 0x03, 0x8a, 0xaa, 0x3e, 0xbb, 0x5a, 0x79, 0xbe,
  0x98, 0x61, 0x8b, 0xbe, 0xf5, 0xcc, 0x61, 0x3c, 0x3b, 0x22, 0xab, 0x3c,
  0xe8, 0x64, 0x31, 0xbe, 0xb3, 0x56, 0x9a, 0xbe, 0x9b, 0x4c, 0xb5, 0xbc,
  0x52, 0x08, 0x82, 0x3e, 0x56, 0xfe, 0x18, 0xbe, 0x26, 0x26, 0xe2, 0x3e,
  0x2e, 0xcb, 0x85, 0x3e, 0x6c, 0x79, 0xa3, 0x3e, 0x2e, 0x85, 0xd7, 0x3d,
  0x09, 0xb1, 0x7c, 0x3e, 0x24, 0xff, 0x0b, 0xbf, 0x9e, 0x45, 0x78, 0xbe,
  0xab, 0x07, 0x89, 0xbc, 0x76, 0x25, 0x98, 0xbd, 0xb0, 0xda, 0xea, 0x3e,
  0x63, 0xcd, 0x91, 0xbd, 0x3c, 0x18, 0x8a, 0xbd, 0x9a, 0x66, 0x90, 0x3c,
  0xd6, 0x68, 0xb0, 0xbe, 0xb7, 0x4b, 0xa5, 0x3d, 0xe4, 0x9a, 0x7e, 0xbd,
  0x8e, 0xbf, 0x7a, 0x3f, 0xac, 0x14, 0x95, 0x3e, 0xbd, 0x82, 0x09, 0x3f,
  0xb0, 0xc4, 0x3c, 0x3e, 0xe9, 0xdd, 0x09, 0x3f, 0xea, 0xea, 0xae, 0x3d,
  0xcf, 0x55, 0x14, 0x3f, 0xed, 0xe4, 0x08, 0x3e, 0x2e, 0x40, 0xb1, 0x3d,
  0xfd, 0x1a, 0x44, 0x3e, 0xe4, 0x4f, 0x09, 0x3e, 0x82, 0x28, 0xc6, 0xbd,
  0x0e, 0x0f, 0x78, 0x3e, 0xbd, 0x9c, 0x9a, 0xbe, 0x16, 0x4d, 0xb4, 0x3e,
  0xef, 0x54, 0xa4, 0x3d, 0xcd, 0xa7, 0x67, 0x3f, 0x9e, 0x60, 0x81, 0xbd,
  0xac, 0xe5, 0xab, 0x3d, 0x84, 0x6d, 0x59, 0xbd, 0x6f, 0x71, 0x9c, 0x3e,
  0x9a, 0xc4, 0xbe, 0xbe, 0xcd, 0xa8, 0x13, 0x3e, 0x10, 0x34, 0x85, 0x3e,
  0xce, 0xf2, 0x7b, 0xbe, 0xa9, 0x4b, 0x33, 0x3e, 0x29, 0xa6, 0xf3, 0xbd,
  0x1e, 0x74, 0xb5, 0xbe, 0x14, 0x57, 0x6d, 0x3d, 0x71, 0xf1, 0xdc, 0x3b,
  0x6c, 0xcd, 0x11, 0x3f, 0x4c, 0xcd, 0x1b, 0xbe, 0x6e, 0xb4, 0x6a, 0x3f,
  0x2a, 0x1e, 0x20, 0xbe, 0x9b, 0x64, 0xac, 0x3d, 0xe6, 0xb5, 0x85, 0xbe,
  0xd7, 0xa3, 0x9e, 0x3e, 0xb3, 0x4f, 0x50, 0xbe, 0x71, 0x0e, 0x0f, 0x3e,
  0xb4, 0xc0, 0x96, 0x3e, 0xb7, 0xa4, 0xf3, 0xbd, 0xec, 0x86, 0x03, 0x3e,
  0x53, 0x0b, 0x32, 0xbc, 0x65, 0x34, 0x81, 0x3d, 0x88, 0xe7, 0x19, 0x3d,
  0xaa, 0xac, 0x4d, 0xbd, 0x18, 0x0f, 0xab, 0x3e, 0xea, 0x2b, 0x0a, 0xbe,
  0x03, 0x4d, 0x25, 0x3f, 0x2f, 0x14, 0x8b, 0xbc, 0x1f, 0x5b, 0x37, 0xbe,
  0xd7, 0xe5, 0x30, 0xbe, 0x57, 0xfc, 0xb1, 0x3e, 0xda, 0x07, 0x51, 0x3e,
  0x72, 0xf3, 0x36, 0x3f, 0x44, 0x02, 0x5c, 0x3c, 0xc9, 0x21, 0x7e, 0xbe,
  0xe1, 0x20, 0x62, 0x3e, 0x7f, 0x0b, 0x23, 0x3e, 0xe3, 0x73, 0x40, 0xbd,
  0x13, 0xf4, 0x77, 0xbe, 0x4c, 0x5a, 0x18, 0x3a, 0xa9, 0xfb, 0x83, 0x3d,
  0x44, 0xeb, 0x84, 0xbd, 0xcd, 0x59, 0x54, 0x3f, 0xd0, 0xf2, 0x9a, 0x3d,
  0xf2, 0x97, 0x01, 0x3c, 0xd0, 0xfc, 0x57, 0xbe, 0x94, 0xcc, 0x2d, 0x3e,
  0x5e, 0x68, 0xa3, 0xbc, 0x06, 0xa6, 0xb9, 0x3e, 0x75, 0x24, 0x07, 0xbf,
  0x93, 0x4b, 0x62, 0xbe, 0x34, 0x33, 0x9f, 0x3d, 0xd8, 0x71, 0x2a, 0x3e,
  0xfa, 0xa1, 0x1c, 0x3e, 0x6b, 0x71, 0x10, 0xbe, 0x25, 0xfc, 0xb6, 0x3d,
  0x3b, 0x99, 0xc7, 0x3e, 0x69, 0x44, 0xbb, 0xbd, 0x39, 0xe4, 0xfb, 0xbd,
  0x3b, 0x40, 0x49, 0x3f, 0x06, 0xa5, 0x00, 0x3e, 0x38, 0x65, 0x84, 0x3d,
  0xf1, 0xe6, 0x6c, 0xbe, 0x9f, 0x59, 0x5d, 0x3e, 0x95, 0x61, 0x60, 0x3e,
  0x35, 0x08, 0x20, 0xbe, 0x2b, 0xee, 0xb5, 0x3e, 0xb1, 0x1d, 0x1e, 0x3f,
  0xbd, 0xb4, 0xab, 0xbe, 0x8f, 0x51, 0x9f, 0x3d, 0x25, 0xd9, 0xde, 0xbd,
  0x75, 0x80, 0xac, 0xbe, 0x56, 0xc4, 0x0e, 0x3f, 0x6c, 0xab, 0x69, 0xbe,
  0x67, 0xd9, 0x12, 0x3f, 0x71, 0xe8, 0xba, 0x3e, 0x48, 0xd8, 0xe6, 0x3e,
  0x7c, 0x15, 0x49, 0x3e, 0x00, 0x86, 0x89, 0x3e, 0x4c, 0x30, 0x04, 0xbe,
  0xe2, 0x88, 0xfb, 0xbe, 0xb6, 0x73, 0x1e, 0x3e, 0x1e, 0x61, 0x1b, 0xbf,
  0x7e, 0x92, 0x55, 0x3f, 0x97, 0x2f, 0x01, 0xbf, 0xfd, 0x97, 0x4c, 0x3d,
  0x53, 0x76, 0x69, 0xbe, 0xe7, 0x55, 0xc4, 0xbe, 0xcd, 0x51, 0x68, 0x3f,
  0x2f, 0x24, 0x09, 0x3d, 0xf4, 0x9c, 0x19, 0x3f, 0x77, 0xfe, 0x33, 0x3d,
  0xee, 0x02, 0xf9, 0xbd, 0x1f, 0x18, 0x3e, 0xbe, 0x2f, 0xe5, 0x03, 0x3f,
  0x40, 0x16, 0x90, 0x3e, 0x9a, 0x15, 0xaa, 0x3e, 0xa9, 0x32, 0x51, 0xbe,
  0x56, 0xe2, 0x72, 0xbd, 0x75, 0x53, 0xa9, 0x3c, 0xae, 0x45, 0x88, 0x3c,
  0xe6, 0x72, 0x5f, 0x3c, 0x62, 0x0b, 0x00, 0x3d, 0xbc, 0xae, 0x53, 0xbe,
  0x48, 0xb9, 0xcc, 0x3e, 0xb6, 0xf8, 0xbe, 0x3d, 0x83, 0xba, 0x06, 0x3f,
  0xd3, 0xfc, 0xcb, 0xbe, 0xe1, 0x03, 0x5d, 0xbe, 0xda, 0xa4, 0x8c, 0xbd,
  0x5f, 0x92, 0xc9, 0x3e, 0xd6, 0x83, 0x3c, 0x3e, 0x35, 0xae, 0x0b, 0x3f,
  0xfb, 0x43, 0xa5, 0xbe, 0xa3, 0xa4, 0x22, 0xbe, 0xe8, 0x25, 0x14, 0xbd,
  0x02, 0xb7, 0x2c, 0xbe, 0x99, 0x66, 0x74, 0x3d, 0x50, 0x80, 0x21, 0x3d,
  0x49, 0xbc, 0xc6, 0xbe, 0xcd, 0x02, 0x02, 0x3e, 0x88, 0x67, 0x98, 0x3d,
  0x32, 0x15, 0x8e, 0x3e, 0xd2, 0x93, 0xc4, 0xbd, 0x30, 0xf9, 0x96, 0xbe,
  0x00, 0xa4, 0x5e, 0xbe, 0x73, 0xdf, 0x98, 0x3e, 0xe2, 0x62, 0x07, 0x3e,
  0x95, 0x6b, 0x2a, 0x3f, 0x80, 0x8b, 0xa8, 0xbc, 0x94, 0x38, 0xe0, 0xbd,
  0x11, 0xf6, 0x54, 0xbd, 0xe3, 0x31, 0xf5, 0x3c, 0x9b, 0x1d, 0x1b, 0xbb,
  0xbb, 0x73, 0xea, 0xbd, 0xe8, 0x3e, 0x1e, 0xbe, 0x53, 0xb8, 0xb1, 0x3e,
  0x24, 0xb8, 0x28, 0x3e, 0x57, 0x94, 0x08, 0x3f, 0xd1, 0x42, 0xf1, 0x3c,
  0x15, 0xad, 0x62, 0xbe, 0xb9, 0x5c, 0x08, 0xbc, 0xc4, 0x38, 0x97, 0x3e,
  0xde, 0xbb, 0x6c, 0xbc, 0xe7, 0xc8, 0xcc, 0x3e, 0xe8, 0x96, 0x1c, 0xbe,
  0xa2, 0x76, 0x32, 0x3d, 0x80, 0x59, 0xcb, 0x3d, 0xbd, 0x65, 0x8d, 0xbd,
  0x16, 0xf8, 0x2e, 0xbd, 0xaf, 0x0c, 0xfb, 0x3d, 0x9b, 0x21, 0xf9, 0xbd,
  0xd2, 0x23, 0x92, 0x3e, 0xbe, 0x77, 0x06, 0x3e, 0x0d, 0xcd, 0xa8, 0x3c,
  0x5c, 0xa1, 0xfe, 0xbd, 0x48, 0xeb, 0x1c, 0x3d, 0xca, 0xe3, 0xca, 0x3d,
  0xdf, 0x75, 0xe1, 0x3e, 0x9a, 0xd7, 0x6b, 0x3c, 0x2b, 0xe7, 0xe5, 0x3e,
  0x92, 0x26, 0x05, 0x3e, 0x0c, 0x95, 0x73, 0x3e, 0x4c, 0x34, 0x25, 0x3e,
  0x3f, 0xf6, 0x80, 0xbd, 0x9f, 0xa4, 0x99, 0x3d, 0xae, 0x69, 0xc1, 0x3d,
  0x72, 0x09, 0x01, 0x3d, 0x8e, 0x5a, 0xee, 0x3d, 0xa7, 0x2a, 0x3c, 0xbe,
  0x32, 0x5f, 0xc5, 0xbd, 0x13, 0x77, 0x39, 0x3f, 0xfd, 0xc5, 0xa6, 0x3e,
  0xa7, 0x42, 0x65, 0xbd, 0x6a, 0x9a, 0xdc, 0x3d, 0xae, 0xb8, 0xff, 0x3d,
  0x17, 0xe6, 0x11, 0x3e, 0xfd, 0x65, 0xc0, 0xbc, 0x5f, 0x05, 0xfd, 0x3e,
  0x32, 0x2e, 0x17, 0x3f, 0x9f, 0x7e, 0x3e, 0xbe, 0xab, 0x51, 0x58, 0xbd,
  0x20, 0x55, 0xb5, 0xbe, 0xd9, 0xa3, 0x93, 0xbe, 0xdb, 0xba, 0x45, 0x3f,
  0x49, 0x84, 0xd2, 0xbe, 0xd0, 0x87, 0x89, 0x3f, 0x4f, 0x55, 0x5c, 0x3e,
  0x42, 0x6f, 0xc4, 0xbc, 0x66, 0x76, 0x2a, 0xbe, 0x06, 0x36, 0x11, 0x3f,
  0xd3, 0x8b, 0xbf, 0x3d, 0x76, 0xe6, 0x17, 0xbd, 0x1d, 0xc2, 0x5f, 0xbc,
  0x40, 0x68, 0xab, 0xbc, 0x3d, 0x04, 0xc5, 0x3d, 0x80, 0x51, 0x86, 0xbd,
  0xeb, 0x0d, 0x19, 0x3e, 0x15, 0x3d, 0x1d, 0x3b, 0xae, 0x95, 0xc2, 0xbd,
  0x9e, 0x4a, 0x06, 0x3f, 0x99, 0xe8, 0x5c, 0xbe, 0x86, 0xa0, 0xe1, 0x3f,
  0xa1, 0x83, 0xc5, 0xbd, 0xc3, 0x61, 0x94, 0x3e, 0x26, 0x44, 0x4e, 0xbd,
  0xb6, 0xef, 0xe1, 0x3e, 0xcd, 0x8f, 0x97, 0x3e, 0x18, 0x93, 0x8e, 0x3f,
  0xbd, 0x34, 0x80, 0xbe, 0xd5, 0xd6, 0xba, 0xbe, 0xef, 0x2b, 0x0d, 0x3d,
  0x27, 0x24, 0x17, 0xbe, 0xf5, 0x92, 0xff, 0xbd, 0xdd, 0x92, 0xf7, 0xbc,
  0x62, 0xce, 0x07, 0xbd, 0x89, 0x10, 0x46, 0x3f, 0x93, 0x62, 0x8e, 0xbe,
  0xf9, 0x78, 0xe1, 0x3f, 0x6c, 0xcc, 0xdc, 0xbd, 0x2a, 0x49, 0x8f, 0xbe,
  0x5a, 0x9e, 0x3d, 0xbe, 0xe4, 0xe5, 0xb3, 0x3e, 0x11, 0x97, 0xfe, 0xbb,
  0xe5, 0x49, 0x83, 0x3f, 0x9e, 0x14, 0xd2, 0x3d, 0x45, 0xac, 0x5d, 0xbe,
  0xee, 0xc2, 0x3e, 0xbe, 0x72, 0xba, 0xd9, 0xbd, 0x87, 0xdb, 0x30, 0x3e,
  0x47, 0x21, 0x27, 0xbd, 0x31, 0x3d, 0x5b, 0xbd, 0xe5, 0x3b, 0x0b, 0x3f,
  0x27, 0x3f, 0xaa, 0xbd, 0xfe, 0x8e, 0xb8, 0x3f, 0x57, 0xbb, 0x88, 0x3e,
  0xd5, 0xcf, 0xfd, 0x3d, 0x46, 0xa6, 0x81, 0xbd, 0x08, 0x6a, 0xc4, 0x3e,
  0x95, 0xca, 0x21, 0xbd, 0x9a, 0x30, 0x82, 0x3f, 0x9e, 0xb4, 0x4f, 0x3d,
  0x8d, 0x1a, 0x2b, 0x3d, 0x66, 0x13, 0xef, 0xbd, 0x6f, 0xe7, 0xb0, 0xbd,
  0x38, 0x0f, 0xf5, 0xbd, 0xd0, 0x8a, 0x16, 0xbe, 0x92, 0xf8, 0x2c, 0x3d,
  0x86, 0x24, 0xd9, 0x3e, 0xab, 0xb2, 0xa4, 0xbd, 0x0c, 0x78, 0x90, 0x3f,
  0x31, 0xc8, 0xd1, 0xbd, 0x83, 0x52, 0x67, 0xbc, 0x78, 0x79, 0xfa, 0x3c,
  0x74, 0x5d, 0x18, 0x3f, 0x76, 0xbc, 0x73, 0x3e, 0xe2, 0xfa, 0x72, 0x3f,
  0x53, 0x3f, 0x5e, 0xbe, 0xf5, 0x58, 0x23, 0x3d, 0x19, 0xf9, 0x36, 0x3e,
  0xff, 0x3f, 0x99, 0xbd, 0xaf, 0x2c, 0x38, 0xbd, 0x01, 0x02, 0xf6, 0x3d,
  0x1b, 0xc2, 0x08, 0x3e, 0x1a, 0xcb, 0x0f, 0x3e, 0x6a, 0xbd, 0x61, 0xbd,
  0xa5, 0x47, 0xbe, 0x3f, 0xd8, 0xcc, 0x19, 0x3e, 0x6b, 0x2c, 0xe0, 0x3d,
  0x5b, 0xd4, 0xfc, 0x3d, 0x93, 0x8b, 0x35, 0x3f, 0x9b, 0xfe, 0xcf, 0xbd,
  0x80, 0xe1, 0xb4, 0x3e, 0x15, 0x6e, 0x61, 0x3e, 0x4a, 0x12, 0xd1, 0x3d,
  0x8c, 0xf1, 0x9d, 0xbd, 0xfa, 0x08, 0xfa, 0xbd, 0x29, 0xf3, 0x0b, 0x3e,
  0xc6, 0x3b, 0xeb, 0x3d, 0x6a, 0x40, 0x5d, 0xbe, 0xd0, 0xfc, 0xfc, 0x3d,
  0xbd, 0x62, 0x29, 0x3d, 0x79, 0xa7, 0xdc, 0x3e, 0x21, 0x28, 0x1a, 0x3d,
  0x44, 0x32, 0xd7, 0x3d, 0x9c, 0x32, 0x16, 0xbe, 0x21, 0xc8, 0x17, 0x3e,
  0xdd, 0x6c, 0x96, 0xbd, 0x24, 0x18, 0x60, 0x3f, 0x06, 0x3d, 0x81, 0x3d,
  0xd2, 0xde, 0x20, 0x3e, 0x25, 0x03, 0x9f, 0x3e, 0xe0, 0xb6, 0x25, 0xbe,
  0xc6, 0xaa, 0x25, 0x3d, 0x88, 0xa1, 0x4b, 0xbc, 0x9d, 0xad, 0x08, 0xbe,
  0xab, 0x65, 0x9b, 0x3e, 0x9f, 0x12, 0x81, 0xbd, 0x73, 0x9c, 0x05, 0x3f,
  0xbb, 0x1d, 0xd8, 0xbd, 0x15, 0x24, 0x01, 0xbe, 0x24, 0x26, 0xfa, 0xbd,
  0xe8, 0x72, 0xbe, 0x3e, 0x7a, 0x45, 0xd6, 0x3d, 0xbd, 0x73, 0x16, 0xbe,
  0x5a, 0x51, 0x12, 0xbe, 0xb7, 0xcf, 0x46, 0xbe, 0xbc, 0xde, 0x2f, 0x3d,
  0xca, 0xea, 0xc1, 0xbd, 0xbf, 0xbc, 0xef, 0xbd, 0x79, 0xa8, 0xa9, 0xbe,
  0xa0, 0x4f, 0xd9, 0xbd, 0xd3, 0xae, 0x9e, 0x3e, 0x64, 0xb4, 0x6d, 0xbe,
  0xd3, 0x65, 0xb0, 0x3e, 0x1c, 0x9a, 0x49, 0xbe, 0x78, 0x7f, 0x69, 0xbe,
  0x2b, 0x24, 0x9d, 0xbe, 0x83, 0x75, 0x00, 0x3e, 0xd7, 0x01, 0x99, 0xbc,
  0x87, 0x86, 0xbc, 0x3e, 0x13, 0xc7, 0x69, 0xbd, 0x9a, 0x5b, 0x41, 0x3d,
  0x53, 0x02, 0x01, 0xbe, 0x2a, 0xb8, 0x31, 0xbd, 0x68, 0x6c, 0x46, 0xbe,
  0xf6, 0x4a, 0x19, 0xbe, 0xa9, 0x7e, 0xd8, 0x3a, 0xd7, 0xd1, 0xd0, 0x3e,
  0x86, 0xd5, 0x96, 0xbe, 0x54, 0x28, 0x89, 0x3e, 0xb0, 0x45, 0x12, 0xbe,
  0x35, 0x51, 0xc2, 0xbd, 0x1b, 0x49, 0x38, 0xbe, 0x29, 0x08, 0x67, 0x3e,
  0x86, 0xe5, 0x99, 0x3d, 0xd9, 0xf3, 0x05, 0x3f, 0x4f, 0x81, 0x4c, 0xbe,
  0xba, 0x3d, 0xe4, 0xbd, 0xae, 0xf7, 0x21, 0x3e, 0x95, 0xb9, 0xd3, 0xbc,
  0x77, 0x50, 0x14, 0xbd, 0x05, 0xa5, 0xb9, 0xbe, 0xc9, 0x6b, 0x98, 0x3d,
  0x1d, 0xde, 0x5d, 0x3e, 0xe7, 0x5b, 0x80, 0xbe, 0xcf, 0xe3, 0xc8, 0x3e,
  0x3f, 0x7b, 0x28, 0xbd, 0x6e, 0x7e, 0x39, 0xbe, 0xd4, 0xcf, 0x71, 0xbe,
  0xc4, 0x62, 0xa3, 0x3e, 0xa3, 0x5c, 0x52, 0xbe, 0x11, 0xb7, 0xa2, 0x3e,
  0xa3, 0xd1, 0xa4, 0xbd, 0xe3, 0x9d, 0x43, 0x3e, 0x9b, 0x76, 0xa5, 0x3d,
  0xab, 0x73, 0xd8, 0xbd, 0x3a, 0xb6, 0x96, 0x3d, 0x2a, 0x9d, 0x8c, 0xbe,
  0x8b, 0x2b, 0x96, 0xbd, 0xe5, 0x18, 0xae, 0x3d, 0x57, 0xfe, 0x17, 0xbe,
  0x31, 0xff, 0x05, 0x3f, 0x86, 0xeb, 0x22, 0x3e, 0x24, 0x8d, 0x0e, 0xbe,
  0xc1, 0x06, 0x93, 0x3d, 0x41, 0xbd, 0xa7, 0x3e, 0x02, 0xe5, 0xc8, 0x3d,
  0x51, 0x9d, 0x08, 0x3f, 0x22, 0x7f, 0x94, 0x3d, 0x27, 0xc8, 0xc9, 0x3d,
  0xee, 0x9c, 0xb8, 0x3b, 0x07, 0xd6, 0x4e, 0xbe, 0xcd, 0x12, 0x18, 0xbd,
  0xe2, 0x06, 0x4c, 0xbc, 0xa5, 0xec, 0xe2, 0x3d, 0xbf, 0xef, 0xb2, 0x3c,
  0x20, 0x4e, 0xf9, 0xbd, 0x5c, 0x63, 0x1f, 0x3f, 0x45, 0x51, 0x0e, 0x3d,
  0xec, 0x4b, 0xc2, 0xbc, 0xee, 0xb0, 0x8f, 0xbe, 0xbd, 0xec, 0x42, 0x3e,
  0xcc, 0xad, 0xa1, 0xbd, 0xb8, 0x09, 0x9d, 0x3e, 0x79, 0x1c, 0xd7, 0x3d,
  0xb1, 0x8b, 0xf2, 0x3d, 0xcc, 0xf4, 0x5b, 0x3e, 0xc2, 0x52, 0xec, 0x3d,
  0xbf, 0xdc, 0xb1, 0x3d, 0x40, 0x33, 0xb3, 0xbd, 0xa6, 0x63, 0x92, 0xbd,
  0xa0, 0x95, 0xf1, 0x3d, 0x4a, 0x58, 0xb3, 0x3a, 0xfc, 0x9a, 0x9d, 0x3e,
  0x6f, 0x71, 0xec, 0x3c, 0xd0, 0x52, 0xc2, 0xbb, 0xa4, 0xc2, 0x2f, 0xbe,
  0xd1, 0xf0, 0xc0, 0x3e, 0x46, 0x47, 0x80, 0xbc, 0x85, 0xd1, 0x23, 0x3e,
  0xf9, 0xcb, 0xf0, 0xbd, 0x5a, 0xb9, 0x83, 0xbc, 0xff, 0x90, 0x1f, 0xbe,
  0x1c, 0x22, 0xcf, 0xbc, 0xd6, 0xc8, 0xb2, 0x3c, 0x2f, 0x2c, 0x8e, 0x3d,
  0x1e, 0xa6, 0x4c, 0x3e, 0x1c, 0x5a, 0x41, 0x3b, 0x37, 0xa3, 0x8f, 0x3c,
  0x8a, 0xbf, 0x2d, 0x3e, 0xc6, 0x80, 0xb4, 0xbd, 0x7a, 0xdd, 0xde, 0x3d,
  0x17, 0xb3, 0xae, 0xbd, 0xe1, 0x52, 0xe1, 0xbe, 0xb8, 0xcb, 0xa3, 0x3d,
  0xbb, 0xfd, 0xde, 0x3e, 0x0b, 0xff, 0xac, 0x3e, 0x8f, 0x47, 0x91, 0xbe,
  0x42, 0xf5, 0xce, 0xbd, 0x42, 0xce, 0x82, 0xbe, 0x9c, 0xba, 0x29, 0x3e,
  0x76, 0x92, 0x1d, 0xbd, 0xb6, 0x9c, 0x06, 0xbe, 0x99, 0x63, 0x66, 0xbe,
  0xed, 0x49, 0xa4, 0xbe, 0xd0, 0x94, 0xd3, 0x3d, 0xe1, 0x73, 0x2a, 0xbd,
  0x48, 0xb4, 0xdd, 0x3c, 0x41, 0x58, 0x5e, 0xbe, 0x73, 0xc9, 0xb1, 0xbe,
  0x10, 0x29, 0x01, 0xbe, 0xa6, 0x91, 0x06, 0x3c, 0x37, 0x1f, 0xe7, 0xbd,
  0x38, 0xc3, 0x02, 0xbc, 0x68, 0x57, 0x7d, 0xbd, 0x96, 0x2e, 0x1b, 0xbe,
  0x36, 0x3f, 0x39, 0x3e, 0xba, 0x91, 0xb2, 0xbc, 0x47, 0x67, 0x43, 0x3d,
  0xc3, 0xb0, 0xeb, 0x3c, 0x1b, 0x87, 0x28, 0xbe, 0x80, 0xfb, 0xa0, 0x3d,
  0x3f, 0xcb, 0xc9, 0x3d, 0x20, 0x6d, 0x08, 0xbd, 0x2e, 0xd5, 0x14, 0x3e,
  0xe2, 0x1a, 0x02, 0xbf, 0xae, 0x11, 0x93, 0xbe, 0x3f, 0x19, 0x4e, 0xbc,
  0x18, 0x8d, 0x1b, 0x3e, 0x5b, 0x10, 0x8b, 0xbe, 0x23, 0x3a, 0x76, 0x3e,
  0x76, 0xc6, 0x84, 0xbe, 0xef, 0xe7, 0x1a, 0x3c, 0x67, 0x88, 0x3d, 0x3e,
  0x64, 0x77, 0xd4, 0x3d, 0x54, 0x30, 0xcd, 0x3d, 0x61, 0x87, 0x44, 0x3d,
  0x28, 0x66, 0x0c, 0xbe, 0x70, 0xd5, 0x07, 0x3e, 0x62, 0xf8, 0x3e, 0x3e,
  0xb6, 0x3e, 0x12, 0xbe, 0x4b, 0xc8, 0x9d, 0xbe, 0x82, 0xfc, 0x2c, 0xbe,
  0x95, 0xd0, 0xd2, 0x3e, 0x29, 0x23, 0xb6, 0x3d, 0xe4, 0x08, 0x03, 0xbe,
  0x9f, 0x72, 0x6b, 0xbd, 0x83, 0x64, 0xeb, 0x3b, 0xa4, 0x81, 0xa7, 0xbd,
  0x75, 0xc8, 0x1f, 0x3e, 0x5d, 0x45, 0xa9, 0x3e, 0xdf, 0x04, 0x96, 0x3d,
  0x07, 0xc7, 0xf6, 0xbc, 0x87, 0x63, 0x76, 0x3d, 0x00, 0x5f, 0xaf, 0xbd,
  0x74, 0xfd, 0x28, 0x3e, 0x68, 0x93, 0xeb, 0xbd, 0xec, 0x18, 0xb8, 0xbd,
  0x70, 0x84, 0x91, 0xbe, 0x53, 0x8e, 0xb2, 0x3e, 0x28, 0x78, 0x56, 0x3e,
  0xad, 0xf0, 0xff, 0xbd, 0x12, 0xce, 0xde, 0xbe, 0xe4, 0x7f, 0x6e, 0xbc,
  0xec, 0x66, 0x88, 0x3e, 0x86, 0xfc, 0x80, 0xbd, 0xa7, 0x49, 0x0b, 0x3e,
  0xf1, 0x25, 0x93, 0x3c, 0x83, 0x7f, 0xa4, 0xbe, 0x63, 0xca, 0x0e, 0xbe,
  0x6a, 0x22, 0x52, 0xbe, 0xf5, 0x93, 0x5c, 0x3c, 0x65, 0xb8, 0xcb, 0xbd,
  0xdb, 0x49, 0xa2, 0xbd, 0xec, 0x77, 0x06, 0xbe, 0x8c, 0xfc, 0x5b, 0xbe,
  0xf5, 0x45, 0x9f, 0x3d, 0x35, 0x32, 0xa0, 0xbd, 0x19, 0xa7, 0xcc, 0xbd,
  0xfe, 0xcd, 0xa5, 0xbe, 0x5a, 0x8c, 0x81, 0x3e, 0x79, 0xfb, 0x01, 0xbe,
  0xf6, 0x70, 0x84, 0xbd, 0x5e, 0x24, 0xd6, 0xbe, 0x99, 0xaa, 0x55, 0xbe,
  0xee, 0x76, 0xc2, 0xbd, 0x92, 0x63, 0xcd, 0xbe, 0xe2, 0xb3, 0x87, 0x3e,
  0x23, 0x7c, 0x02, 0xbe, 0x96, 0xc9, 0xab, 0x3d, 0xe4, 0x50, 0x84, 0xbe,
  0x5c, 0x6c, 0x60, 0xbd, 0x79, 0x59, 0xf4, 0xba, 0xc2, 0x74, 0xb9, 0xbd,
  0xd8, 0x6e, 0x56, 0xbe, 0xca, 0x98, 0xad, 0xbe, 0x7c, 0xa0, 0xd3, 0xbd,
  0xba, 0x3c, 0x54, 0xbe, 0x63, 0x99, 0xa1, 0xbc, 0x8c, 0xf2, 0x9f, 0x3e,
  0x4c, 0x2e, 0xb1, 0xbe, 0x80, 0x9e, 0xfe, 0x3e, 0xec, 0xfa, 0x72, 0xbe,
  0x64, 0x23, 0x4b, 0x3e, 0x66, 0x70, 0x82, 0xbe, 0xbc, 0x9c, 0x51, 0x3e,
  0xd0, 0x5a, 0xfb, 0x3d, 0xb3, 0xa6, 0x8e, 0xbe, 0x25, 0x51, 0x63, 0xbc,
  0x96, 0xa7, 0x63, 0xbe, 0x06, 0x6f, 0x98, 0x3e, 0x42, 0xb7, 0xe7, 0xbe,
  0xe2, 0xb1, 0x49, 0x3d, 0xbd, 0x8e, 0x06, 0xbe, 0x99, 0x39, 0xc9, 0x3d,
  0xfb, 0x91, 0x11, 0x3f, 0x90, 0x11, 0x91, 0xbe, 0x4c, 0xe1, 0xb6, 0x3f,
  0xdc, 0xb1, 0xf2, 0xbc, 0x55, 0x58, 0x82, 0xbe, 0x35, 0x50, 0x63, 0xbe,
  0x85, 0x33, 0x54, 0x3e, 0x0c, 0xed, 0x96, 0x3e, 0x11, 0x13, 0x8e, 0x3f,
  0x36, 0x61, 0xc0, 0xbd, 0x66, 0x37, 0xe3, 0xbe, 0xa1, 0xf9, 0x92, 0x3e,
  0xec, 0x3f, 0x3d, 0xbe, 0x2a, 0xc3, 0x3a, 0xbe, 0x11, 0x47, 0x95, 0x3c,
  0xb0, 0xca, 0x9a, 0xbd, 0xa6, 0x1e, 0xeb, 0x3e, 0x5f, 0x5e, 0x08, 0xbe,
  0xeb, 0x6d, 0x90, 0x3f, 0x3e, 0xf5, 0x82, 0x3e, 0x4f, 0x5d, 0xd3, 0xbe,
  0xae, 0x1e, 0x8e, 0xbe, 0x68, 0x61, 0x35, 0x3e, 0xe5, 0x21, 0xaa, 0x3d,
  0x75, 0x45, 0x4f, 0x3f, 0x9b, 0xf1, 0x42, 0xbe, 0x01, 0xea, 0x2f, 0xbe,
  0x51, 0x7c, 0x9d, 0xbc, 0x5a, 0x4a, 0x75, 0xbe, 0x37, 0x35, 0xe7, 0x3d,
  0xbd, 0x10, 0x4f, 0xbe, 0xcd, 0xf4, 0xa6, 0x3c, 0x44, 0xcf, 0x37, 0x3e,
  0x23, 0x2e, 0x60, 0xbe, 0xa9, 0xd9, 0x87, 0x3f, 0x7f, 0x93, 0xa3, 0x3d,
  0x43, 0x9f, 0xea, 0xbe, 0xac, 0xe5, 0xb9, 0xbc, 0xbe, 0x02, 0x86, 0x3d,
  0xd6, 0xd7, 0x10, 0x3c, 0xe2, 0x71, 0xc5, 0x3e, 0xe0, 0x9b, 0x6d, 0xbc,
  0xfd, 0xc2, 0x92, 0x3e, 0x0f, 0x6e, 0xa7, 0x3d, 0xc1, 0x90, 0xe5, 0xbe,
  0xd7, 0x4a, 0x85, 0xbe, 0x15, 0x12, 0x8a, 0x3d, 0x3e, 0x8f, 0x05, 0x3e,
  0x51, 0x64, 0xd8, 0x3e, 0x1d, 0xb3, 0x2e, 0xbd, 0x02, 0x8d, 0xb2, 0x3f,
  0x05, 0x8c, 0x4a, 0x3e, 0xe5, 0x67, 0x44, 0x3e, 0xa7, 0x4b, 0x4c, 0x3e,
  0x22, 0x71, 0xc5, 0x3e, 0x47, 0x82, 0x19, 0x3e, 0x00, 0x77, 0x79, 0x3f,
  0xf9, 0x1a, 0x24, 0x3d, 0x08, 0x6e, 0x0b, 0x3e, 0x22, 0x5a, 0xc0, 0x3d,
  0xf5, 0xaa, 0xbc, 0xbe, 0x17, 0xbf, 0xea, 0xbd, 0x52, 0x3b, 0x02, 0x3e,
  0xc3, 0xb0, 0x95, 0xbd, 0x17, 0x4d, 0x9b, 0xbc, 0xfd, 0x4d, 0xb6, 0x3c,
  0xc0, 0x86, 0x91, 0x3f, 0x8d, 0xc8, 0x4a, 0x3e, 0xd7, 0xb9, 0x1e, 0x3e,
  0xbd, 0x7c, 0x86, 0x3d, 0x1d, 0x0e, 0xf2, 0x3e, 0x05, 0x18, 0x7f, 0x3e,
  0xa6, 0xe9, 0xb7, 0x3e, 0xfe, 0xf2, 0xe4, 0x3e, 0xc1, 0xc7, 0x62, 0x3d,
  0xf2, 0x5d, 0xd0, 0x3d, 0xc7, 0xb0, 0x4e, 0x3e, 0xd8, 0xf0, 0xe2, 0xbe,
  0xc5, 0x08, 0x26, 0xbd, 0xaa, 0xa5, 0x7b, 0xbe, 0x52, 0xf4, 0xe0, 0x3e,
  0x70, 0x1a, 0xf5, 0xbe, 0xb8, 0x18, 0x7c, 0x3f, 0xa4, 0xd9, 0xee, 0xbe,
  0x63, 0xf0, 0xee, 0x3b, 0xd4, 0x34, 0x32, 0xbf, 0x72, 0x27, 0x24, 0xbe,
  0xfa, 0xc4, 0x5f, 0xbe, 0xc7, 0x10, 0x36, 0x3e, 0x4b, 0xdd, 0xbe, 0xbd,
  0xc7, 0x46, 0xfa, 0xbe, 0x50, 0x88, 0x23, 0xbe, 0xc6, 0xa8, 0x35, 0x3c,
  0x08, 0x1d, 0x2a, 0xbd, 0xcb, 0x65, 0x8e, 0xbe, 0xa2, 0x84, 0x4a, 0xbc,
  0xf3, 0xad, 0x94, 0x3e, 0x97, 0x62, 0xb2, 0xbe, 0x17, 0xda, 0x49, 0x3f,
  0x44, 0x94, 0xee, 0xbd, 0x01, 0x72, 0x1d, 0xbe, 0x53, 0x62, 0x87, 0xbe,
  0xf2, 0xb9, 0x29, 0x3e, 0xdf, 0xa2, 0xc8, 0x3d, 0x93, 0xc7, 0x8e, 0xbd,
  0x9c, 0x04, 0xf1, 0xbc, 0x0f, 0x7d, 0xba, 0xbd, 0x80, 0x77, 0x09, 0x3e,
  0x25, 0x69, 0x62, 0xbe, 0x81, 0xf1, 0x01, 0x3e, 0xad, 0x14, 0x54, 0xbe,
  0xb9, 0x08, 0xed, 0x3d, 0x15, 0x93, 0x83, 0x3e, 0xc0, 0x1d, 0xa9, 0xbe,
  0x19, 0x7b, 0x3e, 0x3f, 0xca, 0xf4, 0x01, 0xbe, 0xaa, 0xa5, 0x1b, 0xbd,
  0x95, 0xc8, 0x9a, 0xbe, 0x42, 0xc7, 0x84, 0x3e, 0x5f, 0x7f, 0x16, 0x3e,
  0x19, 0x76, 0x46, 0x3f, 0x06, 0xdc, 0x96, 0xbe, 0x6a, 0x1b, 0x98, 0x3d,
  0xea, 0x25, 0x03, 0x3e, 0xc2, 0xa8, 0xc5, 0xbe, 0x09, 0x06, 0x7a, 0x3d,
  0x8a, 0x05, 0x8d, 0xbe, 0xad, 0x1e, 0x96, 0x3d, 0x50, 0xe2, 0x02, 0x3f,
  0xb9, 0x73, 0x76, 0xbe, 0x5c, 0xa5, 0x22, 0x3f, 0xa0, 0xfe, 0x5e, 0x3c,
  0x7b, 0x21, 0x53, 0xbb, 0x84, 0x87, 0x16, 0xbe, 0x2d, 0xe2, 0xd5, 0x3d,
  0xcb, 0x8a, 0x38, 0x3d, 0xe3, 0xbf, 0x58, 0x3f, 0xc5, 0xa0, 0xa2, 0xbd,
  0x15, 0xcb, 0xae, 0xbb, 0x32, 0xc2, 0x3f, 0x3d, 0x0c, 0xf4, 0x02, 0xbe,
  0xd6, 0xe4, 0x11, 0x3e, 0x30, 0xa0, 0x12, 0xbe, 0xda, 0xd5, 0x11, 0xbe,
  0x0d, 0x85, 0x64, 0x3e, 0x59, 0x2c, 0x0f, 0xbd, 0xa9, 0xef, 0x7f, 0x3f,
  0x1f, 0x6c, 0x9a, 0x3e, 0xdf, 0xc0, 0x50, 0xbe, 0xc4, 0xe4, 0x49, 0xbd,
  0x63, 0x81, 0xbd, 0x3e, 0x66, 0x8d, 0x26, 0xbc, 0x38, 0x64, 0x19, 0x3f,
  0x9c, 0x05, 0x79, 0xbe, 0x2b, 0x8a, 0xb1, 0x3d, 0x1b, 0x52, 0x04, 0x3e,
  0x55, 0x4c, 0xc0, 0xbd, 0x34, 0x54, 0x94, 0xbc, 0x63, 0x24, 0x03, 0xbe,
  0x5d, 0x89, 0x7d, 0x3d, 0x03, 0x59, 0x6d, 0x3e, 0xb5, 0x0f, 0x63, 0x3c,
  0x40, 0x54, 0x0d, 0x3f, 0x71, 0x5c, 0x01, 0x3f, 0xe1, 0xe4, 0xbd, 0x3e,
  0xfd, 0xb9, 0xc7, 0xbd, 0x56, 0x90, 0xb8, 0x3e, 0xb7, 0xfc, 0x12, 0xbe,
  0x6e, 0x7c, 0xa8, 0x3f, 0xce, 0x84, 0xfa, 0xbc, 0xcc, 0x0a, 0x44, 0x3e,
  0x04, 0xf4, 0xcb, 0x3e, 0x1e, 0xa5, 0x88, 0xbe, 0x48, 0xf7, 0xd2, 0xbe,
  0x57, 0x0f, 0x6d, 0x3e, 0xfa, 0xab, 0x15, 0xbe, 0xf0, 0x36, 0x49, 0x3e,
  0x50, 0xaa, 0x8e, 0xbd, 0x60, 0x29, 0xba, 0x3e, 0x00, 0x50, 0x54, 0x3e,
  0xa7, 0x25, 0x7f, 0x3d, 0xc0, 0xe3, 0x9b, 0xbe, 0x28, 0x0a, 0x01, 0x3f,
  0x81, 0x3b, 0x04, 0x3e, 0xd7, 0x08, 0x88, 0x3f, 0x51, 0x89, 0xba, 0x3e,
  0x9f, 0x92, 0x50, 0xbd, 0x41, 0x39, 0xad, 0xbc, 0x13, 0x63, 0xd0, 0x3d,
  0x37, 0x10, 0x1c, 0xbe, 0x3b, 0x49, 0xd6, 0xbc, 0xeb, 0x93, 0x19, 0xbe,
  0x83, 0x83, 0x28, 0x3e, 0x29, 0xd4, 0x8c, 0xbe, 0xe9, 0x87, 0x33, 0x3f,
  0xee, 0x14, 0x7e, 0xbe, 0x29, 0x92, 0xca, 0xbd, 0x1a, 0xa6, 0x14, 0xbf,
  0xb7, 0xae, 0x3f, 0xbe, 0x56, 0xdc, 0x2c, 0x3c, 0x59, 0xe7, 0x21, 0x3e,
  0xef, 0x74, 0x1a, 0xbe, 0x6f, 0x4d, 0x92, 0xbe, 0x7d, 0xcf, 0x60, 0x3c,
  0xb8, 0x1d, 0x1f, 0xbe, 0x69, 0xbb, 0x37, 0x3e, 0x6e, 0x2d, 0xe6, 0xbb,
  0x4d, 0x5d, 0x5d, 0x3e, 0x2c, 0x8c, 0x07, 0xbf, 0xcf, 0x49, 0x31, 0x3e,
  0xc6, 0xb2, 0x0b, 0x3f, 0xa7, 0x40, 0x0d, 0xbf, 0xe5, 0x58, 0x9e, 0xbd,
  0xaa, 0xe8, 0x82, 0xbe, 0xf2, 0xa3, 0xb8, 0xbd, 0xa5, 0x97, 0x73, 0x3f,
  0x07, 0x6b, 0xef, 0x3e, 0x47, 0x75, 0x02, 0x3f, 0x4b, 0xa9, 0x0e, 0x3e,
  0x5e, 0x8d, 0x38, 0xbf, 0xcb, 0xde, 0xde, 0x3d, 0x21, 0xae, 0xde, 0x3e,
  0x5a, 0x35, 0x65, 0xbc, 0x17, 0x33, 0x76, 0x3e, 0xa4, 0x6b, 0xcc, 0xbd,
  0xbd, 0x01, 0x89, 0x3d, 0x52, 0xbc, 0x47, 0xbe, 0x6d, 0x71, 0x10, 0xbe,
  0x14, 0xf5, 0x43, 0x3c, 0x61, 0xd5, 0xbd, 0xbd, 0xad, 0x5a, 0x81, 0xbe,
  0x47, 0x34, 0x56, 0x3f, 0x78, 0x9d, 0x83, 0x3e, 0x9e, 0x46, 0x96, 0xbd,
  0x76, 0x57, 0x16, 0x3e, 0xf4, 0x67, 0x52, 0xbe, 0x1e, 0xe6, 0x8e, 0x3c,
  0x4d, 0x52, 0xf7, 0x3d, 0xde, 0xdd, 0x08, 0x3e, 0xc3, 0xfd, 0x07, 0xbe,
  0x45, 0x1c, 0xa9, 0x3e, 0x97, 0x4c, 0x1c, 0x3e, 0x77, 0xdf, 0x69, 0x3e,
  0xb5, 0x99, 0x6d, 0x3e, 0x39, 0x3e, 0x4a, 0x3d, 0x9c, 0xae, 0x6e, 0x3e,
  0x3d, 0x80, 0x89, 0xbd, 0x74, 0x45, 0x6b, 0x3f, 0xaf, 0x4a, 0x30, 0x3e,
  0x17, 0xc2, 0xd9, 0x3b, 0xc1, 0xee, 0x23, 0x3e, 0x1d, 0x9b, 0x32, 0x3d,
  0x2e, 0xa2, 0x19, 0x3e, 0xc4, 0x06, 0xc0, 0x3e, 0xdd, 0xbc, 0x42, 0xbd,
  0x1b, 0x7e, 0x2b, 0x3e, 0xda, 0x49, 0x27, 0xbd, 0xa2, 0x0a, 0x4a, 0x3d,
  0x13, 0x7b, 0xab, 0x3c, 0x93, 0xb9, 0xc9, 0xbc, 0xcb, 0x68, 0x92, 0x3e,
  0x3f, 0xee, 0xf7, 0xbb, 0x71, 0xb9, 0xdb, 0x3d, 0x6c, 0x50, 0x3e, 0x3f,
  0x98, 0xed, 0xdf, 0x3e, 0x8a, 0x62, 0x96, 0xbc, 0x89, 0xe0, 0x8f, 0xbd,
  0xf8, 0x6b, 0xf3, 0xbd, 0x62, 0x1c, 0x36, 0x3e, 0x0a, 0x2b, 0x80, 0x3e,
  0x72, 0xf8, 0x86, 0x3c, 0xbd, 0x9e, 0x4c, 0x3d, 0x4b, 0x6b, 0x75, 0xbe,
  0x0e, 0xcf, 0x50, 0x3d, 0x6d, 0xf7, 0x92, 0x3e, 0xf0, 0xfd, 0xdd, 0xbd,
  0x49, 0x8e, 0x06, 0x3e, 0x75, 0x9c, 0xb0, 0xbd, 0xbb, 0xe3, 0xa4, 0x3d,
  0x02, 0x2c, 0x73, 0x3f, 0xe8, 0x5d, 0x63, 0x3e, 0x98, 0xa2, 0x59, 0x3e,
  0x24, 0x46, 0x06, 0xbe, 0x71, 0xdd, 0x22, 0xbf, 0x41, 0x94, 0x0f, 0xbd,
  0x79, 0x23, 0xae, 0x3e, 0x47, 0x8f, 0x02, 0xbe, 0x86, 0xdd, 0x1d, 0x3e,
  0x1b, 0x46, 0x8e, 0xbd, 0xaf, 0xd9, 0xc6, 0x3d, 0xaa, 0xe8, 0x2f, 0xbc,
  0xd0, 0xbf, 0xa0, 0xbd, 0x82, 0x5b, 0xf5, 0xba, 0x10, 0x95, 0xee, 0xbb,
  0x92, 0xa6, 0x49, 0xbe, 0x60, 0xea, 0x41, 0x3f, 0xc8, 0x5a, 0xe4, 0x3e,
  0x1d, 0x51, 0xe2, 0xbd, 0x13, 0x37, 0xb9, 0xba, 0xd0, 0xd4, 0x33, 0xbe,
  0x5f, 0x7f, 0x14, 0x3e, 0xe6, 0x82, 0x1e, 0x3e, 0x4b, 0x90, 0xf2, 0xbd,
  0x51, 0x3c, 0x18, 0xbd, 0x30, 0x78, 0x8b, 0xbd, 0x10, 0x3f, 0x8c, 0x3e,
  0x01, 0x8f, 0x1b, 0x3f, 0x90, 0x06, 0x80, 0xbf, 0xd6, 0xf9, 0xc2, 0x3c,
  0xef, 0xf1, 0x35, 0xbe, 0x5b, 0x4b, 0xb4, 0x3e, 0xf2, 0xb8, 0xd4, 0x3e,
  0x0f, 0x74, 0x9e, 0x3b, 0x91, 0xe4, 0xa8, 0x3c, 0x01, 0x9b, 0xbe, 0xbe,
  0x91, 0x1a, 0x00, 0xbf, 0x98, 0x94, 0x7a, 0x3e, 0x88, 0xeb, 0x73, 0x3e,
  0xf4, 0x5c, 0x3a, 0x3e, 0xe3, 0xdf, 0x28, 0x3d, 0x12, 0x04, 0xc9, 0xbe,
  0x5b, 0x04, 0x70, 0x3e, 0x33, 0x0d, 0xc4, 0x3e, 0xbe, 0x28, 0x00, 0xbf,
  0x14, 0x02, 0xeb, 0xbe, 0xa7, 0x66, 0x04, 0xbf, 0x09, 0x48, 0x0e, 0xbf,
  0x80, 0x03, 0x30, 0x3f, 0xf1, 0x0c, 0x89, 0x3e, 0xf0, 0x98, 0xa1, 0x3e,
  0x57, 0x40, 0xe6, 0x3d, 0xcb, 0xbe, 0x50, 0xbf, 0x98, 0xb7, 0xa3, 0x3d,
  0x4f, 0x5f, 0x2b, 0x3e, 0xa6, 0xe7, 0x46, 0x3d, 0x68, 0xc8, 0x81, 0x3c,
  0x47, 0x1d, 0xc0, 0xbe, 0x6f, 0xe1, 0x38, 0xbd, 0x0c, 0x32, 0x84, 0xbd,
  0x17, 0xe4, 0x10, 0x3e, 0xbe, 0xfe, 0x85, 0x3e, 0xb3, 0x49, 0xd9, 0xbd,
  0xc7, 0x52, 0x01, 0xbf, 0xe6, 0x73, 0x6a, 0x3f, 0x14, 0x0d, 0xad, 0x3e,
  0x44, 0x82, 0x1f, 0xbe, 0x96, 0xca, 0xf5, 0xbe, 0x16, 0xe1, 0x1c, 0xbe,
  0xbf, 0xd8, 0x3f, 0x3a, 0xbb, 0x75, 0x4d, 0xbe, 0xa3, 0x4d, 0xa1, 0xbc,
  0xeb, 0xc9, 0x8b, 0x3d, 0x19, 0x31, 0xfb, 0xbe, 0xfd, 0x35, 0xeb, 0x3c,
  0x94, 0x43, 0xec, 0xbd, 0x81, 0x2d, 0x8b, 0x3d, 0x6f, 0xc3, 0x3c, 0xbd,
  0x7f, 0x8b, 0x7b, 0x3e, 0xda, 0x16, 0x14, 0xbf, 0x54, 0xeb, 0x68, 0x3f,
  0xe4, 0x98, 0xc7, 0x3e, 0xa3, 0xf5, 0xa3, 0xbd, 0x73, 0x56, 0x1d, 0xbe,
  0x8d, 0x77, 0x38, 0x3e, 0x7c, 0x8c, 0x14, 0xbe, 0xb1, 0xd6, 0x36, 0x3e,
  0x36, 0xb1, 0xa5, 0xbd, 0x7e, 0xfa, 0xdd, 0x3e, 0xb0, 0x0f, 0x9a, 0x3d,
  0xdb, 0x93, 0x9d, 0x3d, 0xf1, 0xb4, 0x5d, 0x3e, 0x87, 0xa9, 0x48, 0x3e,
  0xd7, 0xde, 0x96, 0xbc, 0x1b, 0xd6, 0x33, 0xbd, 0x57, 0xba, 0xfe, 0xbe,
  0x91, 0x97, 0x53, 0x3f, 0xbd, 0xe1, 0xe9, 0x3e, 0x9b, 0xa2, 0x12, 0xbd,
  0x71, 0x34, 0x96, 0xbe, 0x58, 0x6e, 0xd2, 0x3d, 0x9f, 0xbe, 0xf9, 0xbd,
  0xdf, 0x05, 0x42, 0x3e, 0x90, 0x1b, 0x1b, 0x3e, 0x2f, 0x8b, 0x10, 0xbc,
  0x78, 0x3b, 0x96, 0xbe, 0xbd, 0x07, 0x2e, 0x3e, 0xd7, 0x42, 0x2e, 0x3e,
  0x45, 0xca, 0x31, 0xbd, 0x57, 0x61, 0x04, 0xbe, 0xf1, 0xd6, 0x8f, 0xbe,
  0xa5, 0x51, 0x2c, 0xbf, 0xd1, 0xb8, 0x98, 0x3f, 0x90, 0xb5, 0xa8, 0x3e,
  0x82, 0xce, 0x3e, 0x3e, 0xc7, 0x52, 0x98, 0xbd, 0xfe, 0x25, 0x25, 0xbd,
  0x92, 0x21, 0x9d, 0x3d, 0x5c, 0x8d, 0x07, 0x3e, 0xbb, 0xfc, 0x5f, 0x3e,
  0xdd, 0x7b, 0xf9, 0x3d, 0xac, 0x51, 0x98, 0x3c, 0xdb, 0xfb, 0xe8, 0xbc,
  0x8a, 0x91, 0x5b, 0x3e, 0x2d, 0x7d, 0xc5, 0x3c, 0xf4, 0x03, 0x13, 0xbe,
  0x22, 0x44, 0xa4, 0xbc, 0xe8, 0xbd, 0x8f, 0xbe, 0xee, 0xd2, 0x7a, 0x3f,
  0x10, 0x1e, 0x0e, 0x3e, 0xa2, 0xc0, 0xf7, 0x3d, 0x83, 0xb4, 0x35, 0x3e,
  0xd8, 0x91, 0x27, 0xbd, 0xb2, 0xfc, 0x88, 0x3d, 0x0f, 0xe7, 0x48, 0x3e,
  0xaf, 0x7e, 0xb7, 0x3d, 0x28, 0x5f, 0x7c, 0xbd, 0xbe, 0x0e, 0x13, 0x3f,
  0x13, 0xe0, 0x24, 0x3e, 0x80, 0x64, 0x5a, 0x3d, 0x31, 0x22, 0xfb, 0xbe,
  0xc5, 0xe6, 0x8b, 0xbe, 0xe9, 0xa7, 0x86, 0xbe, 0x76, 0x69, 0xc4, 0x3e,
  0x88, 0xdf, 0xe9, 0x3e, 0x52, 0x12, 0x5a, 0xbb, 0x1f, 0x05, 0x85, 0xbe,
  0x89, 0x72, 0xd1, 0xbe, 0xe5, 0x29, 0x8b, 0xbe, 0x9f, 0x03, 0x94, 0x3e,
  0x47, 0x89, 0x20, 0x3e, 0xf3, 0xc7, 0x25, 0xbd, 0xb1, 0x16, 0xc1, 0x3d,
  0x11, 0x6e, 0xee, 0x3b, 0xde, 0x71, 0xd5, 0xbe, 0x9e, 0x9a, 0xc3, 0x3d,
  0x8d, 0xa6, 0x20, 0xbe, 0xfd, 0x33, 0xe9, 0x3c, 0x20, 0xd5, 0x1c, 0xbe,
  0xd5, 0x59, 0xa6, 0xbe, 0xa9, 0x57, 0x38, 0xbd, 0x93, 0x40, 0xf9, 0x3d,
  0xae, 0xbc, 0x38, 0x3e, 0xde, 0x66, 0x66, 0xbe, 0x55, 0xd7, 0x8e, 0xbb,
  0x39, 0x60, 0xc6, 0xbd, 0xa6, 0x9a, 0x0d, 0x3e, 0xee, 0xf1, 0x5c, 0x3d,
  0xa3, 0x5b, 0xeb, 0x3d, 0xaa, 0x8f, 0x9f, 0x3a, 0x7a, 0x0c, 0xd3, 0xbe,
  0x34, 0x45, 0xc7, 0xbd, 0x2b, 0x7d, 0x1c, 0x3d, 0x1a, 0x8d, 0x1e, 0xbe,
  0x2b, 0xf3, 0x46, 0xbe, 0xf3, 0xd4, 0x21, 0xbe, 0x69, 0x6e, 0xf0, 0x3d,
  0x4d, 0x38, 0x11, 0x3e, 0x7f, 0x57, 0xf1, 0xbd, 0x1b, 0x08, 0x0d, 0x3c,
  0xc4, 0xbe, 0x6a, 0xbe, 0xdd, 0x04, 0x51, 0xbe, 0xc8, 0x8f, 0x68, 0x3e,
  0x9d, 0x2d, 0x1e, 0x3c, 0x9f, 0xcc, 0x54, 0x3e, 0xea, 0xe3, 0x37, 0x3d,
  0xb8, 0x3c, 0x57, 0xbe, 0x7b, 0x1b, 0x19, 0xbe, 0x8c, 0xde, 0x57, 0xbe,
  0x39, 0xf7, 0x52, 0x3d, 0x44, 0x41, 0xc1, 0x3d, 0x8f, 0x32, 0x81, 0xbe,
  0xd5, 0x47, 0xfa, 0x3d, 0xbe, 0x4f, 0x5c, 0xbe, 0x31, 0x59, 0x9a, 0xbe,
  0x40, 0x43, 0x67, 0xba, 0xe2, 0xb1, 0x43, 0x3d, 0xa2, 0xc6, 0xc2, 0xbd,
  0xae, 0x2e, 0x01, 0x3e, 0xdd, 0x58, 0x50, 0x3d, 0x95, 0x84, 0x69, 0x3e,
  0xaa, 0x5f, 0x64, 0x3e, 0xac, 0x9f, 0x1a, 0xbe, 0x5d, 0xb8, 0x55, 0xbc,
  0x9f, 0x46, 0xcf, 0x3d, 0x40, 0x0e, 0xf5, 0xbb, 0xa5, 0x3e, 0x4e, 0xbd,
  0xda, 0xba, 0x96, 0xbe, 0xaf, 0x9e, 0x11, 0x3e, 0x5b, 0x4f, 0x02, 0xbe,
  0x34, 0x14, 0x46, 0x3e, 0x2a, 0x80, 0x11, 0x3e, 0x7f, 0x35, 0x88, 0xbe,
  0xc2, 0x78, 0xdd, 0xbe, 0x10, 0x77, 0x97, 0x3e, 0x4f, 0x29, 0x0c, 0x3d,
  0xb4, 0xfe, 0xa8, 0x3e, 0x0d, 0x0b, 0xde, 0xbd, 0x6a, 0xb9, 0xee, 0xbd,
  0x8b, 0x92, 0x4c, 0x3e, 0x07, 0x8f, 0x83, 0xbe, 0xa9, 0x73, 0x19, 0x3d,
  0x6f, 0x49, 0x5f, 0xbe, 0x46, 0x3b, 0xae, 0xbd, 0x34, 0x57, 0x49, 0x3a,
  0xa2, 0x6f, 0xab, 0x3e, 0x1e, 0xf6, 0x96, 0x3c, 0x64, 0xfc, 0xdd, 0xbd,
  0x25, 0xfa, 0xb8, 0xbe, 0x51, 0xba, 0xae, 0xbe, 0xaa, 0x5d, 0xa9, 0x3e,
  0x37, 0x63, 0x47, 0xbe, 0x0b, 0xd8, 0x7c, 0xbd, 0x49, 0xeb, 0xd4, 0xbd,
  0x00, 0xfd, 0x9f, 0xbe, 0x70, 0xe6, 0x35, 0x3e, 0x1d, 0xdf, 0x40, 0xbd,
  0x66, 0x70, 0x73, 0x3e, 0x77, 0x32, 0xea, 0xbd, 0xfb, 0x27, 0xaf, 0xbe,
  0x2b, 0x6e, 0x5a, 0xbe, 0xe7, 0x62, 0x12, 0x3e, 0xe6, 0xac, 0x2e, 0x3c,
  0x02, 0x36, 0x7e, 0x3e, 0x99, 0x12, 0xdd, 0xbd, 0xd6, 0x29, 0x24, 0xbe,
  0xa6, 0x59, 0x89, 0x3e, 0xd3, 0x2b, 0xa9, 0xbe, 0xc6, 0xd7, 0x90, 0x3d,
  0x9e, 0xb7, 0x89, 0xbd, 0xfa, 0x0c, 0x95, 0xbe, 0xb7, 0xc4, 0x0e, 0xbc,
  0xb9, 0xd7, 0x53, 0xba, 0xbe, 0x1e, 0x79, 0xbd, 0x49, 0xe7, 0x99, 0xbd,
  0x33, 0xfe, 0xa6, 0xbd, 0xc5, 0x71, 0x84, 0xbd, 0x9b, 0x0d, 0xa2, 0xbe,
  0xfd, 0xb0, 0x65, 0xbd, 0xbd, 0x73, 0x07, 0xbd, 0x71, 0xf4, 0xfb, 0xbd,
  0xf3, 0x74, 0xac, 0xbe, 0xbd, 0xf2, 0xed, 0xbd, 0xfb, 0x71, 0x1e, 0xbf,
  0x94, 0x2c, 0xba, 0xbe, 0x71, 0x59, 0xbc, 0x3e, 0x4a, 0xbd, 0x75, 0xbe,
  0x3d, 0x91, 0x35, 0x3f, 0x64, 0x49, 0x55, 0x3e, 0x08, 0x9d, 0x24, 0x3f,
  0x3a, 0xa6, 0xb2, 0x3d, 0x18, 0x4c, 0x00, 0x3f, 0x20, 0x85, 0xcc, 0xbe,
  0xb0, 0x8c, 0x6f, 0xbf, 0xb4, 0xca, 0x02, 0x3e, 0x12, 0x7c, 0x0d, 0xbf,
  0xd7, 0xe7, 0xf5, 0x3e, 0x38, 0x84, 0xa7, 0xbe, 0x64, 0x93, 0x76, 0xbe,
  0xc1, 0xaf, 0x56, 0xbe, 0xe8, 0xd4, 0x55, 0xbe, 0x7b, 0x9c, 0x3b, 0x3e,
  0xa0, 0x9f, 0x2a, 0xbd, 0x2b, 0x67, 0x12, 0x3f, 0x56, 0xc6, 0xa4, 0x3e,
  0x93, 0xe5, 0x04, 0x3e, 0x56, 0x55, 0x05, 0xbd, 0xc2, 0x45, 0x95, 0x3e,
  0xbd, 0x44, 0x7b, 0x3d, 0xc4, 0xe6, 0x3c, 0x3f, 0xe4, 0x74, 0x5f, 0x3d,
  0x63, 0x57, 0x69, 0x3e, 0x55, 0x26, 0xaa, 0x3e, 0x41, 0x25, 0x71, 0xbe,
  0xc3, 0x6b, 0x53, 0xbe, 0xc0, 0xb9, 0x9f, 0x3c, 0x65, 0xf0, 0xa5, 0xbe,
  0x9c, 0x40, 0x6c, 0x3e, 0x7c, 0xe6, 0x88, 0xbd, 0xba, 0xe2, 0x04, 0x3f,
  0xad, 0x4a, 0x51, 0xbe, 0xac, 0x44, 0x0b, 0x3e, 0xe4, 0x75, 0x87, 0x3b,
  0x63, 0x8f, 0x09, 0x3f, 0xff, 0x89, 0x0c, 0xbe, 0xf0, 0xc5, 0x1f, 0x3f,
  0xff, 0xb1, 0x2c, 0x3e, 0x39, 0x32, 0xb3, 0x3d, 0xa0, 0x0b, 0xc0, 0xbd,
  0x72, 0x90, 0x30, 0xbe, 0x61, 0xb9, 0x22, 0x3d, 0xf4, 0xb6, 0x9d, 0x3c,
  0xcf, 0xd7, 0x86, 0xbe, 0xf0, 0x4e, 0xeb, 0x3c, 0x53, 0x89, 0x38, 0x3c,
  0x6d, 0x79, 0xa3, 0x3e, 0x15, 0xc9, 0xe1, 0xbd, 0x17, 0xf3, 0x98, 0xbd,
  0x03, 0xa5, 0x78, 0xbe, 0xe5, 0x2f, 0xb7, 0x3e, 0xbe, 0x58, 0x8a, 0x3e,
  0x8a, 0x86, 0x08, 0x3f, 0xcc, 0xa7, 0x03, 0xbd, 0x1d, 0x28, 0x37, 0xbe,
  0x1a, 0x4c, 0xa8, 0x3d, 0xb1, 0xf2, 0xbb, 0xbb, 0xee, 0xf1, 0xa0, 0x3d,
  0x18, 0xb2, 0x48, 0x3d, 0xdf, 0x07, 0x2c, 0xbe, 0x51, 0x64, 0xa1, 0x3e,
  0x31, 0x9a, 0x70, 0x3b, 0xcb, 0x57, 0x96, 0x3f, 0x4e, 0xec, 0xc1, 0xbc,
  0x2f, 0xfa, 0xa2, 0xbd, 0x4a, 0xb7, 0x3b, 0xbe, 0x2f, 0x74, 0x4e, 0x3e,
  0x0c, 0xc8, 0x63, 0x3e, 0xb7, 0x19, 0x1e, 0x3f, 0xf4, 0xa0, 0x40, 0x3e,
  0x4b, 0x9d, 0x84, 0xbe, 0xc0, 0x54, 0x40, 0x3e, 0x32, 0x16, 0x85, 0xbe,
  0xf3, 0x89, 0x15, 0xbe, 0x42, 0x73, 0x20, 0x3c, 0x74, 0xfc, 0xa1, 0xbe,
  0x12, 0xa4, 0xd7, 0x3e, 0xd5, 0x9d, 0x34, 0xbd, 0x40, 0x33, 0x31, 0x3f,
  0xda, 0x5f, 0x52, 0x3e, 0x61, 0x0e, 0x05, 0xbe, 0x35, 0x0e, 0xd1, 0x3c,
  0xba, 0x03, 0xe4, 0x3e, 0x0f, 0xc1, 0xd1, 0xbd, 0xea, 0x21, 0x06, 0x3f,
  0xa2, 0xe9, 0x43, 0xbe, 0xac, 0x1b, 0xff, 0xbb, 0xe0, 0x97, 0xbf, 0x3e,
  0x12, 0xe0, 0x33, 0xbe, 0x1f, 0xb0, 0xd6, 0x3d, 0x76, 0x35, 0x6d, 0x3c,
  0x29, 0x85, 0x34, 0x3e, 0xec, 0x87, 0xee, 0x3e, 0x3d, 0xc3, 0x16, 0x3e,
  0x1b, 0x11, 0x85, 0x3e, 0xba, 0x66, 0x45, 0x3d, 0xa8, 0xef, 0xff, 0x3d,
  0xb2, 0x77, 0x1f, 0xbd, 0xb1, 0xb3, 0x92, 0xbb, 0xb8, 0x9d, 0x18, 0x3e,
  0x35, 0xa3, 0x29, 0x3f, 0xd9, 0x2a, 0x0c, 0xbe, 0x48, 0xad, 0x5e, 0x3e,
  0xf4, 0xd0, 0x03, 0xbd, 0xe0, 0xe6, 0xd6, 0x3d, 0xb6, 0xcc, 0x47, 0xbd,
  0x8c, 0x3d, 0x29, 0x3e, 0x7a, 0x16, 0x01, 0x3e, 0x12, 0xf4, 0x11, 0xbf,
  0xa9, 0xbb, 0x59, 0x3e, 0x5f, 0x20, 0xc1, 0x3e, 0x47, 0x2e, 0xb8, 0xbe,
  0xde, 0x9f, 0x73, 0xbe, 0x92, 0xe9, 0x21, 0xbe, 0x6e, 0xd9, 0x88, 0xbe,
  0xb1, 0xd0, 0x6e, 0x3f, 0x9c, 0xcf, 0xca, 0x3e, 0xc3, 0xd0, 0xb8, 0x3e,
  0x88, 0x93, 0x28, 0x3e, 0x82, 0x68, 0x72, 0xbf, 0x8e, 0xcd, 0x89, 0x3e,
  0x96, 0x6a, 0xe4, 0xbc, 0x2e, 0x97, 0x32, 0xbe, 0x57, 0x2b, 0x56, 0x3c,
  0x6f, 0xeb, 0x7c, 0xbe, 0xfa, 0x73, 0xc7, 0x3c, 0xe6, 0xdb, 0xdd, 0x3e,
  0xd0, 0xd8, 0xdd, 0xbb, 0x7e, 0x24, 0x2f, 0x3a, 0xa4, 0xc2, 0x25, 0x3e,
  0x98, 0x0a, 0xa6, 0xbe, 0x35, 0x1c, 0x17, 0x3f, 0x29, 0x86, 0x82, 0x3e,
  0x20, 0x82, 0xf8, 0xbe, 0xbf, 0x5c, 0x78, 0x3d, 0xaf, 0xdb, 0x13, 0x3e,
  0x5b, 0xad, 0x5d, 0x3e, 0x87, 0x15, 0x22, 0x3d, 0x49, 0x5a, 0x2b, 0xbe,
  0x10, 0x0a, 0x67, 0x3e, 0x4f, 0x56, 0x40, 0xbe, 0x14, 0x36, 0x84, 0x3d,
  0x43, 0x9d, 0xfa, 0xbd, 0xec, 0x80, 0xff, 0x3e, 0xbf, 0x95, 0x63, 0x3d,
  0x39, 0xa8, 0x32, 0x3d, 0x83, 0xdb, 0x46, 0xbe, 0x87, 0xb3, 0x48, 0x3f,
  0xe7, 0x61, 0x80, 0x3e, 0x8d, 0x8e, 0x99, 0xbe, 0x98, 0x9e, 0x93, 0x3c,
  0x92, 0x1c, 0xa9, 0x3e, 0x55, 0xd9, 0x04, 0xbe, 0x1f, 0x46, 0x35, 0xbe,
  0xe4, 0x0c, 0xc9, 0xbd, 0xcb, 0x50, 0xc6, 0x3d, 0x3d, 0x3a, 0xac, 0x3b,
  0xb3, 0x49, 0xfd, 0x3d, 0x96, 0xa2, 0xf9, 0x3e, 0x96, 0x2a, 0xd5, 0xbb,
  0x5d, 0x46, 0xeb, 0x3e, 0x4b, 0x59, 0x49, 0x3d, 0xf8, 0xa4, 0x10, 0xbe,
  0xeb, 0x77, 0x6e, 0x3f, 0xf2, 0x08, 0xb7, 0x3e, 0x68, 0xb6, 0x52, 0xbe,
  0x49, 0xeb, 0xf1, 0xbd, 0x7f, 0xdd, 0x87, 0x3d, 0x50, 0x91, 0xcf, 0x3d,
  0x3d, 0x6e, 0x9b, 0x3d, 0x90, 0x49, 0x23, 0xbe, 0x49, 0x6a, 0x13, 0x3d,
  0xab, 0xd7, 0x77, 0xbe, 0x94, 0x1d, 0x47, 0xbc, 0x8a, 0x7c, 0x29, 0x3e,
  0x16, 0x3f, 0x3c, 0x3d, 0xd4, 0xd4, 0xdf, 0xbd, 0x1d, 0xf9, 0x9d, 0xbc,
  0xed, 0x33, 0xf4, 0x3c, 0x44, 0x3b, 0x8c, 0x3f, 0xb9, 0x91, 0x72, 0x3e,
  0x51, 0x1d, 0xa3, 0xbd, 0x77, 0xcb, 0x11, 0xbd, 0x40, 0xde, 0xa9, 0xbd,
  0xd5, 0x17, 0xaf, 0x3c, 0xfd, 0x3b, 0xb5, 0x3e, 0xa3, 0x3b, 0x0c, 0xbe,
  0xa1, 0x6f, 0x93, 0x3d, 0xf8, 0xc2, 0x6b, 0xbd, 0x33, 0x6b, 0xe7, 0x3d,
  0x2c, 0x56, 0xe4, 0x3e, 0x50, 0x7b, 0xcb, 0xbc, 0x40, 0xb4, 0xe7, 0xbc,
  0x2a, 0x03, 0x99, 0xbd, 0x8b, 0x86, 0x76, 0xbe, 0xb4, 0x36, 0x5f, 0x3f,
  0xbe, 0x19, 0xed, 0x3e, 0xa2, 0x54, 0xff, 0xbd, 0xe3, 0xec, 0xbc, 0x3c,
  0xca, 0x5b, 0x4c, 0xbd, 0xaa, 0x79, 0xb2, 0x3d, 0x42, 0xb7, 0x37, 0xbc,
  0xd5, 0xa2, 0x52, 0xbe, 0x02, 0xfb, 0x8a, 0x3c, 0x3f, 0xb9, 0x2c, 0xbd,
  0x63, 0x77, 0x0d, 0x3d, 0x0a, 0x42, 0x1a, 0x3f, 0x32, 0x98, 0x8b, 0xbf,
  0x0a, 0x87, 0x27, 0xbe, 0x16, 0x26, 0x75, 0xbd, 0x96, 0x0b, 0xd5, 0x3e,
  0x32, 0x76, 0x25, 0x3f, 0x71, 0xca, 0xa0, 0xbe, 0x7f, 0x9b, 0x07, 0xbd,
  0x12, 0xef, 0x35, 0xbe, 0x4f, 0xf9, 0x4e, 0xbf, 0x02, 0x73, 0x87, 0x3e,
  0x2d, 0xc7, 0x11, 0x3e, 0x24, 0x71, 0xb8, 0x3e, 0x3a, 0x0c, 0x3b, 0x3e,
  0x01, 0xc4, 0x00, 0xbf, 0xbc, 0xb2, 0x53, 0x3d, 0x2a, 0x34, 0xe0, 0x3d,
  0xe2, 0x78, 0xcf, 0xbe, 0x58, 0x3f, 0xb6, 0xbe, 0xfb, 0xf2, 0xe2, 0xbd,
  0x0a, 0x34, 0xe9, 0xbe, 0x16, 0xd8, 0x93, 0x3f, 0xad, 0x18, 0x19, 0x3f,
  0xfa, 0x7e, 0xd2, 0x3e, 0xe4, 0x72, 0x1e, 0x3e, 0xd7, 0x62, 0x8a, 0xbf,
  0x54, 0xd8, 0x59, 0x3e, 0x99, 0x22, 0x5c, 0x3d, 0x23, 0x7a, 0xa3, 0x3d,
  0x1d, 0x88, 0xb1, 0x3e, 0xec, 0xa9, 0x5c, 0xbe, 0xc4, 0xd2, 0x17, 0x3d,
  0x1e, 0x52, 0x0f, 0xbe, 0xec, 0xc8, 0x31, 0xbd, 0xef, 0x05, 0x57, 0xbe,
  0xb2, 0x7a, 0x2a, 0x3e, 0x94, 0x76, 0x2b, 0xbe, 0x32, 0x9c, 0xca, 0x3e,
  0x1b, 0x94, 0xdf, 0x3e, 0xbd, 0x26, 0xd4, 0xbd, 0xde, 0x0b, 0x82, 0x3d,
  0x7e, 0x6e, 0xdf, 0x3d, 0x76, 0xd7, 0xfb, 0x3d, 0x80, 0x13, 0x6a, 0x3e,
  0x9a, 0x0d, 0xd1, 0xbd, 0x92, 0x0c, 0x20, 0x3e, 0xcb, 0x5b, 0xab, 0xbe,
  0xc6, 0xb1, 0xc1, 0x3d, 0xbe, 0x00, 0x00, 0xbe, 0x69, 0x62, 0x90, 0x3e,
  0x5d, 0x1a, 0x09, 0x3e, 0xb2, 0xe7, 0x27, 0x3e, 0xa4, 0xb4, 0x2a, 0x3d,
  0x15, 0x96, 0xf5, 0x3e, 0x0d, 0x7c, 0x38, 0x3f, 0xf6, 0xe0, 0x08, 0xbe,
  0x7c, 0x4a, 0x39, 0x3e, 0xca, 0xc7, 0x1b, 0x3f, 0xc0, 0x9d, 0x4b, 0x3e,
  0x20, 0x6b, 0x43, 0xbd, 0x96, 0x87, 0x3d, 0xbe, 0xd4, 0x8d, 0x40, 0xbe,
  0x97, 0x36, 0x06, 0xbd, 0x87, 0x67, 0x75, 0x3d, 0x9b, 0xf5, 0xf7, 0xbd,
  0xae, 0xb4, 0x02, 0x3d, 0xe5, 0x5a, 0xf7, 0x3e, 0xc3, 0x2f, 0x36, 0x3d,
  0xd3, 0x4b, 0xe1, 0x3c, 0xef, 0xad, 0x2f, 0x3f, 0x4d, 0x9a, 0xf7, 0x3e,
  0xae, 0xc0, 0xe8, 0xbd, 0x62, 0xbd, 0x9c, 0xbe, 0x5f, 0x28, 0x9f, 0x3e,
  0xe8, 0x41, 0x3c, 0x3d, 0x51, 0xca, 0x5a, 0xbd, 0x08, 0x88, 0xe9, 0xbc,
  0xce, 0x3b, 0x5d, 0xbe, 0x91, 0xdb, 0x60, 0xbe, 0x33, 0x13, 0xc8, 0x3b,
  0xfc, 0xe6, 0x3c, 0x3e, 0x40, 0xc9, 0x29, 0xbc, 0xd4, 0xb3, 0xba, 0xbe,
  0x19, 0x4c, 0x14, 0xbc, 0x04, 0x9a, 0x23, 0xbe, 0xc8, 0x86, 0x68, 0x3f,
  0x85, 0x9f, 0xf1, 0x3e, 0xcb, 0xd8, 0xdd, 0xbd, 0xfd, 0x41, 0x6f, 0xbe,
  0x79, 0xde, 0xb2, 0xbd, 0x54, 0x47, 0x8a, 0xbe, 0xf2, 0xfc, 0xfe, 0x3b,
  0x99, 0x5c, 0xa3, 0xbd, 0x1e, 0xdd, 0x8d, 0x3e, 0x7c, 0x45, 0x57, 0xbd,
  0xc1, 0xba, 0xe4, 0x3d, 0xd5, 0xeb, 0xe5, 0x3e, 0x8d, 0x76, 0x2c, 0xbc,
  0x51, 0x6c, 0x17, 0x3c, 0xb8, 0xbd, 0x84, 0xbd, 0xc1, 0xec, 0xb8, 0xbe,
  0x9e, 0xeb, 0x5a, 0x3f, 0xd6, 0x0a, 0x65, 0x3f, 0x62, 0x7e, 0x33, 0xbe,
  0xaf, 0x38, 0x74, 0xbd, 0x5c, 0x1c, 0x9b, 0xbd, 0x48, 0x08, 0x29, 0x3e,
  0x55, 0x10, 0x82, 0x3e, 0x46, 0x03, 0x2f, 0xbe, 0x71, 0x47, 0x01, 0xbd,
  0x9e, 0x1b, 0xaf, 0xbb, 0x99, 0x4b, 0x13, 0x3e, 0xa0, 0xa4, 0x81, 0x3f,
  0x45, 0xd7, 0x63, 0xbf, 0x1b, 0x55, 0x90, 0xbe, 0x52, 0x8f, 0xa8, 0x3d,
  0x74, 0x02, 0xab, 0xbc, 0x52, 0x1d, 0xb8, 0x3e, 0x87, 0x50, 0xcc, 0xbd,
  0x82, 0x46, 0xa3, 0xbd, 0x2f, 0xfd, 0xf7, 0xbe, 0x1c, 0xc6, 0x11, 0xbf,
  0x05, 0x71, 0xfc, 0x3e, 0x4e, 0xfe, 0xff, 0xff, 0x10, 0x00, 0x00, 0x00,
  0x05, 0x00, 0x00, 0x00, 0x14, 0x00, 0x00, 0x00, 0x2c, 0x00, 0x00, 0x00,
  0x02, 0x00, 0x00, 0x00, 0x10, 0x00, 0x00, 0x00, 0x70, 0x00, 0x00, 0x00,
  0x17, 0x00, 0x00, 0x00, 0x73, 0x65, 0x71, 0x75, 0x65, 0x6e, 0x74, 0x69,
  0x61, 0x6c, 0x2f, 0x64, 0x65, 0x6e, 0x73, 0x65, 0x2f, 0x4d, 0x61, 0x74,
  0x4d, 0x75, 0x6c, 0x00, 0x3c, 0xfe, 0xff, 0xff, 0x32, 0xff, 0xff, 0xff,
  0x04, 0x00, 0x00, 0x00, 0x08, 0x00, 0x00, 0x00, 0xff, 0xff, 0xff, 0xff,
  0x70, 0x00, 0x00, 0x00, 0x00, 0x00, 0x0e, 0x00, 0x18, 0x00, 0x08, 0x00,
  0x07, 0x00, 0x0c, 0x00, 0x10, 0x00, 0x14, 0x00, 0x0e, 0x00, 0x00, 0x00,
  0x00, 0x00, 0x00, 0x02, 0x10, 0x00, 0x00, 0x00, 0x04, 0x00, 0x00, 0x00,
  0x10, 0x00, 0x00, 0x00, 0x2c, 0x00, 0x00, 0x00, 0x01, 0x00, 0x00, 0x00,
  0x02, 0x00, 0x00, 0x00, 0x18, 0x00, 0x00, 0x00, 0x73, 0x65, 0x71, 0x75,
  0x65, 0x6e, 0x74, 0x69, 0x61, 0x6c, 0x2f, 0x66, 0x6c, 0x61, 0x74, 0x74,
  0x65, 0x6e, 0x2f, 0x43, 0x6f, 0x6e, 0x73, 0x74, 0x00, 0x00, 0x00, 0x00,
  0xa4, 0xfe, 0xff, 0xff, 0x9a, 0xff, 0xff, 0xff, 0x04, 0x00, 0x00, 0x00,
  0x08, 0x00, 0x00, 0x00, 0xc4, 0xe9, 0x89, 0xbf, 0xb5, 0xe9, 0x89, 0x3f,
  0x0a, 0xff, 0xff, 0xff, 0x10, 0x00, 0x00, 0x00, 0x03, 0x00, 0x00, 0x00,
  0x10, 0x00, 0x00, 0x00, 0x3c, 0x00, 0x00, 0x00, 0x01, 0x00, 0x00, 0x00,
  0x02, 0x00, 0x00, 0x00, 0x29, 0x00, 0x00, 0x00, 0x73, 0x65, 0x71, 0x75,
  0x65, 0x6e, 0x74, 0x69, 0x61, 0x6c, 0x2f, 0x64, 0x65, 0x6e, 0x73, 0x65,
  0x5f, 0x31, 0x2f, 0x42, 0x69, 0x61, 0x73, 0x41, 0x64, 0x64, 0x2f, 0x52,
  0x65, 0x61, 0x64, 0x56, 0x61, 0x72, 0x69, 0x61, 0x62, 0x6c, 0x65, 0x4f,
  0x70, 0x00, 0x00, 0x00, 0x60, 0xff, 0xff, 0xff, 0x00, 0x00, 0x06, 0x00,
  0x08, 0x00, 0x04, 0x00, 0x06, 0x00, 0x00, 0x00, 0x04, 0x00, 0x00, 0x00,
  0x40, 0x00, 0x00, 0x00, 0xc4, 0xdd, 0x89, 0xbf, 0x0f, 0x79, 0xe8, 0xbe,
  0xd9, 0x40, 0x60, 0x3e, 0xb6, 0x65, 0xb0, 0xbd, 0xd2, 0xa3, 0xb7, 0xbe,
  0x0f, 0x4e, 0x68, 0xbd, 0xe1, 0x7c, 0xbc, 0xbe, 0x8a, 0xfc, 0x6c, 0xbf,
  0x2a, 0x8b, 0x99, 0xbe, 0xa5, 0xcb, 0x19, 0xbf, 0xd1, 0x24, 0x06, 0x3e,
  0x8c, 0x76, 0x92, 0x3e, 0x1c, 0x37, 0x4b, 0xbf, 0x4f, 0x6a, 0xe4, 0xbe,
  0xfd, 0x6b, 0x3c, 0x3f, 0x7d, 0x9f, 0x8e, 0x3f, 0xae, 0xff, 0xff, 0xff,
  0x10, 0x00, 0x00, 0x00, 0x02, 0x00, 0x00, 0x00, 0x10, 0x00, 0x00, 0x00,
  0x3c, 0x00, 0x00, 0x00, 0x01, 0x00, 0x00, 0x00, 0x10, 0x00, 0x00, 0x00,
  0x27, 0x00, 0x00, 0x00, 0x73, 0x65, 0x71, 0x75, 0x65, 0x6e, 0x74, 0x69,
  0x61, 0x6c, 0x2f, 0x64, 0x65, 0x6e, 0x73, 0x65, 0x2f, 0x42, 0x69, 0x61,
  0x73, 0x41, 0x64, 0x64, 0x2f, 0x52, 0x65, 0x61, 0x64, 0x56, 0x61, 0x72,
  0x69, 0x61, 0x62, 0x6c, 0x65, 0x4f, 0x70, 0x00, 0x04, 0x00, 0x06, 0x00,
  0x04, 0x00, 0x00, 0x00, 0x00, 0x00, 0x0e, 0x00, 0x14, 0x00, 0x04, 0x00,
  0x00, 0x00, 0x08, 0x00, 0x0c, 0x00, 0x10, 0x00, 0x0e, 0x00, 0x00, 0x00,
  0x10, 0x00, 0x00, 0x00, 0x01, 0x00, 0x00, 0x00, 0x1c, 0x00, 0x00, 0x00,
  0x2c, 0x00, 0x00, 0x00, 0x04, 0x00, 0x00, 0x00, 0x01, 0x00, 0x00, 0x00,
  0x40, 0x00, 0x00, 0x00, 0x03, 0x00, 0x00, 0x00, 0x01, 0x00, 0x00, 0x00,
  0x0c, 0x00, 0x00, 0x00, 0x63, 0x6f, 0x6e, 0x76, 0x32, 0x64, 0x5f, 0x69,
  0x6e, 0x70, 0x75, 0x74, 0x00, 0x00, 0x00, 0x00, 0xfc, 0xff, 0xff, 0xff,
  0x04, 0x00, 0x04, 0x00, 0x04, 0x00, 0x00, 0x00
};
unsigned int _content_mbed_lab7_model_model_tflite_len = 12248;

	
	
	
