#include "magic_wand_model_data.h"

// We need to keep the data array aligned on some architectures.
#ifdef __has_attribute
#define HAVE_ATTRIBUTE(x) __has_attribute(x)
#else
#define HAVE_ATTRIBUTE(x) 0
#endif
#if HAVE_ATTRIBUTE(aligned) || (defined(__GNUC__) && !defined(__clang__))
#define DATA_ALIGN_ATTRIBUTE __attribute__((aligned(4)))
#else
#define DATA_ALIGN_ATTRIBUTE
#endif

const unsigned char g_magic_wand_model_data[] DATA_ALIGN_ATTRIBUTE = {
  0x08, 0x00, 0x00, 0x00, 0x54, 0x46, 0x4c, 0x33, 0x62, 0xff, 0xff, 0xff,
  0x03, 0x00, 0x00, 0x00, 0x10, 0x00, 0x00, 0x00, 0x24, 0x00, 0x00, 0x00,
  0x78, 0x00, 0x00, 0x00, 0x24, 0x00, 0x00, 0x00, 0x05, 0x00, 0x00, 0x00,
  0x78, 0x05, 0x00, 0x00, 0xb0, 0x04, 0x00, 0x00, 0xe0, 0x02, 0x00, 0x00,
  0x60, 0x02, 0x00, 0x00, 0x54, 0x01, 0x00, 0x00, 0x01, 0x00, 0x00, 0x00,
  0x78, 0x00, 0x00, 0x00, 0x13, 0x00, 0x00, 0x00, 0x18, 0x30, 0x00, 0x00,
  0x14, 0x30, 0x00, 0x00, 0x20, 0x2f, 0x00, 0x00, 0xa8, 0x2e, 0x00, 0x00,
  0x3c, 0x2e, 0x00, 0x00, 0xec, 0x11, 0x00, 0x00, 0x98, 0x10, 0x00, 0x00,
  0xbc, 0x0e, 0x00, 0x00, 0x60, 0x06, 0x00, 0x00, 0xfc, 0x05, 0x00, 0x00,
  0x78, 0x05, 0x00, 0x00, 0xec, 0x2f, 0x00, 0x00, 0xe8, 0x2f, 0x00, 0x00,
  0xe4, 0x2f, 0x00, 0x00, 0xe0, 0x2f, 0x00, 0x00, 0xdc, 0x2f, 0x00, 0x00,
  0xd8, 0x2f, 0x00, 0x00, 0xd4, 0x2f, 0x00, 0x00, 0xd0, 0x2f, 0x00, 0x00,
  0x0f, 0x00, 0x00, 0x00, 0x4d, 0x4c, 0x49, 0x52, 0x20, 0x43, 0x6f, 0x6e,
  0x76, 0x65, 0x72, 0x74, 0x65, 0x64, 0x2e, 0x00, 0x00, 0x00, 0x0e, 0x00,
  0x18, 0x00, 0x04, 0x00, 0x08, 0x00, 0x0c, 0x00, 0x10, 0x00, 0x14, 0x00,
  0x0e, 0x00, 0x00, 0x00, 0x14, 0x00, 0x00, 0x00, 0x5c, 0x00, 0x00, 0x00,
  0x60, 0x00, 0x00, 0x00, 0x64, 0x00, 0x00, 0x00, 0x84, 0x00, 0x00, 0x00,
  0x12, 0x00, 0x00, 0x00, 0x48, 0x2f, 0x00, 0x00, 0xe4, 0x2e, 0x00, 0x00,
  0x3c, 0x2e, 0x00, 0x00, 0xd8, 0x2d, 0x00, 0x00, 0x70, 0x2d, 0x00, 0x00,
  0x1c, 0x11, 0x00, 0x00, 0xc0, 0x0f, 0x00, 0x00, 0xe4, 0x0d, 0x00, 0x00,
  0xa0, 0x05, 0x00, 0x00, 0x3c, 0x05, 0x00, 0x00, 0xb0, 0x04, 0x00, 0x00,
  0xe8, 0x03, 0x00, 0x00, 0x38, 0x03, 0x00, 0x00, 0xa4, 0x02, 0x00, 0x00,
  0x10, 0x02, 0x00, 0x00, 0x90, 0x01, 0x00, 0x00, 0xfc, 0x00, 0x00, 0x00,
  0x80, 0x00, 0x00, 0x00, 0x01, 0x00, 0x00, 0x00, 0x00, 0x00, 0x00, 0x00,
  0x01, 0x00, 0x00, 0x00, 0x11, 0x00, 0x00, 0x00, 0x08, 0x00, 0x00, 0x00,
  0x1c, 0x04, 0x00, 0x00, 0x58, 0x03, 0x00, 0x00, 0xc8, 0x02, 0x00, 0x00,
  0x24, 0x02, 0x00, 0x00, 0xac, 0x01, 0x00, 0x00, 0x10, 0x01, 0x00, 0x00,
  0x94, 0x00, 0x00, 0x00, 0x10, 0x00, 0x00, 0x00, 0x04, 0x00, 0x00, 0x00,
  0x6d, 0x61, 0x69, 0x6e, 0x00, 0x00, 0x00, 0x00, 0x8e, 0xff, 0xff, 0xff,
  0x00, 0x00, 0x00, 0x09, 0x04, 0x00, 0x00, 0x00, 0x1c, 0x00, 0x00, 0x00,
  0x10, 0x00, 0x00, 0x00, 0x04, 0x00, 0x00, 0x00, 0x0a, 0xd2, 0xff, 0xff,
  0x00, 0x00, 0x80, 0x3f, 0x01, 0x00, 0x00, 0x00, 0x11, 0x00, 0x00, 0x00,
  0x01, 0x00, 0x00, 0x00, 0x10, 0x00, 0x00, 0x00, 0xf6, 0xfb, 0xff, 0xff,
  0x00, 0x00, 0x00, 0x19, 0x01, 0x00, 0x00, 0x00, 0x8a, 0xd1, 0xff, 0xff,
  0x10, 0x00, 0x00, 0x00, 0x12, 0x00, 0x00, 0x00, 0x14, 0x00, 0x00, 0x00,
  0x20, 0x00, 0x00, 0x00, 0x02, 0x00, 0x00, 0x00, 0x01, 0x00, 0x00, 0x00,
  0x04, 0x00, 0x00, 0x00, 0x08, 0x00, 0x00, 0x00, 0x49, 0x64, 0x65, 0x6e,
  0x74, 0x69, 0x74, 0x79, 0x00, 0x00, 0x00, 0x00, 0xc4, 0xd1, 0xff, 0xff,
  0x00, 0x00, 0x0e, 0x00, 0x18, 0x00, 0x08, 0x00, 0x0c, 0x00, 0x10, 0x00,
  0x07, 0x00, 0x14, 0x00, 0x0e, 0x00, 0x00, 0x00, 0x00, 0x00, 0x00, 0x08,
  0x03, 0x00, 0x00, 0x00, 0x18, 0x00, 0x00, 0x00, 0x0c, 0x00, 0x00, 0x00,
  0x04, 0x00, 0x00, 0x00, 0x98, 0xd1, 0xff, 0xff, 0x01, 0x00, 0x00, 0x00,
  0x10, 0x00, 0x00, 0x00, 0x03, 0x00, 0x00, 0x00, 0x0f, 0x00, 0x00, 0x00,
  0x05, 0x00, 0x00, 0x00, 0x02, 0x00, 0x00, 0x00, 0x02, 0xd2, 0xff, 0xff,
  0x10, 0x00, 0x00, 0x00, 0x11, 0x00, 0x00, 0x00, 0x14, 0x00, 0x00, 0x00,
  0x30, 0x00, 0x00, 0x00, 0x02, 0x00, 0x00, 0x00, 0x01, 0x00, 0x00, 0x00,
  0x04, 0x00, 0x00, 0x00, 0x1a, 0x00, 0x00, 0x00, 0x73, 0x65, 0x71, 0x75,
  0x65, 0x6e, 0x74, 0x69, 0x61, 0x6c, 0x2f, 0x64, 0x65, 0x6e, 0x73, 0x65,
  0x5f, 0x31, 0x2f, 0x42, 0x69, 0x61, 0x73, 0x41, 0x64, 0x64, 0x00, 0x00,
  0xf4, 0xd1, 0xff, 0xff, 0xd6, 0xfd, 0xff, 0xff, 0x00, 0x00, 0x00, 0x08,
  0x03, 0x00, 0x00, 0x00, 0x24, 0x00, 0x00, 0x00, 0x18, 0x00, 0x00, 0x00,
  0x0c, 0x00, 0x00, 0x00, 0x00, 0x00, 0x06, 0x00, 0x08, 0x00, 0x07, 0x00,
  0x06, 0x00, 0x00, 0x00, 0x00, 0x00, 0x00, 0x01, 0x01, 0x00, 0x00, 0x00,
  0x0f, 0x00, 0x00, 0x00, 0x03, 0x00, 0x00, 0x00, 0x0e, 0x00, 0x00, 0x00,
  0x04, 0x00, 0x00, 0x00, 0x01, 0x00, 0x00, 0x00, 0xfe, 0xfc, 0xff, 0xff,
  0x00, 0x00, 0x00, 0x09, 0x01, 0x00, 0x00, 0x00, 0x92, 0xd2, 0xff, 0xff,
  0x10, 0x00, 0x00, 0x00, 0x10, 0x00, 0x00, 0x00, 0x14, 0x00, 0x00, 0x00,
  0x2c, 0x00, 0x00, 0x00, 0x02, 0x00, 0x00, 0x00, 0x01, 0x00, 0x00, 0x00,
  0x10, 0x00, 0x00, 0x00, 0x15, 0x00, 0x00, 0x00, 0x73, 0x65, 0x71, 0x75,
  0x65, 0x6e, 0x74, 0x69, 0x61, 0x6c, 0x2f, 0x64, 0x65, 0x6e, 0x73, 0x65,
  0x2f, 0x52, 0x65, 0x6c, 0x75, 0x00, 0x00, 0x00, 0xd8, 0xd2, 0xff, 0xff,
  0x00, 0x00, 0x0a, 0x00, 0x10, 0x00, 0x04, 0x00, 0x08, 0x00, 0x0c, 0x00,
  0x0a, 0x00, 0x00, 0x00, 0x02, 0x00, 0x00, 0x00, 0x10, 0x00, 0x00, 0x00,
  0x04, 0x00, 0x00, 0x00, 0x01, 0x00, 0x00, 0x00, 0x0e, 0x00, 0x00, 0x00,
  0x02, 0x00, 0x00, 0x00, 0x0d, 0x00, 0x00, 0x00, 0x03, 0x00, 0x00, 0x00,
  0x7a, 0xfd, 0xff, 0xff, 0x00, 0x00, 0x00, 0x16, 0x01, 0x00, 0x00, 0x00,
  0x0e, 0xd3, 0xff, 0xff, 0x10, 0x00, 0x00, 0x00, 0x0f, 0x00, 0x00, 0x00,
  0x14, 0x00, 0x00, 0x00, 0x30, 0x00, 0x00, 0x00, 0x02, 0x00, 0x00, 0x00,
  0x01, 0x00, 0x00, 0x00, 0x70, 0x00, 0x00, 0x00, 0x1a, 0x00, 0x00, 0x00,
  0x73, 0x65, 0x71, 0x75, 0x65, 0x6e, 0x74, 0x69, 0x61, 0x6c, 0x2f, 0x66,
  0x6c, 0x61, 0x74, 0x74, 0x65, 0x6e, 0x2f, 0x52, 0x65, 0x73, 0x68, 0x61,
  0x70, 0x65, 0x00, 0x00, 0x00, 0xd3, 0xff, 0xff, 0xe2, 0xfe, 0xff, 0xff,
  0x00, 0x00, 0x00, 0x05, 0x01, 0x00, 0x00, 0x00, 0x38, 0x00, 0x00, 0x00,
  0x2c, 0x00, 0x00, 0x00, 0x14, 0x00, 0x00, 0x00, 0x00, 0x00, 0x0e, 0x00,
  0x14, 0x00, 0x00, 0x00, 0x10, 0x00, 0x0c, 0x00, 0x08, 0x00, 0x04, 0x00,
  0x0e, 0x00, 0x00, 0x00, 0x03, 0x00, 0x00, 0x00, 0x01, 0x00, 0x00, 0x00,
  0x03, 0x00, 0x00, 0x00, 0x01, 0x00, 0x00, 0x00, 0x01, 0x00, 0x00, 0x00,
  0x0d, 0x00, 0x00, 0x00, 0x01, 0x00, 0x00, 0x00, 0x0c, 0x00, 0x00, 0x00,
  0x9e, 0xd3, 0xff, 0xff, 0x10, 0x00, 0x00, 0x00, 0x0e, 0x00, 0x00, 0x00,
  0x1c, 0x00, 0x00, 0x00, 0x40, 0x00, 0x00, 0x00, 0x04, 0x00, 0x00, 0x00,
  0x01, 0x00, 0x00, 0x00, 0x07, 0x00, 0x00, 0x00, 0x01, 0x00, 0x00, 0x00,
  0x10, 0x00, 0x00, 0x00, 0x22, 0x00, 0x00, 0x00, 0x73, 0x65, 0x71, 0x75,
  0x65, 0x6e, 0x74, 0x69, 0x61, 0x6c, 0x2f, 0x6d, 0x61, 0x78, 0x5f, 0x70,
  0x6f, 0x6f, 0x6c, 0x69, 0x6e, 0x67, 0x32, 0x64, 0x5f, 0x31, 0x2f, 0x4d,
  0x61, 0x78, 0x50, 0x6f, 0x6f, 0x6c, 0x00, 0x00, 0xa0, 0xd3, 0xff, 0xff,
  0xc2, 0xfe, 0xff, 0xff, 0x00, 0x00, 0x00, 0x01, 0x24, 0x00, 0x00, 0x00,
  0x18, 0x00, 0x00, 0x00, 0x04, 0x00, 0x00, 0x00, 0xb4, 0xfe, 0xff, 0xff,
  0x01, 0x00, 0x00, 0x00, 0x01, 0x00, 0x00, 0x00, 0x00, 0x00, 0x00, 0x01,
  0x01, 0x00, 0x00, 0x00, 0x0c, 0x00, 0x00, 0x00, 0x03, 0x00, 0x00, 0x00,
  0x0b, 0x00, 0x00, 0x00, 0x07, 0x00, 0x00, 0x00, 0x09, 0x00, 0x00, 0x00,
  0x2e, 0xd4, 0xff, 0xff, 0x10, 0x00, 0x00, 0x00, 0x0d, 0x00, 0x00, 0x00,
  0x1c, 0x00, 0x00, 0x00, 0x2c, 0x00, 0x00, 0x00, 0x04, 0x00, 0x00, 0x00,
  0x01, 0x00, 0x00, 0x00, 0x15, 0x00, 0x00, 0x00, 0x01, 0x00, 0x00, 0x00,
  0x10, 0x00, 0x00, 0x00, 0x0c, 0x00, 0x00, 0x00, 0x74, 0x66, 0x6c, 0x2e,
  0x63, 0x6f, 0x6e, 0x76, 0x5f, 0x32, 0x64, 0x31, 0x00, 0x00, 0x00, 0x00,
  0x74, 0xd4, 0xff, 0xff, 0x00, 0x00, 0x0e, 0x00, 0x1a, 0x00, 0x08, 0x00,
  0x0c, 0x00, 0x10, 0x00, 0x07, 0x00, 0x14, 0x00, 0x0e, 0x00, 0x00, 0x00,
  0x00, 0x00, 0x00, 0x05, 0x01, 0x00, 0x00, 0x00, 0x3c, 0x00, 0x00, 0x00,
  0x30, 0x00, 0x00, 0x00, 0x14, 0x00, 0x00, 0x00, 0x00, 0x00, 0x0e, 0x00,
  0x18, 0x00, 0x17, 0x00, 0x10, 0x00, 0x0c, 0x00, 0x08, 0x00, 0x04, 0x00,
  0x0e, 0x00, 0x00, 0x00, 0x03, 0x00, 0x00, 0x00, 0x03, 0x00, 0x00, 0x00,
  0x03, 0x00, 0x00, 0x00, 0x03, 0x00, 0x00, 0x00, 0x00, 0x00, 0x00, 0x01,
  0x01, 0x00, 0x00, 0x00, 0x0b, 0x00, 0x00, 0x00, 0x01, 0x00, 0x00, 0x00,
  0x0a, 0x00, 0x00, 0x00, 0x46, 0xff, 0xff, 0xff, 0x00, 0x00, 0x00, 0x11,
  0x01, 0x00, 0x00, 0x00, 0xda, 0xd4, 0xff, 0xff, 0x10, 0x00, 0x00, 0x00,
  0x0c, 0x00, 0x00, 0x00, 0x1c, 0x00, 0x00, 0x00, 0x40, 0x00, 0x00, 0x00,
  0x04, 0x00, 0x00, 0x00, 0x01, 0x00, 0x00, 0x00, 0x15, 0x00, 0x00, 0x00,
  0x01, 0x00, 0x00, 0x00, 0x08, 0x00, 0x00, 0x00, 0x20, 0x00, 0x00, 0x00,
  0x73, 0x65, 0x71, 0x75, 0x65, 0x6e, 0x74, 0x69, 0x61, 0x6c, 0x2f, 0x6d,
  0x61, 0x78, 0x5f, 0x70, 0x6f, 0x6f, 0x6c, 0x69, 0x6e, 0x67, 0x32, 0x64,
  0x2f, 0x4d, 0x61, 0x78, 0x50, 0x6f, 0x6f, 0x6c, 0x00, 0x00, 0x00, 0x00,
  0x34, 0xd5, 0xff, 0xff, 0x00, 0x00, 0x0e, 0x00, 0x14, 0x00, 0x00, 0x00,
  0x08, 0x00, 0x0c, 0x00, 0x07, 0x00, 0x10, 0x00, 0x0e, 0x00, 0x00, 0x00,
  0x00, 0x00, 0x00, 0x01, 0x30, 0x00, 0x00, 0x00, 0x24, 0x00, 0x00, 0x00,
  0x10, 0x00, 0x00, 0x00, 0x0c, 0x00, 0x10, 0x00, 0x00, 0x00, 0x04, 0x00,
  0x08, 0x00, 0x0f, 0x00, 0x0c, 0x00, 0x00, 0x00, 0x01, 0x00, 0x00, 0x00,
  0x01, 0x00, 0x00, 0x00, 0x00, 0x00, 0x00, 0x01, 0x01, 0x00, 0x00, 0x00,
  0x0a, 0x00, 0x00, 0x00, 0x03, 0x00, 0x00, 0x00, 0x00, 0x00, 0x00, 0x00,
  0x06, 0x00, 0x00, 0x00, 0x08, 0x00, 0x00, 0x00, 0x00, 0x00, 0x0a, 0x00,
  0x0c, 0x00, 0x07, 0x00, 0x00, 0x00, 0x08, 0x00, 0x0a, 0x00, 0x00, 0x00,
  0x00, 0x00, 0x00, 0x03, 0x01, 0x00, 0x00, 0x00, 0x9e, 0xd5, 0xff, 0xff,
  0x10, 0x00, 0x00, 0x00, 0x0b, 0x00, 0x00, 0x00, 0x1c, 0x00, 0x00, 0x00,
  0x28, 0x00, 0x00, 0x00, 0x04, 0x00, 0x00, 0x00, 0x01, 0x00, 0x00, 0x00,
  0x40, 0x00, 0x00, 0x00, 0x03, 0x00, 0x00, 0x00, 0x08, 0x00, 0x00, 0x00,
  0x0b, 0x00, 0x00, 0x00, 0x74, 0x66, 0x6c, 0x2e, 0x63, 0x6f, 0x6e, 0x76,
  0x5f, 0x32, 0x64, 0x00, 0x88, 0xd5, 0xff, 0xff, 0x7e, 0xd6, 0xff, 0xff,
  0x04, 0x00, 0x00, 0x00, 0x40, 0x00, 0x00, 0x00, 0x84, 0xae, 0xeb, 0xbe,
  0x5f, 0xcc, 0x83, 0xbe, 0x91, 0x1d, 0xb2, 0xbd, 0x2b, 0x9d, 0xf9, 0xbd,
  0xbb, 0x66, 0x3b, 0x40, 0xd2, 0x7f, 0x95, 0x40, 0x30, 0x1e, 0xad, 0xbb,
  0xb8, 0xa5, 0xfd, 0xbf, 0x4c, 0xd9, 0xa0, 0xbe, 0x2a, 0x44, 0xd4, 0xbf,
  0x38, 0xf1, 0xa8, 0xbf, 0x06, 0x50, 0x59, 0xbe, 0xe3, 0x03, 0x84, 0xbe,
  0xc7, 0xdc, 0xbb, 0x40, 0x84, 0x33, 0x9c, 0xbf, 0xad, 0xc4, 0xd8, 0x3f,
  0x26, 0xd6, 0xff, 0xff, 0x10, 0x00, 0x00, 0x00, 0x0a, 0x00, 0x00, 0x00,
  0x10, 0x00, 0x00, 0x00, 0x20, 0x00, 0x00, 0x00, 0x01, 0x00, 0x00, 0x00,
  0x10, 0x00, 0x00, 0x00, 0x0d, 0x00, 0x00, 0x00, 0x73, 0x74, 0x64, 0x2e,
  0x63, 0x6f, 0x6e, 0x73, 0x74, 0x61, 0x6e, 0x74, 0x31, 0x00, 0x00, 0x00,
  0x08, 0xd6, 0xff, 0xff, 0xfe, 0xd6, 0xff, 0xff, 0x04, 0x00, 0x00, 0x00,
  0x20, 0x00, 0x00, 0x00, 0x8d, 0x1e, 0x87, 0xbf, 0x31, 0x25, 0x9d, 0xbf,
  0xd1, 0x9f, 0x97, 0xbf, 0x9d, 0x92, 0xae, 0xbf, 0x98, 0x8d, 0xf4, 0xbf,
  0xc1, 0x65, 0x41, 0xbe, 0x6b, 0x2a, 0xf2, 0xbf, 0xef, 0x11, 0x25, 0xbf,
  0x86, 0xd6, 0xff, 0xff, 0x10, 0x00, 0x00, 0x00, 0x09, 0x00, 0x00, 0x00,
  0x10, 0x00, 0x00, 0x00, 0x20, 0x00, 0x00, 0x00, 0x01, 0x00, 0x00, 0x00,
  0x08, 0x00, 0x00, 0x00, 0x0c, 0x00, 0x00, 0x00, 0x73, 0x74, 0x64, 0x2e,
  0x63, 0x6f, 0x6e, 0x73, 0x74, 0x61, 0x6e, 0x74, 0x00, 0x00, 0x00, 0x00,
  0x68, 0xd6, 0xff, 0xff, 0x5e, 0xd7, 0xff, 0xff, 0x04, 0x00, 0x00, 0x00,
  0x00, 0x08, 0x00, 0x00, 0x3a, 0xaa, 0x76, 0x3e, 0x94, 0xdd, 0xb6, 0xbd,
  0x09, 0xbb, 0xf6, 0xbb, 0x99, 0x24, 0xe0, 0xbd, 0xc3, 0xf9, 0xbe, 0x3d,
  0xbc, 0x01, 0x8f, 0xbd, 0x77, 0xad, 0x9c, 0x3e, 0xb8, 0x87, 0x46, 0xbe,
  0x70, 0x3f, 0x80, 0x3d, 0x0c, 0x83, 0x6a, 0xbc, 0xef, 0x98, 0xe3, 0xbd,
  0x12, 0x0a, 0xde, 0xbd, 0xc6, 0x6c, 0xae, 0x3d, 0x9a, 0xcc, 0x92, 0xbd,
  0x2e, 0x0d, 0xbe, 0xbc, 0x39, 0x02, 0xf2, 0xbd, 0x39, 0x64, 0xd5, 0x3d,
  0x6a, 0x1d, 0x48, 0xbe, 0xe1, 0x15, 0xef, 0xbd, 0xef, 0xcd, 0x0d, 0xbe,
  0xea, 0x87, 0x0c, 0x3e, 0x14, 0x2b, 0x9f, 0xbd, 0x15, 0xf6, 0x50, 0x3c,
  0xe2, 0x84, 0x5a, 0x3b, 0x31, 0xfd, 0x42, 0x3e, 0x75, 0xa6, 0x22, 0xbe,
  0x91, 0x4c, 0x80, 0xbd, 0x6b, 0xc4, 0xfd, 0xbd, 0x3a, 0x3c, 0x4e, 0x3d,
  0x0f, 0x21, 0xab, 0xbd, 0x17, 0xef, 0x97, 0xbd, 0x58, 0x9c, 0x10, 0x3e,
  0x3e, 0x0f, 0xea, 0xbb, 0xe2, 0xcd, 0x1e, 0x3e, 0x8b, 0xc2, 0xa5, 0x3d,
  0x80, 0xf4, 0x48, 0x3c, 0xfd, 0x73, 0xb4, 0x3d, 0x77, 0x0c, 0x34, 0xbd,
  0x12, 0x29, 0xb7, 0x3c, 0xd9, 0x56, 0xc3, 0xbc, 0x24, 0x89, 0x2c, 0xbc,
  0x92, 0xeb, 0x75, 0x3e, 0xdb, 0xee, 0xb4, 0x3d, 0xff, 0x49, 0xbe, 0xbd,
  0x32, 0xcc, 0xd8, 0x3c, 0xbb, 0x8a, 0xe5, 0xbc, 0x45, 0x5a, 0xc1, 0x3d,
  0xdd, 0xa1, 0xef, 0xbb, 0x8f, 0x69, 0x98, 0xbc, 0x30, 0xb9, 0x86, 0x3c,
  0x2a, 0x35, 0x13, 0xbe, 0xbd, 0xf1, 0xf7, 0xbd, 0x55, 0x52, 0xf0, 0x3e,
  0xf1, 0xb8, 0xc8, 0xbb, 0x95, 0x69, 0x68, 0x3d, 0x4a, 0xed, 0xea, 0xbb,
  0xf2, 0x8c, 0xe7, 0xbb, 0xb3, 0x35, 0x1c, 0xbe, 0x87, 0x0a, 0xb5, 0xbd,
  0x93, 0xf8, 0x95, 0xbd, 0xc9, 0x36, 0x95, 0x3e, 0xd8, 0x7d, 0x55, 0xbb,
  0x0f, 0x5c, 0x88, 0x3b, 0x12, 0xdb, 0xc0, 0x3b, 0x78, 0x87, 0x02, 0xbe,
  0xc2, 0xa0, 0x23, 0x3c, 0x1b, 0x29, 0x30, 0x3e, 0x83, 0xc7, 0x81, 0x3d,
  0xed, 0xff, 0xb3, 0xbb, 0xb9, 0xba, 0x9f, 0xbc, 0xcc, 0x3e, 0x94, 0xbd,
  0xac, 0xdf, 0x8c, 0xbd, 0x82, 0x5f, 0x8e, 0xbd, 0x45, 0xf8, 0x67, 0xbe,
  0x7a, 0x4e, 0xc4, 0xbd, 0xa0, 0xee, 0xe7, 0x3b, 0xec, 0x6f, 0x4f, 0x3e,
  0xa8, 0x12, 0xbc, 0xbd, 0xea, 0x64, 0xb2, 0xbc, 0x24, 0x33, 0x32, 0x3e,
  0xdd, 0x80, 0xa7, 0xbd, 0xfc, 0x87, 0x11, 0x3e, 0x6b, 0xf9, 0xfd, 0x3d,
  0x08, 0x65, 0x26, 0xba, 0x81, 0xce, 0xd1, 0xbc, 0x6a, 0x69, 0x88, 0x3d,
  0x07, 0xd9, 0x17, 0xbc, 0x5c, 0xfd, 0x1b, 0x3e, 0x3f, 0xb7, 0x86, 0xbd,
  0x9e, 0x85, 0x0c, 0x3d, 0x59, 0xaf, 0xf6, 0xbd, 0x88, 0x4a, 0x0a, 0x3e,
  0x9e, 0xe8, 0x89, 0xbd, 0xef, 0x80, 0x8d, 0x3e, 0x87, 0x8c, 0xff, 0xbd,
  0x75, 0xa5, 0xba, 0xbd, 0xf1, 0x42, 0xb8, 0x3d, 0x9a, 0x9e, 0x86, 0xbe,
  0xab, 0x0f, 0xe4, 0xbd, 0x38, 0xbc, 0x82, 0xbe, 0x43, 0x64, 0x09, 0xbd,
  0x05, 0x51, 0x41, 0xbd, 0x87, 0xf2, 0xc6, 0x3d, 0xf3, 0x5e, 0x9e, 0x3c,
  0x50, 0x77, 0x7b, 0xbe, 0x2f, 0xdb, 0x89, 0xbe, 0x0c, 0xec, 0x69, 0xbe,
  0x9a, 0xfa, 0x0c, 0x3e, 0xa8, 0x97, 0xbf, 0xbd, 0xa6, 0x96, 0x8a, 0x3b,
  0x0b, 0x09, 0xb1, 0xbe, 0x57, 0x3e, 0x14, 0xbe, 0x96, 0x48, 0x91, 0xbe,
  0x11, 0xed, 0x9f, 0x3c, 0xb9, 0x4c, 0x7a, 0xbe, 0x00, 0x17, 0x48, 0xbe,
  0xf5, 0x41, 0xd8, 0x3d, 0x8a, 0x50, 0xe3, 0xbd, 0xa1, 0x60, 0xab, 0xbe,
  0x0c, 0xa4, 0x81, 0x3c, 0xcf, 0x26, 0x9d, 0xbe, 0x21, 0xad, 0x6a, 0xbe,
  0x93, 0x44, 0x33, 0xbe, 0x8c, 0xac, 0x08, 0x3c, 0x1a, 0x5a, 0x7a, 0xbd,
  0x53, 0xed, 0x80, 0xbe, 0x43, 0x4d, 0x57, 0xbe, 0x32, 0x75, 0x84, 0xbc,
  0x54, 0xb4, 0xcf, 0x3b, 0xe7, 0xb6, 0xc4, 0xbd, 0x36, 0x24, 0xb9, 0x3e,
  0xaa, 0xaf, 0x8e, 0x3e, 0x0e, 0x66, 0xa8, 0x3e, 0x06, 0xb8, 0xd6, 0xbe,
  0x9c, 0x43, 0x97, 0x3d, 0x0d, 0x31, 0xe0, 0xbe, 0xf5, 0x59, 0x29, 0xbe,
  0xdc, 0xd8, 0x8f, 0xbe, 0x75, 0xcc, 0xfd, 0xbd, 0x22, 0x47, 0x4a, 0xbe,
  0x14, 0xae, 0xc3, 0xbd, 0xb3, 0x1a, 0xf7, 0xbe, 0x1a, 0xbc, 0x2b, 0x3e,
  0x22, 0x86, 0x98, 0xbe, 0x02, 0xcb, 0x36, 0xbe, 0xb6, 0x30, 0x84, 0xbe,
  0xf5, 0xd0, 0x3c, 0xbe, 0xe8, 0x08, 0xae, 0xbe, 0x88, 0xbd, 0xfd, 0x3d,
  0x87, 0x71, 0xcd, 0x39, 0x85, 0xaf, 0x1d, 0x3e, 0xdf, 0xfb, 0xd1, 0xbc,
  0x05, 0x16, 0xaa, 0xbe, 0xc2, 0x9e, 0xc1, 0xbd, 0x7b, 0x82, 0x3b, 0xbe,
  0x26, 0xcf, 0x6c, 0xbe, 0x1b, 0x5d, 0x63, 0x3e, 0xec, 0x0b, 0xdc, 0x3d,
  0xde, 0x03, 0x21, 0x3e, 0xf3, 0x5e, 0xa6, 0xbd, 0x7d, 0x7d, 0xcb, 0x3d,
  0xad, 0xfd, 0x3b, 0x3d, 0xea, 0xbe, 0x4d, 0x3e, 0xe9, 0x6c, 0x26, 0x3f,
  0x07, 0x4f, 0xc6, 0x3e, 0x14, 0x35, 0x87, 0xbe, 0x49, 0x5b, 0x93, 0xbe,
  0xf6, 0x25, 0xe4, 0xbc, 0xa2, 0xb9, 0xe7, 0xba, 0x32, 0x18, 0xab, 0xbd,
  0xae, 0x64, 0xb4, 0xbd, 0x74, 0xe8, 0x8c, 0xbd, 0xd5, 0x58, 0x23, 0x3d,
  0x8f, 0xc5, 0xd2, 0xbe, 0x06, 0xd2, 0xa5, 0x3d, 0x3c, 0xf5, 0x99, 0xbe,
  0xf0, 0xed, 0xf3, 0xbd, 0x0f, 0x9b, 0x54, 0xbe, 0xb8, 0xcc, 0x37, 0xbe,
  0xb0, 0x7b, 0x20, 0xbe, 0xb6, 0x76, 0x47, 0x3c, 0x87, 0xb6, 0x8c, 0xbe,
  0x3d, 0x8c, 0x81, 0x3e, 0x43, 0x02, 0x6b, 0x3c, 0xba, 0x3e, 0x1a, 0xbe,
  0x47, 0xdd, 0xb2, 0xbe, 0x8a, 0x01, 0x56, 0xbe, 0x74, 0xca, 0x3d, 0xbe,
  0x3a, 0x94, 0xbb, 0x3c, 0x2c, 0xed, 0x77, 0xbe, 0xec, 0xfb, 0x76, 0x3d,
  0xbf, 0xd2, 0x1b, 0xbe, 0x89, 0x6c, 0xdb, 0xbd, 0x16, 0x2a, 0x60, 0xbe,
  0x1a, 0xf9, 0xbe, 0xbd, 0xad, 0x2c, 0xc9, 0xbe, 0x8e, 0x50, 0x89, 0xbe,
  0x9f, 0x4e, 0x1a, 0xbf, 0x02, 0xaa, 0x8c, 0xbe, 0x9f, 0x6c, 0xca, 0xbe,
  0x50, 0xc9, 0x3a, 0x3d, 0xdc, 0x09, 0x53, 0x3e, 0xde, 0x97, 0xdc, 0x3e,
  0x7f, 0x92, 0x8a, 0x3d, 0x31, 0xdd, 0x0c, 0xbe, 0xc4, 0xc5, 0x71, 0xbd,
  0x30, 0x90, 0x60, 0x3c, 0x4e, 0x49, 0x73, 0xbd, 0xaf, 0x3f, 0xb6, 0x3d,
  0x7d, 0x8a, 0x67, 0xbd, 0x3b, 0xd5, 0x44, 0x3d, 0x4b, 0x7c, 0x92, 0xbe,
  0xa5, 0xdb, 0xd0, 0x3d, 0xf4, 0x0a, 0x3d, 0xbe, 0x2e, 0x98, 0x26, 0x3d,
  0x86, 0x0b, 0xf5, 0xbd, 0x22, 0x20, 0x55, 0x3d, 0xb3, 0xc6, 0xf4, 0xbb,
  0x6a, 0xa1, 0xf5, 0x3d, 0x69, 0x65, 0x52, 0xbe, 0x21, 0xc6, 0xcf, 0x3e,
  0x8f, 0x1d, 0x48, 0xbe, 0xf9, 0xaf, 0x24, 0x3e, 0x04, 0x25, 0x69, 0xbd,
  0xfc, 0x54, 0x6b, 0x3e, 0xf6, 0x3f, 0x30, 0x3b, 0xdf, 0xba, 0x30, 0xbe,
  0x71, 0x69, 0x54, 0xbe, 0x41, 0x1d, 0xab, 0xbd, 0x2a, 0x1d, 0xb0, 0xbe,
  0xb0, 0x05, 0x29, 0x3f, 0x62, 0x12, 0xff, 0x3e, 0xa7, 0x2b, 0xdf, 0xbe,
  0x84, 0x20, 0xdf, 0x3d, 0x05, 0xc8, 0x78, 0xbd, 0x99, 0x8a, 0xeb, 0xbd,
  0xd1, 0x1c, 0x47, 0xbe, 0x95, 0xa6, 0x89, 0xbe, 0x28, 0x66, 0x81, 0xbd,
  0xaa, 0xa6, 0xa6, 0xbd, 0xb0, 0x29, 0xdf, 0xbe, 0x06, 0x8a, 0x29, 0x3c,
  0xe9, 0x99, 0x53, 0x3c, 0xd3, 0x50, 0x71, 0xbd, 0xf6, 0xaa, 0x35, 0x3e,
  0xf9, 0xfe, 0x06, 0xbd, 0x03, 0xa3, 0x96, 0x3c, 0xaf, 0x31, 0xed, 0xbe,
  0x13, 0x21, 0xf6, 0xbe, 0xaf, 0x7e, 0xa2, 0xbe, 0x90, 0xa9, 0x09, 0x3e,
  0xe4, 0x0a, 0x89, 0xbc, 0x40, 0x9c, 0x6e, 0x3e, 0xf5, 0x5c, 0xb3, 0x3d,
  0x88, 0x93, 0x95, 0xbe, 0xbf, 0xb3, 0xd7, 0xbe, 0x5c, 0x8e, 0x96, 0x3c,
  0x3c, 0xd5, 0x55, 0xbe, 0xfa, 0xb9, 0x56, 0x3e, 0x72, 0x2d, 0x0a, 0x3e,
  0x4f, 0xb7, 0xca, 0xbe, 0x71, 0x25, 0x01, 0xbe, 0x24, 0xc3, 0x0b, 0xbe,
  0x22, 0x9a, 0x6a, 0xbe, 0x63, 0x1c, 0x71, 0x3e, 0x2f, 0x8d, 0xa2, 0x3d,
  0x07, 0x10, 0xf0, 0x3c, 0x18, 0xa8, 0xe6, 0x3d, 0xd0, 0xef, 0xa5, 0xbd,
  0x3c, 0x2f, 0xae, 0x3d, 0x39, 0x48, 0x04, 0x3c, 0x55, 0xe1, 0xc2, 0xbd,
  0x84, 0x9d, 0x02, 0xbd, 0xc4, 0xb3, 0xa0, 0xbe, 0x16, 0x67, 0x87, 0xbe,
  0x70, 0x71, 0xa3, 0xbd, 0x1e, 0x46, 0x75, 0x3e, 0xcb, 0x71, 0x36, 0xbe,
  0x22, 0x5c, 0x48, 0x3e, 0x84, 0x40, 0x83, 0xbe, 0xa2, 0x39, 0x57, 0xbd,
  0x30, 0x63, 0x4e, 0xbf, 0x96, 0x28, 0xf3, 0xbe, 0x3c, 0x04, 0xda, 0xbc,
  0xc7, 0x69, 0x19, 0x3f, 0x5a, 0xe7, 0xf0, 0xbd, 0x79, 0xa8, 0x1f, 0x3e,
  0x91, 0xa7, 0x67, 0xbe, 0x6a, 0xf2, 0x3a, 0xbe, 0x69, 0x03, 0xba, 0xbd,
  0x8d, 0x9c, 0xf4, 0xbd, 0x74, 0xa1, 0xf8, 0x3e, 0xf0, 0x45, 0x99, 0x3d,
  0x5f, 0xee, 0x23, 0x3a, 0xf4, 0xab, 0x0f, 0xbe, 0xfb, 0xc9, 0x5a, 0xbe,
  0x4e, 0xe2, 0xdd, 0xbd, 0x4e, 0x4b, 0x11, 0x3e, 0x95, 0xcb, 0x41, 0x3e,
  0x47, 0x1a, 0x30, 0xbe, 0x34, 0x02, 0x02, 0x3e, 0xc1, 0x57, 0xb8, 0xbd,
  0x46, 0x68, 0x34, 0xbd, 0x24, 0x2a, 0x9a, 0xbe, 0xcf, 0xf5, 0xbb, 0xbd,
  0x4f, 0x91, 0xf0, 0xbd, 0x20, 0xbc, 0x51, 0xbd, 0x7d, 0x08, 0xe9, 0xbd,
  0xe5, 0xe6, 0x7c, 0x3e, 0xa2, 0x9c, 0xc3, 0xbe, 0x65, 0x2e, 0x9d, 0x3d,
  0x4b, 0x89, 0x39, 0xbf, 0xce, 0xf4, 0x2a, 0xbe, 0x70, 0x33, 0xd1, 0xbe,
  0x2d, 0xe9, 0x1b, 0xbe, 0x7e, 0x5c, 0x5d, 0xbe, 0x44, 0xb8, 0xa9, 0x3e,
  0x38, 0xa4, 0xa4, 0xbe, 0xc1, 0x82, 0xf7, 0x3d, 0xc6, 0x02, 0x9f, 0xbe,
  0x60, 0x5a, 0x82, 0xbe, 0xc4, 0xd0, 0x0e, 0xbe, 0xf3, 0x8a, 0x1a, 0xbe,
  0x3c, 0x76, 0xa4, 0xbd, 0x36, 0x4a, 0x6d, 0xbe, 0x5f, 0x5b, 0x52, 0x3c,
  0x26, 0xdb, 0xa3, 0x3d, 0x5b, 0x55, 0x69, 0x3d, 0x71, 0x22, 0x42, 0xbe,
  0xb7, 0x96, 0x91, 0x3e, 0x3e, 0x5e, 0x02, 0xbe, 0xea, 0x26, 0x96, 0xbd,
  0xb3, 0x09, 0x4e, 0xbe, 0x5d, 0xb6, 0x16, 0xbd, 0xa6, 0x0a, 0x2a, 0xbe,
  0x76, 0x4a, 0x34, 0x3c, 0xd3, 0xc2, 0x79, 0xbe, 0x90, 0xd9, 0xe1, 0x3e,
  0x6b, 0x43, 0x52, 0x3c, 0x46, 0xf3, 0x02, 0x3e, 0xd3, 0xa8, 0xfc, 0x3b,
  0xab, 0x7b, 0x21, 0xbd, 0xde, 0x2d, 0x29, 0x3d, 0x02, 0x06, 0xad, 0xbd,
  0x44, 0x1b, 0x1f, 0xbe, 0x46, 0x50, 0xb1, 0xbe, 0x59, 0xb6, 0x0a, 0xbd,
  0xe4, 0xb2, 0xde, 0xbc, 0x6a, 0x8d, 0x03, 0x3e, 0x05, 0x4f, 0x01, 0xbe,
  0x1b, 0xb5, 0x97, 0x3d, 0x50, 0x1b, 0xad, 0xbe, 0x1c, 0x6f, 0x6c, 0x3d,
  0x76, 0x1d, 0xa3, 0xbe, 0xc4, 0x21, 0x1c, 0xbe, 0x13, 0x4d, 0xe5, 0xbe,
  0xa2, 0x1e, 0xaa, 0xbe, 0x65, 0x63, 0x64, 0x3d, 0x16, 0x17, 0x31, 0x3d,
  0xd5, 0xc1, 0x88, 0x3d, 0xef, 0x5e, 0xa9, 0x3d, 0xc9, 0x81, 0x08, 0x3b,
  0xd3, 0x7a, 0xd8, 0xbd, 0x92, 0x0b, 0xeb, 0xbe, 0x60, 0x6d, 0xd6, 0xbe,
  0x93, 0x38, 0x0d, 0xbe, 0xdd, 0xc9, 0x3a, 0x3e, 0xa6, 0x8b, 0xcf, 0xbd,
  0x40, 0xf1, 0xc9, 0x3c, 0x6a, 0xfb, 0x49, 0xbf, 0x79, 0x1f, 0x09, 0x3e,
  0x26, 0xe6, 0x11, 0xbf, 0x4b, 0x66, 0xf3, 0xbe, 0x0c, 0xa3, 0x60, 0xbd,
  0x94, 0x25, 0xa2, 0xbc, 0x3c, 0x22, 0xd0, 0xbd, 0x3e, 0x56, 0x38, 0x3e,
  0xe2, 0xbf, 0xae, 0x3c, 0xf7, 0xa3, 0xb2, 0xbe, 0x24, 0x32, 0x0c, 0xbd,
  0x51, 0xf6, 0xbd, 0x3e, 0x4f, 0xf2, 0xb3, 0xbd, 0xf2, 0xfc, 0xeb, 0x3d,
  0xeb, 0xc8, 0x12, 0xbe, 0x64, 0xc6, 0x2d, 0xbe, 0x60, 0xb0, 0xb5, 0xbe,
  0xde, 0x3c, 0x45, 0xbe, 0xd3, 0x8a, 0x0e, 0xbd, 0x77, 0x86, 0x31, 0xbe,
  0x71, 0x2f, 0xc0, 0x3d, 0x46, 0xa5, 0xc1, 0x3d, 0xb9, 0x86, 0x50, 0xbe,
  0x5e, 0x85, 0xd7, 0xbd, 0xf9, 0xd1, 0xa2, 0xbe, 0x10, 0x23, 0xd4, 0xbd,
  0xa1, 0xa4, 0x6b, 0xbd, 0x1f, 0x46, 0x9e, 0xbd, 0x54, 0x78, 0x04, 0x3e,
  0x8d, 0x1f, 0xee, 0xbd, 0x6e, 0x4f, 0xe5, 0xbd, 0x7f, 0x74, 0x60, 0xbe,
  0xc6, 0xcd, 0x8b, 0xbe, 0x96, 0x91, 0xa2, 0x3b, 0x81, 0xc8, 0x81, 0xbe,
  0x49, 0xfb, 0xa7, 0x3c, 0xe6, 0xcf, 0x89, 0xbe, 0x30, 0x60, 0x24, 0xbe,
  0x7c, 0x31, 0x47, 0xbe, 0xaa, 0x7b, 0xf4, 0x3c, 0x34, 0xc3, 0x9d, 0xbd,
  0xcb, 0x54, 0x7f, 0x3c, 0xd1, 0x2d, 0xcd, 0x3d, 0x49, 0x77, 0x83, 0x3c,
  0x03, 0x19, 0x43, 0xbe, 0xe9, 0x14, 0x6a, 0xbe, 0x4f, 0x4f, 0x22, 0xbc,
  0xc6, 0x7c, 0xf0, 0xbd, 0x83, 0xde, 0x10, 0xbe, 0xbf, 0xca, 0x06, 0xbe,
  0x89, 0xd2, 0x0a, 0xbd, 0x96, 0xf3, 0xad, 0xbe, 0x55, 0x4a, 0x31, 0xbc,
  0x38, 0x1a, 0x93, 0xbe, 0x09, 0x89, 0x90, 0xbd, 0xbe, 0xdc, 0x11, 0xbe,
  0xbd, 0xd5, 0x86, 0xbe, 0xa1, 0x67, 0xd3, 0xbd, 0x35, 0x53, 0x0a, 0xbd,
  0xa7, 0x10, 0x7f, 0xbe, 0x13, 0x3e, 0x61, 0xbd, 0x41, 0x73, 0xa6, 0xbe,
  0x2c, 0x45, 0x82, 0xbb, 0x09, 0xe3, 0x85, 0xbd, 0x7b, 0x8f, 0x20, 0xbe,
  0x7b, 0xf5, 0xb5, 0xbd, 0x75, 0x3c, 0x0e, 0x3c, 0x23, 0x9e, 0x1b, 0x3e,
  0xbe, 0x03, 0x63, 0xbd, 0xd3, 0x60, 0x31, 0xbe, 0x0a, 0xb6, 0x57, 0xbd,
  0xd3, 0xaf, 0xc7, 0x3e, 0x81, 0x7e, 0x1d, 0xbd, 0x40, 0xf0, 0x91, 0xbd,
  0xf8, 0xf8, 0x20, 0xbd, 0x47, 0x3b, 0x4e, 0x3e, 0x3a, 0xaf, 0x96, 0xbd,
  0x79, 0xe4, 0xf6, 0xbd, 0x03, 0x69, 0xbe, 0x3c, 0xc8, 0x64, 0x96, 0x3d,
  0x40, 0x93, 0x47, 0xbf, 0xe0, 0xcd, 0xb2, 0xbe, 0xee, 0x34, 0xf3, 0xbd,
  0x59, 0x73, 0x03, 0x3f, 0x19, 0x0d, 0x07, 0xbe, 0x49, 0x10, 0xe0, 0xbe,
  0xf6, 0x35, 0xab, 0xbd, 0x43, 0x43, 0xa2, 0x3e, 0xbf, 0xcf, 0x29, 0x3d,
  0xe4, 0x96, 0x14, 0xbf, 0x47, 0x2f, 0x03, 0xbe, 0xce, 0x35, 0x1c, 0x3e,
  0xcd, 0xff, 0x1e, 0xbe, 0xf6, 0xdd, 0xe2, 0x3d, 0x98, 0xf9, 0xef, 0x3d,
  0xd2, 0x77, 0x50, 0xbe, 0x78, 0xc8, 0x99, 0x3d, 0x3a, 0x6b, 0x32, 0x3c,
  0x03, 0xf3, 0xc9, 0xbd, 0x59, 0x22, 0xe0, 0xbe, 0x0e, 0x71, 0x30, 0xbe,
  0x17, 0xf4, 0x98, 0x3e, 0x11, 0xa9, 0xd0, 0x3d, 0x08, 0xe6, 0x78, 0xbe,
  0xad, 0x23, 0x8c, 0x3e, 0x44, 0x06, 0x09, 0x3e, 0x07, 0xab, 0x7b, 0xbd,
  0x49, 0xc6, 0xbd, 0xbd, 0x6e, 0xd2, 0x61, 0xbe, 0xf3, 0x95, 0x31, 0xbe,
  0xfa, 0xae, 0xfc, 0xbd, 0x0d, 0xd7, 0x58, 0xbd, 0x01, 0x74, 0x1c, 0xbf,
  0x1e, 0x1e, 0xfa, 0xbe, 0x24, 0x55, 0x8b, 0xbd, 0xeb, 0xee, 0x97, 0xbd,
  0x81, 0xc0, 0x44, 0xbe, 0x1d, 0x10, 0x81, 0xbe, 0x62, 0x45, 0x2f, 0xbd,
  0x9a, 0xfa, 0xed, 0x3d, 0x68, 0x7e, 0x80, 0xbe, 0x66, 0xc3, 0xbd, 0xbe,
  0x1b, 0x56, 0x6f, 0xbe, 0xdf, 0xa7, 0x10, 0x3f, 0x4f, 0x35, 0xe3, 0xbc,
  0x77, 0xd3, 0x16, 0xbe, 0xab, 0xd9, 0x99, 0xbc, 0x87, 0x60, 0x05, 0x3d,
  0x33, 0x5a, 0xda, 0x3e, 0x22, 0x86, 0x74, 0xbe, 0x67, 0x55, 0xde, 0xbd,
  0x8c, 0x57, 0x45, 0xbe, 0x19, 0xd4, 0x6d, 0x3b, 0x5d, 0xe1, 0xcb, 0x3c,
  0x37, 0x20, 0xae, 0x3b, 0x48, 0x49, 0xf0, 0xbb, 0xcc, 0x2b, 0x8e, 0x3e,
  0xfa, 0xb4, 0x28, 0xbd, 0xd0, 0x93, 0x18, 0xbe, 0x3e, 0x2d, 0xd2, 0xbe,
  0x4c, 0xaf, 0x07, 0xbe, 0x82, 0x76, 0x43, 0x3e, 0x39, 0x5a, 0xe2, 0xbc,
  0xc6, 0xde, 0xff, 0xff, 0x10, 0x00, 0x00, 0x00, 0x08, 0x00, 0x00, 0x00,
  0x1c, 0x00, 0x00, 0x00, 0x38, 0x00, 0x00, 0x00, 0x04, 0x00, 0x00, 0x00,
  0x10, 0x00, 0x00, 0x00, 0x04, 0x00, 0x00, 0x00, 0x01, 0x00, 0x00, 0x00,
  0x08, 0x00, 0x00, 0x00, 0x1a, 0x00, 0x00, 0x00, 0x73, 0x65, 0x71, 0x75,
  0x65, 0x6e, 0x74, 0x69, 0x61, 0x6c, 0x2f, 0x63, 0x6f, 0x6e, 0x76, 0x32,
  0x64, 0x5f, 0x31, 0x2f, 0x43, 0x6f, 0x6e, 0x76, 0x32, 0x44, 0x00, 0x00,
  0xc0, 0xde, 0xff, 0xff, 0xb6, 0xdf, 0xff, 0xff, 0x04, 0x00, 0x00, 0x00,
  0x80, 0x01, 0x00, 0x00, 0xbd, 0xaa, 0x36, 0x3b, 0x6f, 0x50, 0x9e, 0x3d,
  0xaf, 0xf2, 0xf8, 0xbd, 0x2a, 0xcf, 0x89, 0xbd, 0x99, 0x4e, 0x31, 0xbe,
  0x6b, 0xe7, 0x6a, 0xbe, 0xfc, 0x2c, 0x9b, 0x3c, 0x64, 0x80, 0x5a, 0x3e,
  0xf7, 0xe6, 0x10, 0x3e, 0xca, 0xa7, 0xef, 0x3d, 0x92, 0x33, 0x04, 0x3e,
  0xf5, 0x7f, 0xa2, 0x3e, 0xce, 0x85, 0x44, 0x3e, 0x4b, 0xc5, 0xa2, 0x3e,
  0xaa, 0x92, 0x8b, 0x3e, 0x4d, 0x2b, 0x90, 0x3c, 0x73, 0xe8, 0xb3, 0x3c,
  0x35, 0x98, 0xdf, 0x3d, 0xc9, 0xf7, 0x26, 0xbe, 0x35, 0xbd, 0x1e, 0xbe,
  0x87, 0xc8, 0x8c, 0xbe, 0xbe, 0xb5, 0xb0, 0xbd, 0x37, 0x30, 0x8f, 0xbe,
  0x44, 0x62, 0x5b, 0xbe, 0x20, 0x28, 0x7e, 0xbe, 0x3b, 0x59, 0x36, 0x3e,
  0xef, 0x6d, 0x32, 0xbe, 0x7e, 0xe9, 0x07, 0x3e, 0x84, 0x6a, 0x30, 0xbb,
  0xc0, 0x9c, 0xf5, 0xbd, 0x9c, 0xbd, 0x4a, 0x3c, 0x25, 0xba, 0x2d, 0xbe,
  0xe1, 0x44, 0x6b, 0xbd, 0xe0, 0x14, 0x6c, 0xbd, 0xff, 0x82, 0x83, 0xbe,
  0xf9, 0x89, 0x3f, 0x3e, 0xf0, 0x30, 0x2b, 0x3e, 0x3a, 0x7c, 0xa4, 0x3e,
  0x92, 0x70, 0xd4, 0xbe, 0xe8, 0x47, 0x8e, 0x3c, 0x09, 0x07, 0x11, 0xbc,
  0x9d, 0x4a, 0x95, 0xbd, 0x4b, 0x06, 0x06, 0xbd, 0x28, 0x89, 0x92, 0x3c,
  0x9f, 0x2e, 0xb8, 0xbd, 0x6e, 0x09, 0x80, 0x3e, 0xd5, 0xc7, 0xb9, 0xbe,
  0x9f, 0xbb, 0x39, 0x3e, 0xb0, 0xf4, 0xc4, 0xbe, 0x79, 0xd3, 0x02, 0xbe,
  0xa9, 0x71, 0x0a, 0x3e, 0x94, 0xa6, 0x8d, 0xbe, 0x87, 0x9f, 0x64, 0xbe,
  0x35, 0x19, 0xa8, 0x3d, 0x17, 0x2e, 0x41, 0x3e, 0x7f, 0xef, 0xd9, 0x3d,
  0xf4, 0x0c, 0xa5, 0xbd, 0x89, 0xd1, 0x0a, 0x3f, 0x60, 0xdc, 0x67, 0x3e,
  0xcd, 0xe5, 0x13, 0xbe, 0xe5, 0x02, 0x14, 0x3f, 0xf9, 0x6c, 0xfa, 0xbd,
  0xa2, 0xe6, 0xb4, 0x3b, 0x84, 0x10, 0xd0, 0xbe, 0xcf, 0xa4, 0x9b, 0x3d,
  0x25, 0x6e, 0x43, 0x3c, 0xc8, 0x7b, 0xd6, 0x3d, 0x5d, 0x2d, 0x9a, 0x3d,
  0x56, 0x15, 0xe3, 0xbd, 0x26, 0x23, 0x95, 0x3d, 0xad, 0x65, 0x7b, 0x3d,
  0xdd, 0xe7, 0xfd, 0xbd, 0x32, 0xbb, 0x14, 0xbe, 0x29, 0x49, 0x0e, 0x3e,
  0xa3, 0x80, 0x4b, 0x3e, 0x3b, 0x49, 0xec, 0x3c, 0x73, 0x99, 0x81, 0x3d,
  0xf5, 0x11, 0x7d, 0x3e, 0x03, 0xed, 0x3e, 0xbd, 0x6f, 0x63, 0x60, 0xbd,
  0x47, 0x72, 0x72, 0xbd, 0x2d, 0x5d, 0x4f, 0x3e, 0xe4, 0x5a, 0x17, 0xbe,
  0xb7, 0x96, 0x88, 0xbe, 0xc0, 0x7f, 0xb5, 0x3e, 0x88, 0x9b, 0xf2, 0xbd,
  0x9e, 0xce, 0xef, 0x3d, 0x0e, 0x9d, 0xec, 0x3e, 0x10, 0x18, 0x4d, 0x3e,
  0x49, 0x9c, 0x29, 0xbe, 0x50, 0xcb, 0xb5, 0x3c, 0xbc, 0x17, 0xa8, 0xbd,
  0x4b, 0x0c, 0x9c, 0xbd, 0x4c, 0xe2, 0x86, 0xbe, 0xda, 0x5c, 0x02, 0x3e,
  0x4d, 0x8d, 0x87, 0x3c, 0x9e, 0xe0, 0xff, 0xff, 0x10, 0x00, 0x00, 0x00,
  0x07, 0x00, 0x00, 0x00, 0x1c, 0x00, 0x00, 0x00, 0x38, 0x00, 0x00, 0x00,
  0x04, 0x00, 0x00, 0x00, 0x08, 0x00, 0x00, 0x00, 0x04, 0x00, 0x00, 0x00,
  0x03, 0x00, 0x00, 0x00, 0x01, 0x00, 0x00, 0x00, 0x18, 0x00, 0x00, 0x00,
  0x73, 0x65, 0x71, 0x75, 0x65, 0x6e, 0x74, 0x69, 0x61, 0x6c, 0x2f, 0x63,
  0x6f, 0x6e, 0x76, 0x32, 0x64, 0x2f, 0x43, 0x6f, 0x6e, 0x76, 0x32, 0x44,
  0x00, 0x00, 0x00, 0x00, 0x98, 0xe0, 0xff, 0xff, 0x8e, 0xe1, 0xff, 0xff,
  0x04, 0x00, 0x00, 0x00, 0x00, 0x01, 0x00, 0x00, 0x4d, 0x3e, 0x3c, 0x3e,
  0x3a, 0x6d, 0x2e, 0xbe, 0x8e, 0x6d, 0x9d, 0x3d, 0x3b, 0x4d, 0xb3, 0xbe,
  0xb5, 0xe7, 0x93, 0x3e, 0xb3, 0xd8, 0xeb, 0xbd, 0x4b, 0x04, 0x43, 0x3d,
  0x22, 0x7e, 0xa8, 0xbe, 0x5f, 0x12, 0xda, 0x3b, 0xe4, 0x57, 0x1e, 0x3f,
  0x17, 0xe8, 0xaf, 0xbe, 0x1b, 0xee, 0x0c, 0xbf, 0xc6, 0xce, 0x47, 0xbd,
  0x5d, 0xa2, 0x68, 0xbe, 0x46, 0x22, 0xf9, 0x3d, 0xdd, 0x7a, 0x30, 0xbd,
  0x09, 0x7c, 0xc7, 0xbe, 0xb0, 0x8a, 0x13, 0xbe, 0x45, 0x91, 0x99, 0x3d,
  0xb0, 0x3c, 0xe3, 0xbe, 0xfa, 0x15, 0x71, 0x3e, 0x8f, 0xf8, 0x79, 0xbd,
  0x70, 0x68, 0x6a, 0x3e, 0x81, 0xf2, 0xa8, 0x3e, 0x41, 0x41, 0xa6, 0x3d,
  0x87, 0xde, 0x6a, 0x3e, 0x8a, 0x59, 0xf8, 0x3d, 0x09, 0xc7, 0xaa, 0xbe,
  0x3d, 0xb1, 0xf5, 0xbc, 0xc3, 0xd6, 0x64, 0xbe, 0x3e, 0xf4, 0xe1, 0x3d,
  0x6d, 0xef, 0x89, 0xbd, 0xce, 0x79, 0x09, 0x3e, 0xc9, 0x4d, 0x23, 0xbe,
  0x28, 0xa5, 0x48, 0xbd, 0x03, 0x04, 0xc1, 0x3d, 0xd8, 0xbf, 0xa3, 0x3d,
  0xec, 0xc5, 0x92, 0xbe, 0x1d, 0xc9, 0xdb, 0xbb, 0x4b, 0xcb, 0xd9, 0xbe,
  0xba, 0xaa, 0xf1, 0xbc, 0x57, 0x97, 0x0e, 0xbf, 0x8a, 0x1b, 0xef, 0xbe,
  0x56, 0x2a, 0x8d, 0xbe, 0xdd, 0xfb, 0x38, 0xbe, 0x16, 0xd2, 0x17, 0xbf,
  0x2f, 0xd4, 0x07, 0x3e, 0xe8, 0xb7, 0x46, 0xbe, 0x24, 0x2b, 0x6a, 0xbd,
  0x9f, 0x9b, 0x60, 0xbe, 0x38, 0x0a, 0x51, 0xbc, 0x97, 0x9d, 0x7d, 0xbd,
  0x13, 0x1d, 0x8d, 0x3e, 0xda, 0x29, 0x7d, 0xbd, 0x33, 0x1c, 0x2f, 0x3e,
  0xc5, 0xa9, 0xac, 0x3e, 0x72, 0xaf, 0x97, 0x3d, 0x6d, 0xce, 0x25, 0xbd,
  0x56, 0xcb, 0xdf, 0x3d, 0x1e, 0xc4, 0x82, 0x3e, 0x2c, 0x59, 0x05, 0xbe,
  0x89, 0x12, 0x16, 0x3e, 0x07, 0x27, 0x22, 0x3d, 0x89, 0xa4, 0x62, 0xbd,
  0xf6, 0xe1, 0xff, 0xff, 0x10, 0x00, 0x00, 0x00, 0x06, 0x00, 0x00, 0x00,
  0x14, 0x00, 0x00, 0x00, 0x30, 0x00, 0x00, 0x00, 0x02, 0x00, 0x00, 0x00,
  0x04, 0x00, 0x00, 0x00, 0x10, 0x00, 0x00, 0x00, 0x19, 0x00, 0x00, 0x00,
  0x73, 0x65, 0x71, 0x75, 0x65, 0x6e, 0x74, 0x69, 0x61, 0x6c, 0x2f, 0x64,
  0x65, 0x6e, 0x73, 0x65, 0x5f, 0x31, 0x2f, 0x4d, 0x61, 0x74, 0x4d, 0x75,
  0x6c, 0x00, 0x00, 0x00, 0xe8, 0xe1, 0xff, 0xff, 0xde, 0xe2, 0xff, 0xff,
  0x04, 0x00, 0x00, 0x00, 0x00, 0x1c, 0x00, 0x00, 0xc3, 0x99, 0xff, 0x3b,
  0xf8, 0xc8, 0x55, 0xbe, 0x42, 0x5d, 0xa8, 0xbe, 0xc8, 0xa0, 0x89, 0x3d,
  0x00, 0x59, 0x1b, 0xbe, 0xa0, 0xb9, 0x01, 0x3d, 0x86, 0x44, 0xcb, 0xbd,
  0x6b, 0x7f, 0x8b, 0x3d, 0xbe, 0x92, 0xc7, 0xbd, 0x32, 0xeb, 0x57, 0xbc,
  0xa3, 0x39, 0x4f, 0xbd, 0xbf, 0x8a, 0x94, 0x3d, 0x29, 0x94, 0xad, 0x3c,
  0x3e, 0xa2, 0x3d, 0xbe, 0x2b, 0x98, 0x3c, 0xbe, 0xcc, 0x70, 0x03, 0xbe,
  0x50, 0x41, 0x0b, 0xbc, 0x56, 0x46, 0xec, 0xbc, 0xc8, 0x53, 0xf5, 0xbd,
  0x9e, 0xcf, 0xb5, 0x3b, 0x7f, 0xdc, 0x8b, 0x3d, 0x74, 0x92, 0x22, 0x3d,
  0x7c, 0xf7, 0x08, 0xbe, 0xaa, 0x66, 0xcd, 0x3d, 0x9b, 0xae, 0x5e, 0xbe,
  0xdb, 0xff, 0x29, 0xbe, 0xd0, 0x34, 0x8e, 0x3d, 0x7e, 0x58, 0x18, 0xbe,
  0xc2, 0x50, 0x1e, 0xbe, 0xd4, 0xf1, 0x19, 0xbe, 0x28, 0x8c, 0x96, 0x3d,
  0x56, 0x0f, 0x0d, 0xbe, 0xdd, 0xa0, 0x7c, 0xbe, 0x92, 0x2e, 0x8a, 0xbd,
  0xea, 0xcd, 0x39, 0xbd, 0x24, 0x06, 0x30, 0x3b, 0xd7, 0xb8, 0xb9, 0x3d,
  0xda, 0x8d, 0x64, 0xbe, 0x0f, 0x61, 0x50, 0xbc, 0xbe, 0xcb, 0x2d, 0x3e,
  0x51, 0x57, 0x80, 0xbd, 0xf1, 0x8d, 0x04, 0x3e, 0x35, 0x19, 0x4f, 0xbe,
  0xfe, 0x37, 0x81, 0x3d, 0xca, 0xd8, 0x16, 0xbe, 0xbd, 0x85, 0x30, 0xbe,
  0x08, 0x71, 0x15, 0x3e, 0xee, 0x8e, 0x8e, 0xbd, 0xab, 0x56, 0xb4, 0xbd,
  0xfd, 0x79, 0x8c, 0x3d, 0xd6, 0x02, 0x93, 0xbe, 0x8e, 0x55, 0x32, 0xbe,
  0x09, 0x8b, 0xf3, 0x3d, 0xff, 0xb5, 0x68, 0xbe, 0x89, 0xdc, 0x9d, 0xbd,
  0x63, 0x18, 0xdc, 0xbd, 0xf3, 0xd7, 0x62, 0x3d, 0x4b, 0x77, 0xbf, 0x3c,
  0x53, 0x24, 0xd5, 0xbd, 0xf1, 0x43, 0xd4, 0x3d, 0x32, 0x7f, 0x1a, 0x3e,
  0x38, 0x4a, 0x30, 0x3e, 0x7b, 0x9f, 0x0b, 0x3e, 0xb7, 0xe7, 0x9b, 0x3a,
  0x96, 0x2e, 0x46, 0xbe, 0x17, 0xc1, 0x8b, 0x3d, 0xa9, 0xde, 0x65, 0xbe,
  0xad, 0x4b, 0x11, 0xbe, 0xca, 0x51, 0x28, 0xbe, 0xa3, 0xbb, 0x52, 0xbe,
  0x1d, 0x62, 0x0b, 0xbd, 0xc1, 0xda, 0xfd, 0x3b, 0x56, 0xaa, 0x7b, 0x3d,
  0x4e, 0xc7, 0xcb, 0x3d, 0xb9, 0x0b, 0x03, 0x3e, 0x76, 0x3b, 0x4c, 0xbe,
  0x37, 0x23, 0xe0, 0x3c, 0x38, 0x58, 0x22, 0x3d, 0x3f, 0xcb, 0x45, 0xbe,
  0xb3, 0x80, 0x0b, 0x3e, 0xb4, 0x90, 0x52, 0xbe, 0xcc, 0xc4, 0x9b, 0xbd,
  0xee, 0x61, 0xfa, 0xbd, 0xd7, 0x03, 0x58, 0xbe, 0x97, 0x4e, 0x12, 0x3e,
  0x8d, 0xe3, 0x46, 0xbe, 0x7c, 0xbb, 0x97, 0x3d, 0x36, 0x12, 0x15, 0xbe,
  0xf1, 0x2a, 0x3f, 0xbe, 0x77, 0xdc, 0x1e, 0x3d, 0x27, 0xe6, 0x9a, 0xbc,
  0x1e, 0x85, 0xb2, 0xbd, 0x1e, 0x5e, 0x0e, 0xbe, 0xdd, 0x5a, 0xdd, 0xbc,
  0xd6, 0xee, 0x08, 0x3c, 0x3d, 0xf3, 0xb7, 0xbc, 0x12, 0xd6, 0x87, 0xbe,
  0x9b, 0x0b, 0x50, 0xbe, 0xde, 0xdd, 0xb1, 0xbe, 0x85, 0xd0, 0x5b, 0x3d,
  0x4d, 0x10, 0xc8, 0xbd, 0xfe, 0x59, 0x43, 0xbd, 0x1d, 0x31, 0xb7, 0xbc,
  0x5d, 0x43, 0x8b, 0x3c, 0xcb, 0xa1, 0xb9, 0x3b, 0xbc, 0xee, 0x1b, 0xbd,
  0x34, 0xf3, 0x85, 0xbd, 0xc6, 0xce, 0x83, 0xbe, 0x35, 0xd5, 0xc1, 0x3d,
  0xc5, 0x2d, 0x5b, 0xbe, 0xde, 0x96, 0x7d, 0x3c, 0x32, 0xc6, 0x91, 0xbd,
  0x2b, 0x49, 0x3c, 0x3e, 0xb5, 0x50, 0x4f, 0x3e, 0x19, 0xae, 0x21, 0xbc,
  0x80, 0xdb, 0xda, 0xbd, 0x68, 0xa8, 0x64, 0xbe, 0x3d, 0xdf, 0x53, 0xbc,
  0xe7, 0x05, 0x33, 0xbd, 0x0b, 0x0e, 0x23, 0x3e, 0x2e, 0xa8, 0x13, 0x3e,
  0x6d, 0xe6, 0xb3, 0xbd, 0x58, 0x78, 0x8b, 0x3c, 0xb8, 0x83, 0x3d, 0xbe,
  0x16, 0x4d, 0x08, 0xbe, 0xbb, 0x28, 0xc3, 0xbc, 0x6f, 0x56, 0x94, 0x3e,
  0x8a, 0xf8, 0x7e, 0x3d, 0x6b, 0x06, 0x22, 0x3d, 0xaa, 0x65, 0x97, 0xbc,
  0xd5, 0x1e, 0xb1, 0xbc, 0xd8, 0xac, 0xa0, 0xbd, 0x1e, 0xbc, 0xd9, 0xbc,
  0x19, 0xa8, 0xa7, 0x3c, 0x3a, 0xd1, 0x5a, 0xbe, 0x87, 0x24, 0x85, 0x3e,
  0xb6, 0x78, 0x19, 0xbe, 0x46, 0x9e, 0xc8, 0x3d, 0x4f, 0x89, 0xaf, 0x3e,
  0x26, 0x1f, 0x37, 0xbe, 0x25, 0xbd, 0x0b, 0x3e, 0x75, 0x87, 0x75, 0x3e,
  0xa5, 0xa0, 0x4b, 0x3d, 0xcc, 0xe3, 0x5a, 0x3e, 0x52, 0x02, 0x0f, 0xbd,
  0xce, 0xce, 0xdc, 0xbe, 0xc3, 0x9b, 0x58, 0xbd, 0x6b, 0x21, 0x35, 0x3e,
  0xcd, 0x9e, 0x11, 0x3e, 0xaf, 0x82, 0x22, 0x3e, 0x31, 0x7f, 0xd7, 0x3c,
  0x70, 0x03, 0x8b, 0xbe, 0xf7, 0xea, 0x0c, 0x3e, 0x67, 0xc1, 0x5d, 0xbc,
  0x20, 0x2c, 0x37, 0xbe, 0x41, 0x20, 0x5d, 0xbd, 0x62, 0xa9, 0xab, 0x3d,
  0x93, 0xf7, 0x78, 0x3e, 0x34, 0x0c, 0x9a, 0xbd, 0xdd, 0x11, 0xdd, 0xbd,
  0xae, 0x4a, 0x16, 0x3c, 0x36, 0xb5, 0xfd, 0xbe, 0x6c, 0x97, 0x69, 0xbd,
  0xdc, 0x5a, 0x22, 0xbe, 0x9b, 0x21, 0xb1, 0x3e, 0x11, 0x36, 0xb3, 0xbe,
  0x41, 0x32, 0x13, 0xbe, 0x74, 0x58, 0x23, 0xbe, 0xb7, 0xfb, 0x35, 0x3e,
  0xdc, 0xd9, 0x56, 0x3b, 0xc6, 0x40, 0x54, 0xbe, 0xd8, 0x34, 0x8b, 0xbc,
  0xe6, 0xc6, 0x53, 0x3b, 0x66, 0x37, 0x5a, 0x3e, 0x88, 0x16, 0xcc, 0xbd,
  0xf0, 0x8a, 0xba, 0x3c, 0xcd, 0x71, 0x48, 0xbd, 0x4e, 0x1a, 0x64, 0xbe,
  0x1a, 0x1d, 0xc0, 0xbc, 0x1a, 0xe3, 0x08, 0xbe, 0x31, 0x83, 0xe2, 0x3c,
  0xc3, 0xa4, 0x46, 0xbd, 0xc3, 0x52, 0x73, 0x3d, 0x1e, 0x3b, 0x82, 0xbd,
  0x9c, 0x6b, 0x8c, 0x3e, 0x26, 0xf7, 0xcf, 0x3d, 0x2a, 0xe5, 0xc5, 0xbc,
  0x8c, 0xf9, 0x96, 0xbd, 0xd3, 0x39, 0xae, 0x3d, 0xc8, 0xf8, 0x93, 0x3e,
  0xb3, 0x8f, 0x9a, 0x3d, 0xbb, 0xf1, 0x93, 0x3e, 0xfb, 0x19, 0x17, 0xbc,
  0xc8, 0xb6, 0x86, 0x3c, 0x06, 0x24, 0x50, 0xbd, 0x75, 0x63, 0x7a, 0x3d,
  0xb2, 0x95, 0x20, 0xbe, 0x5e, 0xa2, 0x0e, 0xbe, 0xdc, 0xe9, 0x17, 0xbe,
  0x2f, 0x82, 0xbe, 0x3e, 0x12, 0x36, 0xa8, 0x3e, 0x1e, 0x01, 0x1d, 0xbe,
  0xd4, 0x35, 0xdc, 0x3d, 0xa5, 0x69, 0x17, 0xbd, 0x56, 0xbf, 0x88, 0x3d,
  0xfe, 0xa0, 0x95, 0x3e, 0x7f, 0xb0, 0x62, 0x3e, 0x46, 0x64, 0xb5, 0x3e,
  0xe4, 0xe3, 0x8e, 0x3d, 0xd2, 0x72, 0x4a, 0xbd, 0x82, 0x05, 0x83, 0x3d,
  0x18, 0x61, 0x91, 0x3c, 0x17, 0xf8, 0xc6, 0xbc, 0x46, 0xc1, 0x8f, 0xbb,
  0x28, 0x15, 0x8f, 0xbd, 0x7c, 0xa6, 0xb2, 0x3d, 0x29, 0xc1, 0x93, 0xbd,
  0x76, 0x70, 0x04, 0x3d, 0xaa, 0x25, 0x9e, 0x3d, 0x56, 0xd3, 0x70, 0xbe,
  0xe7, 0x7d, 0x3b, 0xbe, 0xa0, 0x23, 0xbc, 0x3e, 0xe0, 0xb2, 0xbe, 0x3d,
  0x0d, 0x3e, 0x86, 0x3e, 0xeb, 0xc0, 0x85, 0xbd, 0xac, 0xd4, 0xa3, 0x3d,
  0x84, 0x65, 0xd1, 0x3c, 0x25, 0x3a, 0x50, 0xbd, 0xab, 0x13, 0x48, 0x3e,
  0x7b, 0x1b, 0x47, 0x3e, 0x74, 0xf6, 0x86, 0xbd, 0xe7, 0x80, 0xfe, 0x3b,
  0x85, 0xaa, 0xbe, 0x3c, 0xbe, 0xb9, 0x3d, 0x3e, 0x90, 0xe9, 0x7a, 0x3c,
  0x46, 0x6f, 0xad, 0xbe, 0xac, 0x86, 0x37, 0x3c, 0x38, 0x3d, 0x5d, 0x3e,
  0x80, 0x74, 0xf6, 0x3d, 0xb0, 0xa7, 0x0b, 0x3e, 0xed, 0xcc, 0xc0, 0xbd,
  0x53, 0x3c, 0x7a, 0xbd, 0x36, 0x94, 0xe1, 0xbc, 0x9d, 0x1e, 0xe7, 0x3d,
  0x19, 0x6b, 0x7a, 0x3e, 0x6b, 0x55, 0x9e, 0x3e, 0x17, 0x28, 0xb1, 0xbe,
  0x09, 0x0e, 0x13, 0xbd, 0xb1, 0xe3, 0x6f, 0x3d, 0x37, 0x50, 0xb4, 0x3d,
  0x86, 0x9e, 0x02, 0xbf, 0x73, 0xa1, 0x3c, 0xbd, 0x9d, 0x0a, 0xbb, 0x3d,
  0xfa, 0x6d, 0x0d, 0x3f, 0x55, 0xb9, 0x10, 0xbd, 0x07, 0xa9, 0x27, 0x3d,
  0x36, 0xb9, 0x27, 0xbe, 0xed, 0xae, 0x27, 0xbe, 0xbd, 0xb7, 0x21, 0xbd,
  0x81, 0x62, 0x35, 0xbe, 0xd6, 0x62, 0xdb, 0x3e, 0xac, 0xd8, 0x71, 0x3c,
  0x47, 0x27, 0xc1, 0xbe, 0xb2, 0x29, 0x89, 0xbe, 0xb0, 0x8a, 0x9c, 0x3d,
  0x81, 0x07, 0x00, 0xbe, 0xc4, 0x06, 0x15, 0x3e, 0xce, 0x59, 0x3d, 0xbe,
  0x44, 0xb0, 0x9d, 0x3c, 0x2d, 0xdb, 0x13, 0x3f, 0xf2, 0xc3, 0x53, 0x3d,
  0x94, 0x2c, 0x14, 0x3e, 0xfe, 0x3b, 0x9a, 0xbd, 0x19, 0x9d, 0x25, 0xbe,
  0xc1, 0x16, 0x29, 0xbd, 0x6c, 0x34, 0x5a, 0x3d, 0x41, 0xf3, 0x0e, 0x3d,
  0xd5, 0x9f, 0x4b, 0x3e, 0x39, 0xba, 0xa6, 0xbc, 0xf2, 0xdf, 0x9d, 0xbe,
  0xad, 0xdf, 0xa3, 0xbc, 0x2e, 0x83, 0xb5, 0x3d, 0xb5, 0x30, 0x37, 0x3d,
  0xf6, 0x01, 0x72, 0xbe, 0x7f, 0x1e, 0xa9, 0xbd, 0xe4, 0x2f, 0xd5, 0x3e,
  0x26, 0xed, 0xc5, 0x3a, 0x37, 0x88, 0xfe, 0x3d, 0x0b, 0x28, 0xef, 0x3d,
  0x9c, 0x22, 0x59, 0xbd, 0xb2, 0x0b, 0x28, 0xbd, 0xf3, 0x57, 0xe1, 0x3c,
  0xf7, 0x92, 0xad, 0x3e, 0x7f, 0x4f, 0x74, 0x3e, 0x8d, 0x9d, 0x9f, 0x3d,
  0x2e, 0x3b, 0x61, 0x3b, 0x79, 0x35, 0x07, 0x3d, 0xaa, 0xf3, 0x1f, 0x3e,
  0x48, 0x17, 0x20, 0x3e, 0x60, 0x56, 0xd9, 0xbd, 0xf2, 0x90, 0xa4, 0xbd,
  0x98, 0xad, 0xe8, 0x3e, 0xca, 0xe9, 0x12, 0xbe, 0x36, 0xc7, 0x4a, 0x3e,
  0xe8, 0xa1, 0xc4, 0xbd, 0xa5, 0xbf, 0xd0, 0x3c, 0x8a, 0xc2, 0xcc, 0x3b,
  0x1b, 0x9f, 0xae, 0xbd, 0xaf, 0xc3, 0xfb, 0x3d, 0xd7, 0x25, 0x08, 0x3e,
  0x22, 0x7b, 0x8d, 0x3d, 0x5a, 0x06, 0x64, 0xbd, 0xd9, 0x40, 0x8e, 0x3d,
  0x57, 0x72, 0xaa, 0x3d, 0xb6, 0xa3, 0x4e, 0x3e, 0x70, 0x72, 0x20, 0xbd,
  0xe3, 0xd3, 0x4f, 0xbe, 0x35, 0x40, 0x0f, 0x3f, 0x8c, 0x88, 0x96, 0x3d,
  0xcb, 0x12, 0x98, 0x3c, 0x24, 0x6f, 0x19, 0xbd, 0x73, 0x5c, 0xb1, 0xbb,
  0xf5, 0xc5, 0xa1, 0xbc, 0xfd, 0x48, 0x47, 0xbe, 0x02, 0x1d, 0x10, 0x3e,
  0x12, 0x73, 0xd6, 0x3d, 0xa0, 0x5a, 0x85, 0xbd, 0xcd, 0xde, 0x03, 0xbc,
  0xc2, 0xbe, 0x35, 0xbc, 0xba, 0xf1, 0x47, 0xbd, 0xef, 0x4c, 0x63, 0x3e,
  0x12, 0xba, 0x08, 0x3e, 0x4f, 0x9c, 0x2b, 0x3d, 0xd1, 0xb8, 0x3f, 0x3f,
  0x3b, 0x18, 0x93, 0xbd, 0x47, 0x1d, 0x07, 0xbd, 0xd2, 0xe9, 0xff, 0xbc,
  0x7e, 0xac, 0x86, 0xbe, 0x21, 0xfa, 0xd5, 0xbe, 0x7c, 0x19, 0x31, 0x3e,
  0x8f, 0x81, 0x12, 0x3e, 0x23, 0xd0, 0x14, 0xbd, 0x48, 0xe8, 0x1e, 0xbd,
  0x84, 0x96, 0x8f, 0xbd, 0x52, 0x9a, 0x9e, 0xbe, 0xad, 0x41, 0xd8, 0x3c,
  0x0a, 0x36, 0x40, 0xbb, 0x91, 0x7f, 0x91, 0xbe, 0x3e, 0x9e, 0x3b, 0xbe,
  0x77, 0xb2, 0xd4, 0xbd, 0xf9, 0x45, 0x04, 0x3e, 0xf3, 0xbd, 0x66, 0xbe,
  0x31, 0x1e, 0xa8, 0xbe, 0xa7, 0x67, 0x93, 0xbe, 0xba, 0x8a, 0xd8, 0xbe,
  0x1c, 0x94, 0x03, 0x3e, 0x4f, 0x17, 0x4e, 0xbe, 0xb2, 0xaa, 0x86, 0xbd,
  0x1f, 0x4e, 0xbd, 0xbd, 0x3e, 0x5a, 0xc4, 0x3d, 0x8d, 0x7b, 0x36, 0x3d,
  0x1e, 0x2e, 0xa7, 0xbd, 0xaf, 0xc3, 0x13, 0x3e, 0x2e, 0x78, 0x02, 0xbe,
  0x91, 0xc4, 0x38, 0xbe, 0x49, 0xf1, 0x0d, 0x3e, 0x83, 0x68, 0x45, 0xbe,
  0xf8, 0xc8, 0x4b, 0xbe, 0x87, 0xe2, 0x3c, 0xbd, 0x30, 0x19, 0x47, 0xbe,
  0x11, 0x21, 0x37, 0xbe, 0x98, 0x81, 0x11, 0xbd, 0x8b, 0xc4, 0x25, 0xbe,
  0x2d, 0x85, 0x12, 0xbd, 0xbc, 0x8e, 0x63, 0xbe, 0xcf, 0xa8, 0x1a, 0x3e,
  0xfe, 0x9b, 0xca, 0xbc, 0x68, 0x98, 0x9e, 0x3d, 0xa0, 0xa2, 0x0d, 0xbe,
  0x40, 0x7c, 0x4a, 0xbe, 0xeb, 0x27, 0x13, 0xbe, 0x48, 0x91, 0xb2, 0x3d,
  0x74, 0xc4, 0x51, 0xbe, 0x13, 0x08, 0x42, 0xbe, 0xc5, 0x38, 0x53, 0x3d,
  0xac, 0x93, 0x8e, 0x3d, 0x65, 0x3d, 0xf2, 0xbe, 0xa6, 0x9a, 0x32, 0x3e,
  0xa8, 0x1f, 0x9e, 0x3c, 0xaf, 0xac, 0x5c, 0xbe, 0xa2, 0xb2, 0x5a, 0xbc,
  0x73, 0x12, 0x0d, 0xbd, 0x87, 0x28, 0x0f, 0x3d, 0xed, 0x53, 0xc4, 0xbc,
  0x78, 0x72, 0x99, 0xbd, 0xbb, 0x1a, 0x87, 0xbe, 0x96, 0xb7, 0x6e, 0xbd,
  0x8d, 0x8b, 0x5b, 0xbd, 0xba, 0x69, 0xed, 0x3d, 0x32, 0xd1, 0x96, 0xbd,
  0x43, 0xaa, 0x9f, 0xbe, 0x34, 0x72, 0x17, 0xbe, 0x7e, 0xd4, 0x94, 0xbe,
  0x25, 0xf8, 0x32, 0x3e, 0x87, 0x44, 0xa5, 0x3c, 0xe9, 0x62, 0x22, 0xbe,
  0xc8, 0x63, 0x21, 0xbb, 0x60, 0x5e, 0x9c, 0xbd, 0x87, 0x4a, 0xaa, 0xbd,
  0x73, 0xe0, 0x72, 0xbc, 0xc3, 0xda, 0x5c, 0xbe, 0x64, 0xfc, 0x31, 0x3e,
  0x93, 0x2b, 0x2a, 0xbe, 0x0e, 0xe7, 0x10, 0x3e, 0x5c, 0x4f, 0xe4, 0x3b,
  0xbe, 0x13, 0xf2, 0x3b, 0xe8, 0x68, 0x15, 0xbe, 0x85, 0x25, 0x50, 0xbe,
  0xb1, 0x72, 0x41, 0xbe, 0xe9, 0x11, 0x1b, 0x3e, 0x75, 0xd9, 0xee, 0xbd,
  0x62, 0xcb, 0x59, 0xbd, 0x43, 0x3e, 0xa0, 0x3c, 0x12, 0x0f, 0xb1, 0xbb,
  0xed, 0x4d, 0xc2, 0xba, 0x77, 0xe5, 0x4f, 0xbe, 0xdf, 0xf6, 0x4f, 0xbe,
  0xe1, 0x04, 0xc5, 0x3d, 0xba, 0xf2, 0x5c, 0xbe, 0x19, 0xe0, 0x24, 0xbe,
  0xbe, 0x55, 0xc2, 0xbd, 0x83, 0x76, 0x01, 0x3e, 0xea, 0xf0, 0xb5, 0xbe,
  0xa2, 0x0e, 0xd1, 0xbc, 0x44, 0x92, 0xbf, 0xbe, 0x31, 0x90, 0x4b, 0x3e,
  0xb8, 0x58, 0x55, 0xbe, 0x9c, 0xcc, 0x39, 0xbe, 0xd6, 0xb2, 0x2b, 0xbd,
  0x03, 0x12, 0x86, 0xbd, 0x94, 0xb4, 0x9f, 0xbc, 0x56, 0x72, 0x2d, 0x3c,
  0x64, 0x93, 0x8e, 0x3c, 0x79, 0x46, 0x25, 0xbe, 0x75, 0xe2, 0xb9, 0x3d,
  0x62, 0x39, 0xe4, 0xbc, 0xb7, 0x5f, 0x1a, 0x3d, 0xc2, 0x4f, 0x0d, 0xbe,
  0xa0, 0x86, 0xcc, 0xbd, 0x11, 0x72, 0x56, 0xbc, 0x71, 0xd2, 0x42, 0x3b,
  0x30, 0xdd, 0x0b, 0x3e, 0x6a, 0x86, 0x71, 0x3e, 0xd3, 0x47, 0x41, 0x3e,
  0x03, 0x3d, 0x77, 0x3d, 0xc8, 0x2a, 0x2b, 0xbe, 0x5f, 0x3b, 0x8e, 0xbd,
  0x6d, 0x68, 0x9d, 0x3e, 0xc8, 0xb7, 0x55, 0xbd, 0xa5, 0xd3, 0x83, 0xbe,
  0xd6, 0xa2, 0xb7, 0x3d, 0xa5, 0xe2, 0xc9, 0x3d, 0xd8, 0x1c, 0x6a, 0xbe,
  0x68, 0xe4, 0x6f, 0xbd, 0x73, 0x1c, 0x12, 0xbd, 0x3b, 0x50, 0xce, 0x3c,
  0x7d, 0xc8, 0x58, 0xbb, 0xc1, 0x42, 0x1f, 0xbe, 0xd4, 0x54, 0x31, 0x3d,
  0xd8, 0xc2, 0xba, 0x3c, 0xd7, 0x27, 0xca, 0x3d, 0x28, 0xb0, 0x3e, 0xbe,
  0xfe, 0xcf, 0x87, 0x3d, 0xeb, 0x1d, 0x0d, 0x3e, 0xef, 0x8c, 0x1d, 0xbe,
  0xa4, 0xaf, 0x5f, 0xbe, 0x0d, 0xff, 0x9a, 0x3d, 0x54, 0x04, 0x06, 0x3f,
  0xe2, 0x29, 0x08, 0x3c, 0xa0, 0x93, 0x6b, 0xbd, 0xc9, 0xaa, 0x44, 0x3c,
  0xe3, 0xb2, 0x69, 0x3d, 0x82, 0x71, 0x12, 0x3c, 0xe7, 0x1c, 0x0f, 0x3e,
  0x0c, 0x65, 0x07, 0x3e, 0xbe, 0x19, 0xe4, 0x3d, 0x88, 0x98, 0x6f, 0x3b,
  0xd4, 0xdc, 0xff, 0x3d, 0x8a, 0x60, 0x30, 0x3e, 0x5e, 0xa9, 0x16, 0x3e,
  0xd8, 0x9e, 0xe8, 0x3e, 0x47, 0x1c, 0x51, 0xbe, 0x6d, 0xed, 0x06, 0xbe,
  0x3d, 0x3f, 0x2f, 0x3f, 0x1d, 0x29, 0x01, 0x3e, 0xe5, 0xb9, 0x17, 0x3e,
  0x41, 0xdc, 0xa3, 0xbd, 0x01, 0xa1, 0xae, 0x3c, 0x65, 0xcc, 0xc3, 0x3c,
  0x93, 0x3b, 0xda, 0x3d, 0x3d, 0x25, 0xc9, 0x3d, 0x65, 0xb4, 0xf4, 0x3e,
  0x83, 0x8e, 0xc6, 0x3c, 0xd3, 0xdc, 0xe6, 0xbc, 0x2b, 0x35, 0x7e, 0x3d,
  0xf1, 0xb6, 0x46, 0x3e, 0x2b, 0xda, 0x1d, 0x3f, 0x37, 0xf2, 0x79, 0xbe,
  0x9c, 0x1b, 0xcf, 0x3d, 0x80, 0x8e, 0xc2, 0x3d, 0x10, 0xaf, 0xa8, 0x3b,
  0x76, 0xcf, 0x43, 0x3e, 0x4d, 0x1f, 0x16, 0xbe, 0x79, 0x24, 0x24, 0x3d,
  0x09, 0xc3, 0x53, 0x3c, 0x17, 0x20, 0x47, 0x3e, 0x0f, 0xec, 0x11, 0x3f,
  0x48, 0xcc, 0x93, 0x3e, 0xdd, 0xd1, 0xb4, 0xbc, 0x27, 0x01, 0x8c, 0x3d,
  0xba, 0x46, 0x62, 0xbd, 0xc1, 0xd1, 0x8b, 0x3e, 0x87, 0x5e, 0x0a, 0x3e,
  0x02, 0x0a, 0xf6, 0xbd, 0x95, 0xc4, 0x2a, 0xbd, 0x96, 0x27, 0x00, 0xbf,
  0xb6, 0xa7, 0x17, 0xbe, 0x5f, 0x92, 0xac, 0xbe, 0x22, 0x41, 0x83, 0xbe,
  0x8d, 0x55, 0x73, 0x3c, 0xcc, 0x0e, 0x4e, 0x3d, 0x23, 0x6a, 0x97, 0x3e,
  0x1b, 0xc8, 0x7c, 0x3d, 0xe2, 0xc0, 0xe3, 0x3d, 0xbb, 0x58, 0x9a, 0x3d,
  0x53, 0xc0, 0x5e, 0xbe, 0xeb, 0x64, 0x8a, 0xbd, 0x9b, 0x19, 0x56, 0x3e,
  0x4e, 0xd8, 0x09, 0x3e, 0x12, 0x56, 0x9f, 0xbd, 0x82, 0x64, 0x37, 0x3d,
  0xe9, 0xf9, 0x89, 0xbe, 0xf6, 0x2e, 0x79, 0xbe, 0x85, 0x42, 0x5d, 0xbe,
  0xce, 0x55, 0x41, 0xbd, 0x61, 0x9e, 0xf9, 0x3c, 0xbf, 0x5f, 0xd9, 0x3c,
  0x6d, 0x44, 0x9b, 0x3d, 0x35, 0x99, 0x81, 0x3d, 0xbd, 0x3d, 0x4e, 0x3d,
  0xb9, 0x08, 0x8a, 0x3c, 0x64, 0x55, 0x22, 0xbe, 0xf5, 0x97, 0x3e, 0x39,
  0x5b, 0xa0, 0xd2, 0x3d, 0xae, 0xc2, 0xd5, 0x3a, 0x82, 0x49, 0xc5, 0xbd,
  0xde, 0x0f, 0xb5, 0xbc, 0x42, 0xd6, 0xa8, 0x3c, 0x31, 0xe3, 0xf5, 0xbd,
  0x45, 0xf9, 0x5b, 0xbd, 0x16, 0x5e, 0x70, 0xbe, 0x77, 0x01, 0xe8, 0x3c,
  0xbb, 0xf0, 0x4a, 0x3d, 0xb3, 0x5d, 0x11, 0xbe, 0x15, 0x7d, 0xad, 0xbe,
  0x1a, 0xdc, 0x4d, 0xbe, 0x81, 0xa9, 0x10, 0x3d, 0x9f, 0x8b, 0x3f, 0x3e,
  0x2e, 0x42, 0x33, 0xbe, 0xf3, 0x6a, 0xce, 0xbe, 0xbd, 0xc5, 0xb1, 0x3d,
  0x7f, 0x3a, 0x62, 0xbe, 0xf9, 0x63, 0xed, 0x3c, 0xee, 0x93, 0x3f, 0xbf,
  0x13, 0x6a, 0x2f, 0x3e, 0x0d, 0x7d, 0x97, 0x3e, 0x8a, 0xf9, 0xaa, 0xbe,
  0xef, 0xae, 0x2d, 0x3d, 0x8a, 0x1f, 0xab, 0x3c, 0x02, 0xca, 0x2c, 0x3e,
  0xf7, 0x31, 0x84, 0xbe, 0x29, 0xeb, 0xa0, 0xbd, 0xe9, 0x27, 0x95, 0x3e,
  0xd6, 0xe6, 0xad, 0x3e, 0xda, 0x30, 0x70, 0xbd, 0x30, 0xdc, 0x54, 0xbe,
  0xd0, 0x09, 0xcc, 0x3c, 0xb5, 0x89, 0x14, 0x3e, 0xf3, 0x44, 0x85, 0x3e,
  0x9b, 0x5e, 0x2e, 0x3d, 0xa0, 0x87, 0x30, 0xbe, 0xed, 0x9f, 0x04, 0xbe,
  0x23, 0x65, 0x9a, 0xbe, 0x42, 0x45, 0x6e, 0x3d, 0x91, 0x77, 0xc4, 0x3b,
  0x1d, 0xda, 0xf1, 0xbd, 0x40, 0x1e, 0x6c, 0xbe, 0xe6, 0xf6, 0xaf, 0xbd,
  0xd8, 0xae, 0x89, 0x3e, 0x4c, 0x6a, 0x0b, 0x3a, 0x46, 0x41, 0x0e, 0xbd,
  0xe4, 0x72, 0x5d, 0xbe, 0xe6, 0x73, 0xb5, 0xbd, 0x67, 0xcd, 0xb8, 0x3e,
  0x74, 0x75, 0xde, 0xbd, 0xda, 0x8b, 0xc0, 0x3d, 0xcc, 0xad, 0x19, 0x3c,
  0x85, 0x34, 0x55, 0x3e, 0xdb, 0x0e, 0x07, 0xbe, 0xd5, 0x18, 0xc2, 0x3d,
  0xf6, 0xb2, 0x04, 0x3d, 0x1f, 0xd2, 0xc2, 0x3d, 0xbe, 0xcd, 0x04, 0xbd,
  0x7b, 0x3f, 0xde, 0x3d, 0x84, 0x2f, 0xea, 0x3d, 0xe4, 0xe9, 0x7c, 0x3d,
  0x39, 0xf2, 0xc9, 0xbd, 0x02, 0xce, 0x75, 0xbe, 0xb3, 0x29, 0x22, 0xbe,
  0x67, 0xb2, 0xd8, 0x3b, 0x8d, 0x67, 0x8d, 0x3e, 0x1c, 0x69, 0x31, 0x3e,
  0xcc, 0x5c, 0x76, 0x3d, 0xa9, 0x4a, 0x83, 0x3d, 0x64, 0x3f, 0x9d, 0xbe,
  0x06, 0xb1, 0x81, 0x3d, 0x0c, 0x97, 0xd0, 0x3c, 0x3e, 0x5f, 0x92, 0x3b,
  0x5a, 0xe7, 0xfd, 0xbd, 0x69, 0xcd, 0x58, 0xbc, 0xd4, 0xe4, 0x77, 0x3d,
  0x72, 0x79, 0xeb, 0xbc, 0xfb, 0x3b, 0x45, 0xbe, 0x1f, 0x18, 0xf6, 0xbd,
  0x51, 0x92, 0xa3, 0x3c, 0x8b, 0x1f, 0xec, 0x3d, 0xe0, 0x95, 0x01, 0xbd,
  0x73, 0xd0, 0xa3, 0x3d, 0x2a, 0x10, 0x72, 0x3e, 0x64, 0xcb, 0xdd, 0x3e,
  0x3a, 0xd2, 0x2d, 0xbe, 0x24, 0x5c, 0xb1, 0xbc, 0x56, 0xe3, 0x3c, 0x3d,
  0x8f, 0x41, 0xd1, 0x3d, 0xd6, 0x12, 0x53, 0xbe, 0x57, 0x49, 0x8c, 0xbd,
  0x93, 0x04, 0x8b, 0xbd, 0x12, 0xf8, 0x8b, 0x3e, 0x28, 0x82, 0xaf, 0xbd,
  0xca, 0xb1, 0x94, 0xbd, 0xd9, 0x48, 0x0f, 0xbc, 0x38, 0x2e, 0x47, 0x3e,
  0x55, 0xba, 0x62, 0xbe, 0x98, 0xf0, 0x18, 0x3e, 0x73, 0x1d, 0x66, 0x3e,
  0x45, 0xa8, 0xb1, 0x3e, 0x2c, 0xbe, 0xfb, 0xbd, 0xd8, 0xfc, 0x4b, 0x3d,
  0x53, 0x52, 0x73, 0x3b, 0xe9, 0x82, 0x91, 0x3d, 0x81, 0xde, 0x54, 0xbd,
  0x3d, 0xa1, 0xc1, 0xbc, 0x24, 0x61, 0x0b, 0x3c, 0x2b, 0x5e, 0x34, 0x3e,
  0x0a, 0xd4, 0xb7, 0x3c, 0x19, 0xf5, 0x31, 0xbc, 0x3d, 0x3e, 0x17, 0xbe,
  0xfd, 0xa3, 0xb3, 0xbd, 0x09, 0xc0, 0x34, 0xbd, 0xe5, 0xa2, 0xe5, 0x3e,
  0xcd, 0x0b, 0xae, 0xbc, 0x63, 0xca, 0x01, 0x3e, 0xc1, 0x37, 0xa6, 0xbc,
  0xd9, 0xe2, 0x6d, 0xbe, 0xdc, 0x27, 0x88, 0xbe, 0xc0, 0x9b, 0x1f, 0xbe,
  0xb7, 0x2e, 0x48, 0x3d, 0x02, 0x00, 0x5f, 0xbd, 0x2d, 0x60, 0x20, 0x3d,
  0x27, 0x1c, 0x96, 0xbd, 0x15, 0x41, 0xaa, 0xbd, 0x8d, 0x86, 0x14, 0xbe,
  0x59, 0x5e, 0x8b, 0x3d, 0x04, 0x66, 0x6e, 0xbe, 0x25, 0xc9, 0x24, 0x3e,
  0x0a, 0x71, 0xf3, 0xbd, 0x04, 0x45, 0x84, 0xbb, 0xe6, 0xfd, 0xf9, 0x3d,
  0xd0, 0x84, 0x43, 0xbe, 0x4a, 0xce, 0xa2, 0xbd, 0x7a, 0xde, 0xaf, 0xbd,
  0x89, 0xc7, 0x0d, 0xbe, 0x55, 0xed, 0xa6, 0x3d, 0x54, 0xda, 0x7d, 0xbe,
  0xde, 0x9c, 0x9a, 0x3d, 0xcf, 0x41, 0xc6, 0x3c, 0xa3, 0x8f, 0x53, 0xbe,
  0x7c, 0xc2, 0x9a, 0x3d, 0x13, 0xcb, 0xeb, 0x3c, 0x09, 0x1f, 0x92, 0xbe,
  0xb6, 0xfc, 0x89, 0xbd, 0x7c, 0xe8, 0x09, 0x3d, 0xf4, 0x24, 0x1c, 0x3d,
  0x2b, 0x7b, 0x0a, 0xbe, 0x8f, 0xe1, 0xf6, 0x3c, 0x6e, 0x0a, 0x5c, 0xbe,
  0x8b, 0x9a, 0x7f, 0x3c, 0x17, 0xa2, 0x5c, 0x3c, 0x00, 0xad, 0xd0, 0x3c,
  0xf3, 0x53, 0x9a, 0xbc, 0xd9, 0xdb, 0x03, 0x3d, 0x4e, 0x87, 0xd1, 0x3c,
  0xac, 0xaf, 0xf9, 0xbb, 0x7a, 0xc4, 0x55, 0xbd, 0x8c, 0xaf, 0x3e, 0xbe,
  0xf0, 0xe4, 0x33, 0x3e, 0xa9, 0xd2, 0xa8, 0xbd, 0x49, 0x1a, 0x28, 0x3e,
  0x5d, 0x07, 0x82, 0xbd, 0x22, 0xa6, 0x19, 0xbd, 0x00, 0x3d, 0x51, 0xbe,
  0x6c, 0x29, 0xd9, 0x3d, 0x5d, 0x63, 0x9a, 0xbe, 0x5d, 0x11, 0x3b, 0xbe,
  0xa0, 0xc2, 0x82, 0xbe, 0xb9, 0x27, 0x5b, 0x3c, 0x9e, 0xa0, 0x04, 0x3d,
  0xa4, 0xf4, 0x64, 0x3e, 0xd9, 0xc2, 0xf7, 0x3d, 0x55, 0x91, 0x21, 0x3d,
  0x4b, 0x7b, 0x34, 0xbd, 0x1f, 0x2e, 0x8f, 0xbc, 0xb7, 0x72, 0x4e, 0xbe,
  0x83, 0x17, 0xb4, 0xbc, 0xcd, 0xd4, 0x57, 0xbe, 0xb7, 0xdf, 0xe0, 0xbd,
  0x40, 0x25, 0x1e, 0xbe, 0xa8, 0xf6, 0xb1, 0x3b, 0xb0, 0x4d, 0xab, 0xbe,
  0xe4, 0x82, 0x95, 0xbd, 0x31, 0x59, 0x3a, 0xbd, 0xc2, 0x44, 0x7a, 0xbe,
  0x5d, 0xc3, 0xf9, 0x3c, 0x69, 0xa3, 0x02, 0xbe, 0x85, 0x9c, 0x99, 0xbe,
  0x94, 0xed, 0x71, 0xbe, 0x7a, 0xee, 0xbe, 0x3d, 0x28, 0x00, 0xd0, 0x3d,
  0x95, 0x3e, 0xdd, 0x3d, 0x84, 0x85, 0x0b, 0xbe, 0x1f, 0xa9, 0x41, 0xbd,
  0x4d, 0x2b, 0x2f, 0xbe, 0xbc, 0x14, 0x7f, 0xbe, 0x14, 0xeb, 0x33, 0xbe,
  0x97, 0x05, 0x69, 0xbe, 0x46, 0x78, 0x33, 0xbe, 0xc6, 0x0d, 0xd6, 0x3d,
  0x9f, 0xf5, 0x15, 0xbd, 0xe8, 0x7c, 0xd6, 0xbd, 0xd6, 0xb2, 0x7a, 0xbe,
  0xfe, 0xce, 0x67, 0x3b, 0xe8, 0x1d, 0xd7, 0x3d, 0x2c, 0x20, 0xe1, 0xbd,
  0x7a, 0xa7, 0x0d, 0xbe, 0xf6, 0x91, 0x0c, 0xbe, 0x40, 0xfa, 0xed, 0xbd,
  0xcc, 0x51, 0x32, 0x3c, 0x67, 0x5f, 0xab, 0x3d, 0xa8, 0xea, 0x61, 0xbe,
  0xc9, 0x69, 0x8c, 0xbe, 0x97, 0x7f, 0x99, 0xbe, 0x30, 0xb0, 0x99, 0x3d,
  0x83, 0x39, 0x2f, 0x3d, 0xb8, 0x88, 0xc4, 0xbe, 0x89, 0x92, 0x8f, 0xbd,
  0x80, 0x08, 0xd5, 0x3d, 0x64, 0xa0, 0xa5, 0xbb, 0xe5, 0xf2, 0x0f, 0xbe,
  0xcf, 0x92, 0xa9, 0xbb, 0x99, 0xb3, 0xad, 0x3c, 0x16, 0xfe, 0x23, 0x3e,
  0xa9, 0x66, 0x39, 0x3e, 0x1f, 0x5c, 0x60, 0xbe, 0x3d, 0xc1, 0xbd, 0x3d,
  0x60, 0xed, 0xae, 0xbc, 0x1d, 0xd5, 0x2f, 0xbd, 0x38, 0xf7, 0x96, 0xbe,
  0x4d, 0xd1, 0x1d, 0x3e, 0xb1, 0xca, 0xfe, 0xbd, 0x46, 0x3d, 0xe8, 0xbd,
  0xda, 0xa6, 0x83, 0xbd, 0x2c, 0x0d, 0xfa, 0xbd, 0x76, 0x94, 0x66, 0x3c,
  0x55, 0x61, 0x84, 0xbe, 0xd5, 0xd7, 0xf6, 0x3c, 0x01, 0x50, 0x18, 0xbe,
  0xf2, 0x00, 0x17, 0x3e, 0x3d, 0x0c, 0x96, 0xbc, 0xd0, 0xce, 0x4e, 0x3d,
  0x92, 0x4e, 0x81, 0xbd, 0xad, 0x56, 0xa5, 0xbe, 0x6a, 0x44, 0x01, 0x3d,
  0x52, 0x5e, 0x69, 0xbe, 0x48, 0xc6, 0x87, 0x3d, 0x94, 0x1c, 0xc6, 0x3d,
  0x80, 0xc9, 0x76, 0xbe, 0x64, 0x70, 0xfa, 0xbd, 0x7d, 0x17, 0x24, 0x3d,
  0x38, 0xf1, 0x75, 0xbe, 0x48, 0x50, 0x48, 0xbd, 0x4b, 0xe8, 0x2f, 0xbe,
  0xbc, 0xc5, 0xb1, 0x3d, 0x24, 0x6a, 0x8a, 0x3d, 0x09, 0x53, 0xb5, 0x3d,
  0x30, 0x45, 0x62, 0xbd, 0xab, 0xc1, 0x28, 0xbe, 0xb9, 0xbd, 0xb2, 0x3d,
  0xcd, 0x14, 0x26, 0xbe, 0x34, 0x74, 0x4c, 0xbe, 0x75, 0x7b, 0xce, 0x3d,
  0x5f, 0xf0, 0xee, 0xbd, 0xad, 0xa0, 0xbf, 0x3c, 0xaa, 0x60, 0x42, 0xbe,
  0x46, 0xa5, 0x31, 0xbe, 0x78, 0x58, 0x53, 0xbd, 0x3f, 0xef, 0x39, 0xbb,
  0xfa, 0x8d, 0x1c, 0x3d, 0x29, 0x61, 0x8d, 0x3d, 0x53, 0x9f, 0x0d, 0x3e,
  0x17, 0x64, 0x16, 0xbe, 0xe9, 0x8e, 0x6f, 0xbd, 0x17, 0xf1, 0x6d, 0xbe,
  0x5f, 0x88, 0x0b, 0xbe, 0x94, 0x2c, 0x04, 0xbe, 0x70, 0x98, 0x99, 0xbe,
  0x43, 0x43, 0x7d, 0x3d, 0x3c, 0x1d, 0x68, 0xbc, 0x09, 0xd4, 0x86, 0xbe,
  0x7a, 0x8b, 0xf5, 0xbc, 0xf7, 0x92, 0x0b, 0x3e, 0x8a, 0xd0, 0x2a, 0xbe,
  0x67, 0xbc, 0x26, 0x3e, 0xd5, 0x02, 0xba, 0xbb, 0x3c, 0xde, 0x13, 0x3d,
  0x1b, 0x97, 0xfa, 0x3c, 0xba, 0x66, 0xf0, 0x3d, 0x82, 0x80, 0xf1, 0x3d,
  0xed, 0xb2, 0x81, 0x3d, 0x2a, 0x4f, 0x5e, 0xbe, 0x8d, 0x43, 0x8d, 0xbe,
  0xb2, 0x7e, 0x9c, 0xbe, 0x6a, 0x5c, 0xc7, 0x3b, 0xb9, 0x0d, 0x17, 0xbe,
  0x5e, 0x0c, 0xed, 0xbd, 0x6f, 0x5d, 0x6f, 0xbe, 0x0a, 0xb1, 0x1d, 0x3d,
  0x88, 0x1f, 0x86, 0x3d, 0x8c, 0xb0, 0x83, 0xbd, 0xcd, 0xa4, 0x02, 0xbd,
  0x51, 0x48, 0x34, 0xbe, 0xce, 0x83, 0x3a, 0xbe, 0xe6, 0xfb, 0x02, 0x3e,
  0xf0, 0xbf, 0xe2, 0x3d, 0x06, 0x55, 0x7c, 0xbe, 0x85, 0x69, 0xa0, 0xbe,
  0xba, 0xa5, 0x97, 0xbe, 0x22, 0x12, 0x9d, 0xbb, 0x4d, 0xea, 0x51, 0x3e,
  0x95, 0x5f, 0xc4, 0x3d, 0xc9, 0xae, 0xd5, 0xbd, 0x50, 0x79, 0x6a, 0xbc,
  0x93, 0xac, 0xb2, 0x3d, 0xb5, 0xfd, 0xe6, 0x3d, 0x54, 0x53, 0x74, 0xbd,
  0x01, 0xa9, 0xa5, 0xbd, 0xfe, 0x0e, 0x83, 0x3d, 0xf1, 0x23, 0x16, 0x3e,
  0x0d, 0x3f, 0x07, 0x3d, 0xb1, 0x96, 0xfc, 0xbd, 0x62, 0xb1, 0x65, 0xbe,
  0xa6, 0x86, 0x24, 0xbd, 0xb8, 0x68, 0x65, 0xbe, 0xdc, 0xb1, 0x5b, 0xbe,
  0xfd, 0x79, 0x29, 0x3e, 0x33, 0xca, 0x0a, 0xbe, 0x6e, 0x8f, 0x6b, 0xbe,
  0x5f, 0xa7, 0x00, 0xbe, 0x42, 0xe8, 0x2f, 0xbe, 0x2e, 0x9b, 0xc7, 0x3b,
  0xce, 0x95, 0x83, 0xbd, 0xeb, 0xea, 0x49, 0xbd, 0x26, 0x02, 0xdf, 0xbd,
  0x39, 0xf2, 0x0f, 0x3e, 0x63, 0xbf, 0x68, 0x3d, 0x58, 0x80, 0xb7, 0xbd,
  0x5c, 0x37, 0xa8, 0xbd, 0x3e, 0x1d, 0x83, 0x3c, 0xca, 0xb9, 0xa3, 0xbe,
  0x68, 0x32, 0x6c, 0x3e, 0x6f, 0x5c, 0xa3, 0x3b, 0x05, 0xe6, 0x1c, 0xbe,
  0x9e, 0x5f, 0xc7, 0xbd, 0x4e, 0xcc, 0x8d, 0xbe, 0x02, 0xec, 0xa3, 0x3e,
  0x4c, 0xb4, 0x74, 0xbe, 0x02, 0x78, 0x23, 0xbe, 0x27, 0xcd, 0xe9, 0x3d,
  0xb4, 0xf9, 0xf4, 0x3d, 0x87, 0xd3, 0x33, 0x3e, 0x3b, 0x7b, 0xb1, 0xbb,
  0x98, 0x38, 0x4e, 0x3e, 0x31, 0x38, 0x91, 0x3e, 0x4e, 0xa5, 0x37, 0xbc,
  0x18, 0x8a, 0x43, 0xbe, 0xcb, 0xb4, 0xb2, 0x3d, 0x17, 0xc9, 0xa0, 0x3d,
  0x55, 0x76, 0x13, 0xbd, 0x0a, 0x58, 0x20, 0x3a, 0x5d, 0xbb, 0x56, 0xbd,
  0xbc, 0x0e, 0xdc, 0x3e, 0x45, 0x5a, 0x38, 0xbe, 0x8e, 0x72, 0x6c, 0xbe,
  0x9c, 0xd2, 0xa2, 0x3e, 0x66, 0xaf, 0xc6, 0x3c, 0xa1, 0x45, 0xca, 0xbc,
  0x63, 0x9f, 0x36, 0xbe, 0xed, 0x67, 0xf7, 0xbd, 0x4a, 0x39, 0xb8, 0xbe,
  0xa3, 0xae, 0x24, 0x3a, 0x4d, 0xd1, 0x6c, 0xbe, 0xaf, 0x76, 0x3e, 0x3d,
  0xe7, 0x3b, 0xd3, 0xbd, 0xcb, 0x21, 0xef, 0xbc, 0x5c, 0xbe, 0x1b, 0xbe,
  0x14, 0x8b, 0x23, 0x3e, 0xee, 0x94, 0xbd, 0xbd, 0x6c, 0xa6, 0x46, 0xbc,
  0xa6, 0x97, 0x8d, 0xbe, 0xc1, 0xb7, 0xf8, 0x3d, 0x20, 0xa1, 0xf5, 0xbc,
  0x50, 0x19, 0x29, 0xbe, 0x87, 0x0b, 0xcd, 0xbd, 0xe0, 0x6c, 0x45, 0xbe,
  0x07, 0xb5, 0xd1, 0x3d, 0xec, 0xaa, 0x03, 0x3d, 0xb5, 0xa4, 0x94, 0xbc,
  0xcd, 0x93, 0x6c, 0xbb, 0x45, 0x2e, 0x12, 0xbe, 0x35, 0x39, 0xcc, 0xbe,
  0x0a, 0x2f, 0x75, 0xbe, 0x59, 0xd9, 0x89, 0xbd, 0xb0, 0x5a, 0xa3, 0xbd,
  0x2b, 0x76, 0x37, 0x3c, 0x19, 0x05, 0xf5, 0xbd, 0x59, 0xf7, 0x23, 0xbe,
  0xde, 0xc1, 0xab, 0xbc, 0xe3, 0xbb, 0x2f, 0xbe, 0x5a, 0x3e, 0x6f, 0x3d,
  0x5d, 0xc8, 0x07, 0xbe, 0x9c, 0x4d, 0x3d, 0x3e, 0xd2, 0xf6, 0x34, 0x3c,
  0xc5, 0x18, 0x00, 0xbd, 0x79, 0x4e, 0x94, 0xbc, 0x03, 0xf6, 0x7a, 0xbd,
  0x2f, 0x13, 0x8a, 0xbe, 0x45, 0x8c, 0x28, 0xbe, 0x10, 0x10, 0x0c, 0xbd,
  0xcd, 0xbc, 0xf8, 0xbd, 0x1b, 0x63, 0x20, 0x3d, 0xd0, 0x6b, 0xfb, 0x3d,
  0x96, 0x01, 0x9c, 0x3c, 0xfc, 0x82, 0x17, 0x3c, 0x9d, 0x68, 0xd0, 0xbd,
  0xf2, 0xac, 0x17, 0x3e, 0xa8, 0x9c, 0x0f, 0x3e, 0x67, 0xaf, 0xc3, 0x3c,
  0x64, 0xb6, 0x0b, 0x3d, 0xd3, 0x11, 0x15, 0xbf, 0xd8, 0xda, 0xba, 0xbb,
  0xc5, 0xaf, 0x14, 0xbe, 0xc6, 0x6b, 0xd6, 0xbe, 0x99, 0x21, 0xb8, 0xbd,
  0xc2, 0x81, 0x6b, 0xbe, 0x9b, 0x80, 0x73, 0x3e, 0xe2, 0x46, 0x68, 0xbe,
  0xe4, 0x47, 0xa7, 0xbd, 0x17, 0xd5, 0xba, 0xbd, 0xac, 0x9f, 0xa1, 0x3c,
  0x33, 0xa0, 0x04, 0xbe, 0x68, 0x79, 0x89, 0x3e, 0x51, 0x52, 0xcd, 0x3e,
  0x64, 0x80, 0x54, 0x3e, 0xfa, 0x63, 0x08, 0xbd, 0x35, 0x94, 0x3c, 0xbd,
  0xb7, 0x20, 0x27, 0xbd, 0xfa, 0x59, 0xaa, 0x3e, 0xf5, 0xc1, 0xb8, 0xbd,
  0xda, 0xd1, 0x64, 0xbd, 0x78, 0x6c, 0x13, 0xbe, 0xcc, 0x71, 0x92, 0x3d,
  0xb6, 0xbc, 0x71, 0x3d, 0xa8, 0xd6, 0xd1, 0xbc, 0xd0, 0xcb, 0x7c, 0xb7,
  0xdd, 0x1b, 0xd5, 0x3d, 0x7f, 0x93, 0x05, 0x3d, 0x15, 0xa0, 0x08, 0x3f,
  0xdc, 0x87, 0xcd, 0x3d, 0xe7, 0xeb, 0x5b, 0x3c, 0x54, 0xcb, 0x7f, 0xbe,
  0xd3, 0x9d, 0x34, 0xbe, 0x21, 0xf6, 0x05, 0xbe, 0x54, 0xdf, 0x4a, 0x3e,
  0x3b, 0x3f, 0x85, 0x3e, 0x69, 0x1f, 0x68, 0x3e, 0xd1, 0x10, 0x95, 0xbe,
  0x4b, 0x33, 0xd7, 0x3d, 0xd8, 0x2f, 0x91, 0x3d, 0x89, 0x6a, 0x3a, 0xbd,
  0x7a, 0xe5, 0xef, 0xbc, 0xca, 0x03, 0x98, 0xbe, 0xd4, 0xf8, 0x85, 0xbe,
  0x60, 0xd8, 0xb6, 0x3e, 0xba, 0xc5, 0x99, 0xbc, 0x4d, 0x92, 0x92, 0x3c,
  0x17, 0xe3, 0x19, 0xbe, 0x62, 0xc5, 0xc2, 0xbe, 0x32, 0xe1, 0xb9, 0xbe,
  0x75, 0xa2, 0x1e, 0x3d, 0xf6, 0x4f, 0x95, 0xbd, 0x99, 0x5c, 0x64, 0x3e,
  0xbf, 0x0c, 0x74, 0xbd, 0x08, 0xde, 0x7a, 0xbe, 0xd0, 0xdd, 0xad, 0x3c,
  0xbd, 0x9b, 0x76, 0xbe, 0x17, 0xc7, 0xe3, 0x3d, 0xf3, 0x2b, 0x4f, 0x3d,
  0x23, 0x22, 0xf2, 0xbc, 0xa9, 0xf7, 0xef, 0x3e, 0x3a, 0xa7, 0x2e, 0x3c,
  0x7b, 0x6d, 0x19, 0x3e, 0x62, 0xe3, 0x5e, 0xbe, 0x8d, 0xe2, 0x81, 0xbe,
  0x9f, 0x90, 0x8a, 0xbe, 0xb0, 0x62, 0xdd, 0xbd, 0x5d, 0x17, 0x09, 0x3f,
  0x30, 0xa7, 0xad, 0x3e, 0xc5, 0x2b, 0x36, 0xbd, 0xb4, 0x8b, 0xdd, 0xbd,
  0xfa, 0xcb, 0x5f, 0xbe, 0xea, 0xba, 0x98, 0xbd, 0x4d, 0xa9, 0x02, 0xbd,
  0x39, 0x22, 0x31, 0xbe, 0x4e, 0x4a, 0xbb, 0xbd, 0xdf, 0x79, 0x4d, 0x3f,
  0x61, 0x11, 0x7e, 0x3d, 0x07, 0x89, 0x34, 0x3e, 0x5d, 0x9f, 0xa1, 0xbe,
  0xbc, 0xc0, 0x03, 0xbe, 0x1c, 0x88, 0x0b, 0xbc, 0x00, 0xed, 0x12, 0xbd,
  0x45, 0xc9, 0xdb, 0x3e, 0x97, 0xda, 0x05, 0x3f, 0x80, 0x3d, 0xa5, 0xbd,
  0xfa, 0xe3, 0x7b, 0x3b, 0x53, 0xe3, 0xfe, 0x3d, 0xc3, 0xce, 0xec, 0x3b,
  0x74, 0x89, 0x90, 0x3d, 0x39, 0xc4, 0x36, 0xbd, 0xea, 0x1e, 0x55, 0xbe,
  0x45, 0xdf, 0x5d, 0x3f, 0x24, 0xb7, 0xda, 0xbd, 0xe3, 0xcf, 0x44, 0x3e,
  0x04, 0x86, 0x6d, 0xbe, 0x77, 0x80, 0x19, 0xbe, 0x51, 0xe4, 0x50, 0xbe,
  0x7d, 0x1d, 0x17, 0x3e, 0xaf, 0xcf, 0x96, 0x3e, 0xea, 0xe2, 0x1e, 0x3f,
  0x9a, 0xa0, 0x86, 0xbc, 0x4a, 0x51, 0x38, 0x3d, 0xc5, 0x52, 0xc1, 0x3c,
  0x6a, 0x0d, 0x7b, 0xbc, 0x96, 0xf8, 0x0c, 0xbd, 0x1c, 0x02, 0xc2, 0xbd,
  0x77, 0x86, 0x47, 0xbe, 0xb6, 0x72, 0x01, 0x3e, 0xe6, 0xb2, 0xee, 0xbd,
  0x46, 0xcf, 0x36, 0xbd, 0x0f, 0xfd, 0x2d, 0xbe, 0x85, 0x55, 0xf7, 0xbd,
  0x92, 0x88, 0x7e, 0xbe, 0xe5, 0x3b, 0x99, 0x3d, 0x2e, 0x69, 0x0e, 0x3f,
  0x81, 0xfc, 0x62, 0x3e, 0x10, 0x7a, 0xd9, 0xbd, 0x52, 0xd8, 0xaa, 0xbd,
  0xfb, 0xb9, 0x25, 0xbe, 0xe4, 0x26, 0x68, 0xbe, 0x0c, 0xdd, 0xfb, 0xbc,
  0x5c, 0x7f, 0x76, 0xbd, 0xe7, 0x1b, 0x85, 0x3d, 0x9c, 0xf1, 0xdd, 0x3e,
  0x64, 0x5a, 0x3f, 0x3c, 0x09, 0x56, 0x01, 0x3e, 0xcc, 0x6d, 0x48, 0xbe,
  0x67, 0xc5, 0x0c, 0xbe, 0x51, 0x68, 0x17, 0xbe, 0x98, 0xd2, 0x35, 0x3d,
  0x11, 0xa0, 0xce, 0xbd, 0x8b, 0x9f, 0x29, 0xbd, 0x40, 0x84, 0x26, 0xbe,
  0x9c, 0x4a, 0x18, 0x3d, 0x2c, 0x58, 0x96, 0xbe, 0x27, 0x4c, 0x7c, 0x3d,
  0xb0, 0x37, 0x17, 0x3d, 0x31, 0x89, 0x57, 0xbd, 0xa8, 0x4b, 0x13, 0xbe,
  0xf8, 0xde, 0x2a, 0x3e, 0xe1, 0x65, 0xba, 0xbe, 0x21, 0x6c, 0x18, 0xbe,
  0xba, 0x7d, 0xe7, 0xbd, 0x23, 0xd0, 0x87, 0xbd, 0x39, 0x35, 0x34, 0xbe,
  0x7b, 0x8b, 0x2d, 0xbd, 0x74, 0x3c, 0x10, 0x3d, 0xfd, 0x1f, 0xdc, 0xbd,
  0x84, 0x54, 0xf0, 0xbd, 0x02, 0x48, 0x62, 0x3d, 0xf3, 0x35, 0x3d, 0xbe,
  0x5a, 0xa7, 0xa0, 0x3d, 0xeb, 0xc4, 0x95, 0xbd, 0x0d, 0xd3, 0x9b, 0xbc,
  0x9f, 0x43, 0x18, 0xbe, 0x46, 0xa5, 0x0f, 0xbe, 0xf4, 0x39, 0x89, 0x3c,
  0xcd, 0x7b, 0xd8, 0xbd, 0x28, 0xa0, 0xf4, 0xbd, 0x04, 0x37, 0xcb, 0x3b,
  0x13, 0xd0, 0x37, 0xbe, 0x97, 0xa1, 0x19, 0xbd, 0x8b, 0xb4, 0x49, 0xbe,
  0xc4, 0x47, 0x96, 0xbd, 0xa4, 0xa1, 0x4e, 0xbe, 0xaf, 0xab, 0x24, 0xbd,
  0x0f, 0xa3, 0xdf, 0xbb, 0xcc, 0xa7, 0xc2, 0xbc, 0x8d, 0x13, 0x2c, 0xbe,
  0xfe, 0x4d, 0x4a, 0x3d, 0x92, 0x9b, 0xd7, 0x3d, 0x9c, 0xf1, 0x6f, 0x3d,
  0xd1, 0xad, 0x05, 0xbe, 0xbe, 0xad, 0x97, 0xbd, 0x0d, 0x47, 0xa4, 0xbd,
  0xcf, 0xd7, 0xc1, 0xbd, 0xe6, 0x11, 0x82, 0xbe, 0x1a, 0x84, 0x3f, 0x3e,
  0x77, 0x7c, 0xec, 0x3d, 0x44, 0x5b, 0x70, 0xbe, 0x74, 0x81, 0x34, 0x3d,
  0xc6, 0x1e, 0xf8, 0xbb, 0xbd, 0x74, 0x99, 0xbc, 0x91, 0x01, 0x4c, 0xbd,
  0x45, 0xdc, 0x5d, 0x3d, 0x70, 0x4f, 0x4c, 0xbe, 0xce, 0x76, 0xbf, 0xbd,
  0xcd, 0x1b, 0x52, 0xbe, 0xd6, 0x5b, 0x2f, 0xbd, 0xa1, 0x7d, 0x18, 0x3e,
  0xd6, 0xbc, 0x85, 0xbe, 0xf0, 0x9e, 0xf7, 0x3d, 0xf2, 0x44, 0x94, 0xbe,
  0xe1, 0xa5, 0x5c, 0xbe, 0x65, 0x83, 0x8a, 0x3d, 0xf4, 0xb7, 0x88, 0xbe,
  0x5c, 0x7e, 0x35, 0x3d, 0x51, 0xb3, 0xe2, 0xbd, 0x68, 0x26, 0x4f, 0xbe,
  0x27, 0x2f, 0x56, 0xbd, 0xb5, 0x83, 0x19, 0x3d, 0x90, 0xc1, 0xf5, 0x3d,
  0xc5, 0x60, 0xb3, 0xbc, 0xa2, 0xf8, 0x02, 0x3e, 0xee, 0x43, 0xe9, 0x3d,
  0x84, 0x97, 0x5d, 0xbe, 0xec, 0x33, 0x84, 0xbd, 0xb5, 0xbc, 0x0c, 0xbe,
  0xec, 0x96, 0xa6, 0xbe, 0x57, 0xe6, 0x4b, 0x3c, 0xfb, 0x05, 0x9b, 0xbd,
  0xac, 0x81, 0x9b, 0xbd, 0x3e, 0x32, 0xd3, 0xbc, 0x19, 0x9b, 0x6d, 0xbe,
  0x10, 0x93, 0x80, 0xbd, 0xcb, 0x7a, 0x93, 0x3d, 0x40, 0xfb, 0xfa, 0xbd,
  0xe5, 0xc1, 0x14, 0x3d, 0x15, 0x2a, 0x16, 0xbe, 0xe8, 0x0f, 0x89, 0x3d,
  0x20, 0x19, 0x35, 0xbe, 0xa1, 0x28, 0x28, 0xbe, 0xd9, 0x6b, 0x2c, 0xbd,
  0x7d, 0x02, 0x72, 0xbe, 0x86, 0xcd, 0x5b, 0xbd, 0x3e, 0x7b, 0x41, 0x3e,
  0x4f, 0x87, 0xad, 0xbd, 0x62, 0xe1, 0x48, 0xbe, 0x56, 0xc1, 0x8d, 0x3d,
  0xad, 0xa4, 0x5b, 0x3e, 0x8c, 0x8a, 0x8b, 0x3d, 0x30, 0x3e, 0x7c, 0xbc,
  0x66, 0x16, 0x73, 0xbe, 0x9d, 0xae, 0x8e, 0xbd, 0xbe, 0xd7, 0x1d, 0x3e,
  0x57, 0x05, 0xdb, 0xbd, 0x46, 0xc5, 0xce, 0xbd, 0x37, 0x3c, 0x5f, 0xbe,
  0x74, 0xec, 0xa7, 0xbe, 0x3e, 0xf9, 0x20, 0xbc, 0xd8, 0x7e, 0x8f, 0xbe,
  0xeb, 0x4a, 0x10, 0xbe, 0x58, 0xa6, 0x30, 0xbb, 0xaf, 0xaf, 0x63, 0xbe,
  0x75, 0x68, 0x45, 0x3d, 0xa5, 0x2b, 0xd9, 0x3d, 0x3c, 0xf0, 0x8f, 0xbe,
  0xa7, 0xfd, 0x22, 0xbe, 0x17, 0x9d, 0x58, 0xbe, 0x89, 0x70, 0x16, 0x3d,
  0xb9, 0xa1, 0x80, 0x3d, 0x55, 0xda, 0xd5, 0x3d, 0xa6, 0x4d, 0x3f, 0xbe,
  0x62, 0xb3, 0xe1, 0xbd, 0x68, 0x87, 0x54, 0x3d, 0xf9, 0x32, 0xcb, 0xbc,
  0xe7, 0x23, 0xa6, 0xbe, 0x31, 0x1d, 0xb4, 0xbd, 0xc7, 0x90, 0xe8, 0xbd,
  0x51, 0x69, 0xe1, 0xbd, 0x95, 0xe4, 0x45, 0xbd, 0x79, 0x89, 0xf0, 0x3a,
  0xb1, 0xfa, 0x9f, 0xbd, 0x07, 0x36, 0x66, 0xbe, 0x62, 0xac, 0x68, 0xbe,
  0xf2, 0xd9, 0xa9, 0xbd, 0xb8, 0xa2, 0x3a, 0x3e, 0x9c, 0xa3, 0x0a, 0x3d,
  0x82, 0x9b, 0x48, 0x3d, 0x30, 0xde, 0xf0, 0xbc, 0x4f, 0xcf, 0x8e, 0xbe,
  0xef, 0x59, 0xe4, 0xbd, 0x90, 0x1c, 0x23, 0xbe, 0xf3, 0x16, 0x11, 0xbb,
  0x7d, 0x07, 0xce, 0x3c, 0xb9, 0x02, 0x3c, 0xbe, 0x72, 0xc7, 0x84, 0x3c,
  0x15, 0x58, 0x24, 0x3d, 0xd7, 0x0e, 0xc2, 0xbd, 0x61, 0x34, 0x46, 0x3d,
  0xa0, 0x56, 0x85, 0xbd, 0x04, 0x69, 0x47, 0xbd, 0x37, 0xc4, 0x44, 0xbe,
  0x81, 0x4e, 0x80, 0x3d, 0xe3, 0x71, 0x1b, 0xbd, 0x4a, 0x46, 0x69, 0xbe,
  0x50, 0x5c, 0x56, 0xbe, 0x07, 0xa7, 0x65, 0xbd, 0x5e, 0x42, 0x92, 0xbe,
  0x58, 0x82, 0x1d, 0xbd, 0x21, 0xa1, 0x08, 0xbe, 0x8f, 0xab, 0x75, 0xbd,
  0xd7, 0x30, 0x30, 0xbc, 0xe2, 0x36, 0x32, 0x3d, 0x3d, 0xff, 0xf2, 0xbc,
  0x6b, 0xb4, 0x4d, 0xbe, 0xe6, 0x65, 0x29, 0x3e, 0x1f, 0x32, 0x18, 0xbe,
  0xc0, 0x1a, 0xf8, 0xbd, 0x68, 0xa1, 0xa8, 0x3c, 0x9c, 0x91, 0x10, 0x3e,
  0x57, 0xe2, 0x5a, 0xbe, 0xc1, 0xb8, 0x98, 0xbd, 0xb8, 0x33, 0x4e, 0xbe,
  0xb3, 0x5e, 0x2d, 0xbe, 0x9a, 0x38, 0x4e, 0xbe, 0xcc, 0x4e, 0x1d, 0xbe,
  0xcc, 0xb0, 0xf2, 0x3d, 0x00, 0x9b, 0x86, 0x3d, 0xa0, 0x27, 0x62, 0xbe,
  0x01, 0x77, 0xde, 0x3c, 0xdc, 0x9d, 0xee, 0xbd, 0xeb, 0x08, 0x48, 0xbe,
  0x28, 0xc5, 0x78, 0xbe, 0x62, 0x96, 0xb5, 0x3d, 0x16, 0x55, 0x60, 0xbd,
  0x6b, 0x84, 0x21, 0xbe, 0x19, 0xb1, 0x16, 0x3e, 0x9c, 0x6e, 0x7e, 0xbe,
  0x44, 0x05, 0x50, 0xbe, 0xe8, 0x44, 0xbe, 0xbe, 0x4b, 0x15, 0xeb, 0xbd,
  0xd2, 0xbb, 0x4a, 0x3d, 0x68, 0xa4, 0x6a, 0xbe, 0xd4, 0x77, 0xb5, 0x3d,
  0x80, 0xfc, 0x29, 0x3e, 0x01, 0xc8, 0xe0, 0x3d, 0xd4, 0xed, 0x8c, 0xbd,
  0x6e, 0x65, 0x81, 0xbd, 0x9a, 0x08, 0x83, 0xbe, 0x9d, 0x07, 0x50, 0x3d,
  0xc8, 0x18, 0xf6, 0x3c, 0x22, 0x26, 0xb3, 0x3d, 0x16, 0x2f, 0xf1, 0xbd,
  0x63, 0x51, 0xc3, 0xbc, 0xa1, 0x07, 0x99, 0xbd, 0xbb, 0x50, 0xc2, 0xbc,
  0x37, 0x3f, 0x86, 0x3d, 0x41, 0xb3, 0x8d, 0x3d, 0xf2, 0x33, 0xc0, 0xbd,
  0x65, 0x9e, 0x01, 0x3e, 0xb5, 0x06, 0x82, 0x3d, 0xa3, 0x15, 0x1d, 0xbe,
  0x04, 0x02, 0x7d, 0x3c, 0x9b, 0xf4, 0x25, 0xbd, 0x00, 0x7e, 0x6e, 0xbe,
  0xb0, 0xad, 0x55, 0xbd, 0xe0, 0x0a, 0x01, 0x3d, 0xd8, 0x9c, 0x4f, 0xbe,
  0xaf, 0xd1, 0x77, 0xbd, 0x10, 0x00, 0xd2, 0xbb, 0xdf, 0x6b, 0x62, 0xbe,
  0xb0, 0x42, 0x25, 0xbe, 0x93, 0xe5, 0x3c, 0xbe, 0xb9, 0xbf, 0x9f, 0xbd,
  0x76, 0x3a, 0x66, 0xbe, 0x37, 0xde, 0xd6, 0xbc, 0x6b, 0x7c, 0xf0, 0x3d,
  0xbe, 0xba, 0x54, 0x3d, 0x8b, 0x94, 0x29, 0xbe, 0xdb, 0xbc, 0x46, 0xbe,
  0xad, 0x8b, 0x0a, 0xbc, 0x09, 0x63, 0x20, 0xbe, 0x6e, 0x0c, 0xde, 0xbd,
  0x6f, 0xf3, 0x65, 0xbe, 0x14, 0x80, 0xe2, 0xbd, 0xb9, 0xe1, 0x21, 0xbd,
  0xcc, 0xfb, 0x97, 0xbc, 0x32, 0xad, 0x2c, 0xbd, 0x45, 0x6e, 0x34, 0xbe,
  0x1d, 0x2c, 0x83, 0x3e, 0xca, 0x82, 0x1c, 0x3d, 0x48, 0x89, 0x9f, 0xbe,
  0x78, 0x51, 0xea, 0x3e, 0xf4, 0x64, 0xce, 0xbe, 0x04, 0x0c, 0xe4, 0xbe,
  0xf4, 0x82, 0xbd, 0xbd, 0x8b, 0x2b, 0x5c, 0xbe, 0x2f, 0x32, 0x3e, 0xbe,
  0xec, 0x99, 0x2d, 0x3f, 0xb7, 0xdc, 0x7c, 0x3e, 0x41, 0xdd, 0xc5, 0x3c,
  0x9f, 0xd3, 0xd4, 0xbe, 0x54, 0x7e, 0x90, 0x3b, 0x4b, 0x1a, 0x6a, 0xbc,
  0x1a, 0x79, 0x9e, 0x3d, 0x82, 0x1a, 0xd2, 0x3d, 0xb3, 0x36, 0x83, 0x3e,
  0xda, 0x9a, 0xb2, 0xbd, 0x29, 0xb3, 0xfc, 0x3e, 0xe0, 0x43, 0xfb, 0xbd,
  0x05, 0x7e, 0x50, 0xbe, 0x53, 0x3a, 0xaf, 0x3d, 0xbe, 0x21, 0x2b, 0xbe,
  0x10, 0xca, 0x71, 0x3d, 0x48, 0x74, 0x54, 0x3f, 0x08, 0xc3, 0x00, 0xbe,
  0x25, 0xda, 0x08, 0x3f, 0x81, 0x2a, 0x8c, 0xbe, 0x60, 0x00, 0x7f, 0xbe,
  0x00, 0xb0, 0x03, 0xbd, 0x06, 0x67, 0xbd, 0x3d, 0x12, 0xf1, 0x33, 0x3e,
  0xc3, 0xb1, 0xc4, 0x3e, 0x7d, 0x8b, 0x23, 0xbe, 0xde, 0x18, 0x6e, 0xbd,
  0xac, 0x7c, 0x8e, 0xbe, 0x69, 0x99, 0x92, 0xbe, 0x8c, 0x08, 0x0c, 0xbf,
  0x9e, 0x68, 0x49, 0xbe, 0x41, 0xf3, 0x2f, 0xbe, 0xd0, 0x4e, 0xf1, 0x3e,
  0x99, 0xf5, 0x45, 0xbe, 0x88, 0x5a, 0xdf, 0x3e, 0x89, 0xe6, 0x92, 0xbe,
  0x9a, 0x5d, 0xe0, 0xbe, 0x79, 0x69, 0x0b, 0xbd, 0x05, 0xac, 0xaf, 0xbd,
  0x37, 0x50, 0xb2, 0x3e, 0x09, 0x3b, 0xed, 0x3d, 0x2d, 0xcb, 0xbe, 0xbe,
  0x2e, 0x35, 0x05, 0xbe, 0x29, 0xac, 0xec, 0x3d, 0x9a, 0x79, 0x89, 0xbe,
  0x76, 0x4c, 0x0f, 0xbf, 0xf1, 0xd3, 0x85, 0x3d, 0x78, 0xcc, 0xca, 0x3c,
  0x57, 0x80, 0xbe, 0x3e, 0xc9, 0xe3, 0x57, 0xbe, 0x11, 0x40, 0x4e, 0x3c,
  0xc1, 0xc3, 0x99, 0xbe, 0x6c, 0xc6, 0x2b, 0xbe, 0xfc, 0xdf, 0x77, 0xbd,
  0xcf, 0x2b, 0x7b, 0xbd, 0x5a, 0x6c, 0x3a, 0x3e, 0x95, 0x0c, 0xff, 0x3d,
  0xe8, 0xa5, 0x4d, 0x3c, 0xca, 0xed, 0xe9, 0x3d, 0x67, 0xdb, 0xfc, 0x3d,
  0xe8, 0xb3, 0x81, 0xbd, 0x85, 0x1c, 0x5e, 0x3d, 0xea, 0x92, 0x99, 0x3d,
  0x14, 0x95, 0x0a, 0x3e, 0xaf, 0x12, 0x1d, 0x3f, 0x4b, 0x41, 0xbc, 0x3e,
  0xd4, 0x49, 0xf4, 0x3e, 0xf3, 0x0a, 0x87, 0xbe, 0x67, 0x92, 0xc4, 0xbd,
  0x02, 0x4b, 0x3c, 0xbd, 0xa1, 0xec, 0xbf, 0xbc, 0x23, 0x38, 0xfb, 0xbc,
  0xaa, 0xc1, 0x96, 0xbd, 0x87, 0xc7, 0xea, 0x3c, 0x5a, 0x48, 0x51, 0x3e,
  0x54, 0x99, 0x53, 0xbd, 0x96, 0x2d, 0x57, 0x3d, 0x69, 0xd6, 0x39, 0x3e,
  0x93, 0x3d, 0x31, 0x3e, 0x2a, 0xba, 0x80, 0xbd, 0x15, 0x7f, 0xad, 0x3e,
  0xa8, 0xb1, 0x67, 0x3e, 0x37, 0x3c, 0xbb, 0x3e, 0x26, 0x5c, 0x49, 0xbd,
  0x16, 0xbf, 0xd9, 0x3d, 0x1b, 0x18, 0x1f, 0x3d, 0x4a, 0x21, 0xef, 0xbd,
  0x31, 0x0e, 0x2e, 0x3d, 0xb8, 0x04, 0x81, 0xbd, 0xcf, 0x01, 0x89, 0xbc,
  0x82, 0xaa, 0x12, 0x3c, 0x23, 0xf3, 0x0e, 0xbd, 0x54, 0x5c, 0x4e, 0xbd,
  0x9a, 0xee, 0x45, 0x3e, 0xa6, 0x19, 0xac, 0xbb, 0x87, 0xb6, 0x14, 0xbe,
  0x63, 0xf2, 0x28, 0x3f, 0xe8, 0x39, 0x8f, 0x3d, 0xfd, 0x52, 0xfc, 0x3d,
  0xbf, 0xd6, 0xc0, 0x3c, 0x07, 0x77, 0x8e, 0xbd, 0x17, 0x9c, 0xdb, 0xbd,
  0x38, 0x28, 0x5e, 0xbd, 0x53, 0xe1, 0x90, 0x3d, 0x89, 0x92, 0x3c, 0xbe,
  0xa4, 0xfb, 0x9a, 0x3c, 0xc3, 0xac, 0xc4, 0xbd, 0x5f, 0xd7, 0x98, 0xbe,
  0xff, 0xdf, 0x99, 0x3a, 0x6f, 0x94, 0xa4, 0xbb, 0x98, 0xe1, 0xa7, 0x3c,
  0x4a, 0xf7, 0x39, 0xbe, 0x10, 0x83, 0x3a, 0xbe, 0xd9, 0xf3, 0xa3, 0xbd,
  0x46, 0x57, 0x5f, 0xbe, 0x20, 0xf4, 0x36, 0xbe, 0x87, 0x1d, 0x9c, 0xbc,
  0xbf, 0xf5, 0x24, 0x3c, 0xc4, 0x55, 0xf3, 0x3d, 0xf2, 0xe9, 0x4b, 0xbe,
  0x28, 0x27, 0x8b, 0xbd, 0x21, 0x63, 0x80, 0xbe, 0x8d, 0x94, 0x83, 0x3d,
  0xa6, 0x0a, 0x7a, 0xbe, 0x7a, 0x5d, 0xd4, 0x3c, 0x26, 0x60, 0x53, 0xbd,
  0x07, 0xed, 0x66, 0x3d, 0xe0, 0x54, 0x34, 0xbd, 0xf8, 0xb0, 0xb6, 0x3d,
  0x3e, 0x06, 0x2f, 0xbd, 0x37, 0xac, 0xbb, 0xbc, 0xd4, 0xbf, 0x79, 0xbd,
  0x27, 0x31, 0x94, 0xbe, 0x4a, 0x57, 0x6d, 0xbe, 0xe7, 0x39, 0xc0, 0x3d,
  0x85, 0x64, 0x92, 0xbd, 0x7f, 0x54, 0x6b, 0x3d, 0xfa, 0x56, 0x43, 0xbe,
  0x3f, 0xac, 0xc4, 0x3d, 0xc1, 0xfe, 0xca, 0x3d, 0x8b, 0x1b, 0x71, 0xbd,
  0xd3, 0x5e, 0x1e, 0x3e, 0x07, 0x5f, 0x43, 0xbe, 0x55, 0x8c, 0xd7, 0xbd,
  0xfc, 0x80, 0x36, 0xbd, 0x20, 0x3e, 0x44, 0xbd, 0xe4, 0x4d, 0xac, 0xbc,
  0x08, 0xd3, 0x6e, 0xbe, 0xb9, 0x65, 0x9d, 0xbd, 0x9f, 0x8e, 0xd1, 0xbd,
  0xb6, 0x15, 0x00, 0x3d, 0xa1, 0xce, 0xfa, 0x3d, 0xaf, 0x01, 0x7d, 0xbd,
  0xa3, 0xfe, 0x82, 0xbe, 0x7c, 0x00, 0x29, 0xbe, 0xec, 0x2a, 0x17, 0x3d,
  0x6e, 0xa3, 0x2f, 0xba, 0xdd, 0x63, 0xf0, 0xbd, 0x1d, 0xb3, 0xaf, 0xbd,
  0x3c, 0xfa, 0x1b, 0x3e, 0xdb, 0x2a, 0x15, 0xbe, 0x34, 0xf8, 0x29, 0x3e,
  0x77, 0xe3, 0x25, 0xbe, 0xb8, 0x57, 0x56, 0xbd, 0xa8, 0xca, 0x9c, 0xbd,
  0x2c, 0x87, 0xfe, 0xbd, 0x84, 0xb6, 0xf7, 0x3d, 0x66, 0x7d, 0xe3, 0xbd,
  0x48, 0x1e, 0x14, 0xbe, 0xa7, 0x9a, 0xf0, 0xbd, 0x7a, 0x33, 0x20, 0xbe,
  0x81, 0x14, 0x04, 0x3e, 0x6e, 0x08, 0x17, 0xbe, 0x5c, 0xb4, 0x7e, 0x3d,
  0x7d, 0xa8, 0x80, 0xbe, 0xb6, 0xc1, 0x4e, 0xbe, 0x85, 0xea, 0x41, 0x3e,
  0x3e, 0x95, 0xcb, 0x3d, 0xeb, 0x2c, 0xb4, 0xbd, 0x85, 0xf5, 0xa3, 0xbe,
  0x87, 0x48, 0x4c, 0xbd, 0x7d, 0x8d, 0x86, 0xbe, 0x6e, 0xb8, 0x69, 0x3d,
  0xbe, 0x28, 0x86, 0x3c, 0xf0, 0x1d, 0x18, 0xbd, 0xf1, 0x7a, 0x93, 0xbe,
  0xee, 0x60, 0xde, 0xbd, 0x40, 0x42, 0xd0, 0x3d, 0xc8, 0x42, 0x2f, 0xbd,
  0x52, 0x87, 0x87, 0x3c, 0xf9, 0xc6, 0xd9, 0x3d, 0x7e, 0x89, 0xb0, 0xbd,
  0x01, 0x19, 0xef, 0xbc, 0x90, 0x9b, 0xce, 0xbc, 0x6c, 0x92, 0x6b, 0xbd,
  0xbe, 0x05, 0x11, 0xbe, 0x1b, 0xc7, 0x50, 0xbe, 0xfe, 0xe6, 0xa1, 0xbe,
  0xb6, 0xdd, 0x49, 0x3e, 0xc5, 0x2a, 0x89, 0x3d, 0xb0, 0x73, 0xac, 0xbe,
  0xc4, 0xd2, 0xe8, 0xbd, 0x75, 0x77, 0xb2, 0xbd, 0xe7, 0xd5, 0xa8, 0xbe,
  0xe5, 0xbf, 0x1b, 0xbd, 0x8f, 0x02, 0x28, 0xbc, 0x68, 0xaa, 0xcb, 0x3d,
  0xf2, 0xfa, 0xe6, 0xbd, 0xc5, 0x8c, 0x11, 0xbe, 0x56, 0x3a, 0x6f, 0xbe,
  0x6e, 0xf7, 0x98, 0x3d, 0x99, 0xe3, 0xb1, 0x3c, 0x15, 0xff, 0x7b, 0x3e,
  0xd8, 0x3f, 0x9a, 0xbe, 0xd1, 0xaa, 0xa7, 0x3d, 0xa0, 0x57, 0x8b, 0x3e,
  0x79, 0x73, 0x64, 0xbd, 0x08, 0xa9, 0x4c, 0x3e, 0x5f, 0x06, 0x24, 0xbe,
  0x93, 0x86, 0x90, 0x3e, 0x29, 0xf3, 0xd0, 0xbd, 0x43, 0x13, 0x0b, 0xbe,
  0x49, 0x80, 0x80, 0xbe, 0x23, 0x59, 0xd8, 0x3d, 0x29, 0x01, 0x06, 0x3f,
  0x31, 0x40, 0xa3, 0xbd, 0xe9, 0x33, 0xaa, 0xbe, 0x36, 0x0f, 0xb3, 0x3d,
  0x7c, 0xf4, 0x0c, 0xbc, 0x1f, 0xb1, 0x1f, 0xbe, 0x17, 0xf2, 0x17, 0xbd,
  0xc5, 0x30, 0x72, 0xbc, 0x64, 0x63, 0xf6, 0x3d, 0x91, 0x67, 0x6d, 0xbe,
  0x3b, 0xbb, 0xfc, 0x3d, 0xfb, 0x8f, 0xa6, 0x3e, 0x00, 0x84, 0x8b, 0x3d,
  0xff, 0xe7, 0x43, 0x3d, 0x04, 0xb8, 0xb9, 0xbd, 0x1b, 0x78, 0xde, 0x3d,
  0x59, 0xec, 0x8e, 0x3f, 0xce, 0x1d, 0x84, 0x3d, 0x8f, 0x2b, 0xe7, 0x3e,
  0x29, 0x69, 0x90, 0x3c, 0x67, 0x25, 0x8e, 0xbe, 0x55, 0x50, 0x34, 0xbe,
  0x51, 0x5f, 0x0e, 0x3c, 0x69, 0x25, 0xff, 0x3c, 0xe8, 0x0d, 0x1b, 0x3e,
  0xd3, 0xe3, 0xa1, 0xbe, 0x0f, 0xbb, 0x5a, 0x3e, 0xe3, 0x5c, 0x34, 0x3d,
  0xe9, 0xeb, 0x7b, 0xbd, 0xd6, 0x3e, 0xfe, 0x3c, 0xb5, 0xa0, 0x66, 0xbd,
  0xa4, 0x38, 0xcb, 0xbc, 0xb5, 0x46, 0x26, 0x3f, 0x60, 0x65, 0x89, 0x3e,
  0x1c, 0x7a, 0xa0, 0x3e, 0x27, 0x3b, 0xd2, 0xbc, 0x7c, 0xd7, 0xec, 0xbe,
  0xfd, 0x2d, 0x4e, 0xbe, 0x52, 0xf4, 0xce, 0xbd, 0xde, 0xe7, 0xea, 0x3e,
  0xfc, 0x31, 0xfc, 0x3d, 0xd9, 0x3a, 0xa8, 0xbe, 0xd0, 0xd8, 0x25, 0xbe,
  0xbd, 0xf3, 0xae, 0x3d, 0x54, 0x8b, 0x11, 0x3e, 0x76, 0xac, 0xf6, 0x3d,
  0x4a, 0xbe, 0xaf, 0x3c, 0xc0, 0xba, 0x2c, 0x3d, 0x43, 0x5f, 0x3f, 0x3e,
  0x9a, 0x19, 0x58, 0x3d, 0x0c, 0x3b, 0x52, 0x3e, 0x52, 0x0b, 0x35, 0xba,
  0x70, 0x10, 0x05, 0xbe, 0x13, 0x28, 0x82, 0xbe, 0xb9, 0xc8, 0x77, 0x3e,
  0x12, 0x6e, 0x1c, 0x3d, 0xc1, 0x15, 0x73, 0x3e, 0xfe, 0x22, 0xab, 0xbd,
  0x97, 0xed, 0xb8, 0xbd, 0xe0, 0x39, 0x3c, 0x3e, 0x03, 0x38, 0xb0, 0x3c,
  0x44, 0xd6, 0x81, 0xbe, 0xd7, 0x8d, 0xfa, 0xbb, 0x43, 0xc7, 0x09, 0xbe,
  0xd1, 0xb2, 0xc1, 0xbd, 0x9d, 0x1d, 0x94, 0x3b, 0x92, 0x99, 0x91, 0x3c,
  0x22, 0xd6, 0x31, 0x3d, 0xaf, 0x12, 0x65, 0x3e, 0x96, 0x07, 0xe0, 0xbd,
  0x60, 0x1f, 0xb1, 0xbd, 0x3b, 0xab, 0x4a, 0x3e, 0xf9, 0x5b, 0x8e, 0x3e,
  0xb9, 0x8d, 0x6d, 0x3d, 0x73, 0x04, 0xe1, 0xbd, 0x88, 0x30, 0x87, 0x3e,
  0xd6, 0xe3, 0x4b, 0xbd, 0xb1, 0x62, 0xaf, 0x3d, 0x0a, 0xaa, 0x7e, 0xbd,
  0x41, 0x13, 0x2f, 0x3e, 0xd0, 0xb4, 0x10, 0xbe, 0xc2, 0xd0, 0xb1, 0xbd,
  0xb3, 0x14, 0x13, 0xbd, 0xb8, 0xfd, 0x13, 0x3e, 0x79, 0x01, 0xf4, 0xbd,
  0xdb, 0xa4, 0x70, 0x3d, 0x84, 0xa9, 0xa2, 0xbc, 0x37, 0xce, 0x19, 0x3c,
  0xdf, 0xb9, 0x22, 0xbd, 0x1e, 0xc3, 0xaf, 0xbe, 0x7c, 0x26, 0x12, 0xbd,
  0xc1, 0xac, 0xd8, 0xbd, 0xee, 0x23, 0x0e, 0xbe, 0xf1, 0xef, 0xf1, 0xbd,
  0x4e, 0x34, 0xf7, 0xbd, 0xe9, 0xd3, 0xe1, 0x3d, 0x9f, 0x94, 0x18, 0x3f,
  0x37, 0x9e, 0x00, 0x3e, 0x61, 0xfa, 0x96, 0x3d, 0xa8, 0xe5, 0x2e, 0xbc,
  0xc3, 0xc6, 0x8e, 0xbe, 0x17, 0x8a, 0x0a, 0x3e, 0xd4, 0xae, 0x8b, 0xbe,
  0x2c, 0x99, 0x05, 0x3f, 0xb7, 0xd3, 0xa2, 0x3e, 0x0a, 0xb0, 0x3d, 0xbe,
  0xbf, 0x67, 0x96, 0xbe, 0x2f, 0xdb, 0xfb, 0xbd, 0x7d, 0x1d, 0x20, 0x3f,
  0x00, 0xda, 0x09, 0x3d, 0x5c, 0xb6, 0x0f, 0x3e, 0x2b, 0x47, 0x29, 0xbe,
  0xf6, 0xf3, 0x8e, 0x3e, 0x3b, 0xa3, 0x3b, 0xbe, 0x62, 0xe4, 0x08, 0x3e,
  0x22, 0x7c, 0x49, 0xbc, 0xe9, 0xca, 0x82, 0xbd, 0x57, 0xe2, 0x76, 0x3c,
  0xeb, 0xfb, 0x50, 0x3c, 0x92, 0xb3, 0xdf, 0x3e, 0x3d, 0x2d, 0x4b, 0x3d,
  0x52, 0x30, 0xfd, 0xbe, 0x6c, 0x99, 0x71, 0xbe, 0x0c, 0xda, 0x71, 0xbd,
  0x66, 0xf9, 0xad, 0x3e, 0xcc, 0xea, 0x4d, 0x3d, 0x7f, 0xab, 0x8f, 0x3d,
  0xeb, 0xa7, 0x4f, 0xbe, 0xb8, 0x38, 0x9f, 0x3e, 0x16, 0x27, 0xca, 0xbd,
  0x87, 0xfb, 0x7b, 0xbe, 0x63, 0xfb, 0xfb, 0xbb, 0xe3, 0x75, 0x73, 0x3d,
  0x4b, 0x2b, 0x08, 0x3d, 0xbb, 0x39, 0x5f, 0xbe, 0x86, 0x27, 0x57, 0x3e,
  0x74, 0x8c, 0x5b, 0x3e, 0x25, 0x63, 0xbd, 0xbe, 0xe4, 0x8f, 0x60, 0x3e,
  0x85, 0x0f, 0xf8, 0xbd, 0x44, 0x04, 0x62, 0x3e, 0x64, 0xe3, 0x8d, 0x3e,
  0xf8, 0x75, 0x99, 0x3b, 0x33, 0x72, 0x93, 0x3d, 0xd4, 0x51, 0xca, 0x3e,
  0xf7, 0xdf, 0x33, 0x3d, 0x9a, 0x32, 0x0d, 0xbe, 0xec, 0xa8, 0xd5, 0x3b,
  0xf5, 0x92, 0x07, 0x3e, 0x4f, 0x2c, 0x25, 0x3c, 0xbc, 0x71, 0x68, 0xbe,
  0x50, 0x38, 0x01, 0x3e, 0x79, 0x30, 0xd1, 0x3e, 0x08, 0xdf, 0x08, 0xbe,
  0x93, 0x96, 0x49, 0xbc, 0xd5, 0x8b, 0xc4, 0xbd, 0x4c, 0xed, 0x7e, 0x3e,
  0x49, 0xae, 0xe9, 0x3e, 0x09, 0x31, 0xf0, 0x39, 0xd3, 0xd5, 0xde, 0xbd,
  0x1b, 0xa2, 0xe8, 0x3d, 0xe4, 0x57, 0xb9, 0xbb, 0x29, 0xa9, 0x03, 0x3e,
  0xe9, 0xcf, 0x97, 0x3c, 0xc7, 0xb6, 0x97, 0x3d, 0xa1, 0xb4, 0x1b, 0x3d,
  0x39, 0x15, 0xda, 0xbb, 0x5f, 0x84, 0xfb, 0x3e, 0xed, 0xb6, 0x96, 0x3e,
  0x18, 0xbd, 0x07, 0x3d, 0xbb, 0x4b, 0x93, 0x3b, 0xd8, 0x9a, 0x93, 0xbd,
  0x8d, 0x61, 0xe0, 0x3e, 0x95, 0xb9, 0x0a, 0x3e, 0x4b, 0x6c, 0x59, 0x3c,
  0x0a, 0xf5, 0x45, 0x3e, 0x99, 0x06, 0x98, 0xbe, 0xa4, 0xd8, 0x02, 0xbd,
  0x55, 0x5c, 0x54, 0xbe, 0x12, 0x76, 0xeb, 0xba, 0x89, 0xe6, 0x5b, 0xbe,
  0xd1, 0xc8, 0x10, 0xbd, 0x5f, 0x44, 0xd4, 0x3a, 0x2e, 0xf1, 0x41, 0x3e,
  0x6e, 0x74, 0x3d, 0x3e, 0x79, 0xb9, 0x98, 0xba, 0xdf, 0xba, 0x52, 0xbe,
  0x16, 0xc9, 0x2c, 0xbe, 0xb2, 0x75, 0x06, 0x3f, 0x36, 0xee, 0x93, 0x3e,
  0xf5, 0x63, 0xa8, 0x3c, 0x63, 0x4e, 0xc0, 0xbd, 0x7c, 0x10, 0x24, 0x3e,
  0xda, 0xb7, 0x0f, 0xbe, 0x8f, 0xf2, 0x98, 0xbe, 0x7d, 0xc7, 0x9f, 0xbc,
  0xc4, 0x53, 0x36, 0xbd, 0x70, 0x28, 0x6e, 0xbd, 0xce, 0x63, 0x21, 0x3e,
  0x12, 0x09, 0x99, 0x3e, 0x03, 0xe6, 0x38, 0xbd, 0x8b, 0xc8, 0xc1, 0xbd,
  0x78, 0xd5, 0x8a, 0xbd, 0x3a, 0x44, 0x4d, 0x3d, 0x84, 0x20, 0x01, 0x3e,
  0x78, 0x24, 0xd9, 0x3d, 0x0e, 0xe6, 0xde, 0x3d, 0x1a, 0xfd, 0x10, 0xbe,
  0x4f, 0x83, 0x19, 0x3e, 0xf6, 0x5b, 0xd4, 0x3c, 0x42, 0x8d, 0x1b, 0xbe,
  0x46, 0xfe, 0xff, 0xff, 0x10, 0x00, 0x00, 0x00, 0x05, 0x00, 0x00, 0x00,
  0x14, 0x00, 0x00, 0x00, 0x2c, 0x00, 0x00, 0x00, 0x02, 0x00, 0x00, 0x00,
  0x10, 0x00, 0x00, 0x00, 0x70, 0x00, 0x00, 0x00, 0x17, 0x00, 0x00, 0x00,
  0x73, 0x65, 0x71, 0x75, 0x65, 0x6e, 0x74, 0x69, 0x61, 0x6c, 0x2f, 0x64,
  0x65, 0x6e, 0x73, 0x65, 0x2f, 0x4d, 0x61, 0x74, 0x4d, 0x75, 0x6c, 0x00,
  0x34, 0xfe, 0xff, 0xff, 0x2a, 0xff, 0xff, 0xff, 0x04, 0x00, 0x00, 0x00,
  0x08, 0x00, 0x00, 0x00, 0xff, 0xff, 0xff, 0xff, 0x70, 0x00, 0x00, 0x00,
  0x00, 0x00, 0x0e, 0x00, 0x18, 0x00, 0x08, 0x00, 0x07, 0x00, 0x0c, 0x00,
  0x10, 0x00, 0x14, 0x00, 0x0e, 0x00, 0x00, 0x00, 0x00, 0x00, 0x00, 0x02,
  0x10, 0x00, 0x00, 0x00, 0x04, 0x00, 0x00, 0x00, 0x10, 0x00, 0x00, 0x00,
  0x2c, 0x00, 0x00, 0x00, 0x01, 0x00, 0x00, 0x00, 0x02, 0x00, 0x00, 0x00,
  0x18, 0x00, 0x00, 0x00, 0x73, 0x65, 0x71, 0x75, 0x65, 0x6e, 0x74, 0x69,
  0x61, 0x6c, 0x2f, 0x66, 0x6c, 0x61, 0x74, 0x74, 0x65, 0x6e, 0x2f, 0x43,
  0x6f, 0x6e, 0x73, 0x74, 0x00, 0x00, 0x00, 0x00, 0x9c, 0xfe, 0xff, 0xff,
  0x92, 0xff, 0xff, 0xff, 0x04, 0x00, 0x00, 0x00, 0x10, 0x00, 0x00, 0x00,
  0x49, 0xbc, 0x82, 0xc0, 0xeb, 0x42, 0xbb, 0xc0, 0x17, 0x6e, 0xd5, 0x3f,
  0x43, 0x1b, 0xa3, 0x3f, 0x0a, 0xff, 0xff, 0xff, 0x10, 0x00, 0x00, 0x00,
  0x03, 0x00, 0x00, 0x00, 0x10, 0x00, 0x00, 0x00, 0x3c, 0x00, 0x00, 0x00,
  0x01, 0x00, 0x00, 0x00, 0x04, 0x00, 0x00, 0x00, 0x29, 0x00, 0x00, 0x00,
  0x73, 0x65, 0x71, 0x75, 0x65, 0x6e, 0x74, 0x69, 0x61, 0x6c, 0x2f, 0x64,
  0x65, 0x6e, 0x73, 0x65, 0x5f, 0x31, 0x2f, 0x42, 0x69, 0x61, 0x73, 0x41,
  0x64, 0x64, 0x2f, 0x52, 0x65, 0x61, 0x64, 0x56, 0x61, 0x72, 0x69, 0x61,
  0x62, 0x6c, 0x65, 0x4f, 0x70, 0x00, 0x00, 0x00, 0x60, 0xff, 0xff, 0xff,
  0x00, 0x00, 0x06, 0x00, 0x08, 0x00, 0x04, 0x00, 0x06, 0x00, 0x00, 0x00,
  0x04, 0x00, 0x00, 0x00, 0x40, 0x00, 0x00, 0x00, 0xf6, 0xe0, 0xad, 0xbe,
  0x2a, 0x10, 0x0a, 0xbf, 0xef, 0x32, 0xf5, 0xbd, 0x8b, 0xd1, 0xbd, 0xbe,
  0xdf, 0xbb, 0xf9, 0x3f, 0xa2, 0xeb, 0xa0, 0x3f, 0x89, 0xea, 0x54, 0xbe,
  0x25, 0xbf, 0x77, 0xbe, 0x1d, 0x99, 0x48, 0x3f, 0x25, 0xfd, 0x4a, 0x40,
  0xe1, 0xac, 0x09, 0xbe, 0x86, 0xfe, 0x6b, 0xbe, 0x45, 0x4f, 0x7d, 0xbe,
  0xa1, 0xc3, 0x5d, 0xbe, 0x89, 0xf1, 0x78, 0x3c, 0x71, 0x20, 0x2c, 0x3f,
  0xae, 0xff, 0xff, 0xff, 0x10, 0x00, 0x00, 0x00, 0x02, 0x00, 0x00, 0x00,
  0x10, 0x00, 0x00, 0x00, 0x3c, 0x00, 0x00, 0x00, 0x01, 0x00, 0x00, 0x00,
  0x10, 0x00, 0x00, 0x00, 0x27, 0x00, 0x00, 0x00, 0x73, 0x65, 0x71, 0x75,
  0x65, 0x6e, 0x74, 0x69, 0x61, 0x6c, 0x2f, 0x64, 0x65, 0x6e, 0x73, 0x65,
  0x2f, 0x42, 0x69, 0x61, 0x73, 0x41, 0x64, 0x64, 0x2f, 0x52, 0x65, 0x61,
  0x64, 0x56, 0x61, 0x72, 0x69, 0x61, 0x62, 0x6c, 0x65, 0x4f, 0x70, 0x00,
  0x04, 0x00, 0x06, 0x00, 0x04, 0x00, 0x00, 0x00, 0x00, 0x00, 0x0e, 0x00,
  0x14, 0x00, 0x04, 0x00, 0x00, 0x00, 0x08, 0x00, 0x0c, 0x00, 0x10, 0x00,
  0x0e, 0x00, 0x00, 0x00, 0x10, 0x00, 0x00, 0x00, 0x01, 0x00, 0x00, 0x00,
  0x1c, 0x00, 0x00, 0x00, 0x2c, 0x00, 0x00, 0x00, 0x04, 0x00, 0x00, 0x00,
  0x01, 0x00, 0x00, 0x00, 0x40, 0x00, 0x00, 0x00, 0x03, 0x00, 0x00, 0x00,
  0x01, 0x00, 0x00, 0x00, 0x0c, 0x00, 0x00, 0x00, 0x63, 0x6f, 0x6e, 0x76,
  0x32, 0x64, 0x5f, 0x69, 0x6e, 0x70, 0x75, 0x74, 0x00, 0x00, 0x00, 0x00,
  0xfc, 0xff, 0xff, 0xff, 0x04, 0x00, 0x04, 0x00, 0x04, 0x00, 0x00, 0x00
};

unsigned int model_tflite_len = 12384;// Fill the int in `src/model.cc` here